{
  "version": "1.0",
  "truncation": null,
  "padding": null,
  "added_tokens": [
    {
      "id": 0,
      "content": "<|endoftext|>",
      "single_word": false,
      "lstrip": false,
      "rstrip": false,
      "normalized": false,
      "special": true
    },
    {
      "id": 1,
      "content": "<|pad|>",
      "single_word": false,
      "lstrip": false,
      "rstrip": false,
      "normalized": false,
      "special": true
    },
    {
      "id": 2,
      "content": "<|unk|>",
      "single_word": false,
      "lstrip": false,
      "rstrip": false,
      "normalized": false,
      "special": true
    }
  ],
  "normalizer": null,
  "pre_tokenizer": {
    "type": "ByteLevel",
    "add_prefix_space": false,
    "trim_offsets": true,
    "use_regex": true
  },
  "post_processor": {
    "type": "ByteLevel",
    "add_prefix_space": true,
    "trim_offsets": false,
    "use_regex": true
  },
  "decoder": {
    "type": "ByteLevel",
    "add_prefix_space": true,
    "trim_offsets": true,
    "use_regex": true
  },
  "model": {
    "type": "BPE",
    "dropout": null,
    "unk_token": null,
    "continuing_subword_prefix": "",
    "end_of_word_suffix": "",
    "fuse_unk": false,
    "byte_fallback": false,
    "ignore_merges": false,
    "vocab": {
      "<|endoftext|>": 0,
      "<|pad|>": 1,
      "<|unk|>": 2,
      "!": 3,
      "\"": 4,
      "#": 5,
      "$": 6,
      "%": 7,
      "&": 8,
      "'": 9,
      "(": 10,
      ")": 11,
      "*": 12,
      "+": 13,
      ",": 14,
      "-": 15,
      ".": 16,
      "/": 17,
      "0": 18,
      "1": 19,
      "2": 20,
      "3": 21,
      "4": 22,
      "5": 23,
      "6": 24,
      "7": 25,
      "8": 26,
      "9": 27,
      ":": 28,
      ";": 29,
      "<": 30,
      "=": 31,
      ">": 32,
      "?": 33,
      "@": 34,
      "A": 35,
      "B": 36,
      "C": 37,
      "D": 38,
      "E": 39,
      "F": 40,
      "G": 41,
      "H": 42,
      "I": 43,
      "J": 44,
      "K": 45,
      "L": 46,
      "M": 47,
      "N": 48,
      "O": 49,
      "P": 50,
      "Q": 51,
      "R": 52,
      "S": 53,
      "T": 54,
      "U": 55,
      "V": 56,
      "W": 57,
      "X": 58,
      "Y": 59,
      "Z": 60,
      "[": 61,
      "\\": 62,
      "]": 63,
      "^": 64,
      "_": 65,
      "`": 66,
      "a": 67,
      "b": 68,
      "c": 69,
      "d": 70,
      "e": 71,
      "f": 72,
      "g": 73,
      "h": 74,
      "i": 75,
      "j": 76,
      "k": 77,
      "l": 78,
      "m": 79,
      "n": 80,
      "o": 81,
      "p": 82,
      "q": 83,
      "r": 84,
      "s": 85,
      "t": 86,
      "u": 87,
      "v": 88,
      "w": 89,
      "x": 90,
      "y": 91,
      "z": 92,
      "{": 93,
      "|": 94,
      "}": 95,
      "~": 96,
      "¡": 97,
      "¢": 98,
      "£": 99,
      "¤": 100,
      "¥": 101,
      "¦": 102,
      "§": 103,
      "¨": 104,
      "©": 105,
      "ª": 106,
      "«": 107,
      "¬": 108,
      "®": 109,
      "¯": 110,
      "°": 111,
      "±": 112,
      "²": 113,
      "³": 114,
      "´": 115,
      "µ": 116,
      "¶": 117,
      "·": 118,
      "¸": 119,
      "¹": 120,
      "º": 121,
      "»": 122,
      "¼": 123,
      "½": 124,
      "¾": 125,
      "¿": 126,
      "À": 127,
      "Á": 128,
      "Â": 129,
      "Ã": 130,
      "Ä": 131,
      "Å": 132,
      "Æ": 133,
      "Ç": 134,
      "È": 135,
      "É": 136,
      "Ê": 137,
      "Ë": 138,
      "Ì": 139,
      "Í": 140,
      "Î": 141,
      "Ï": 142,
      "Ð": 143,
      "Ñ": 144,
      "Ò": 145,
      "Ó": 146,
      "Ô": 147,
      "Õ": 148,
      "Ö": 149,
      "×": 150,
      "Ø": 151,
      "Ù": 152,
      "Ú": 153,
      "Û": 154,
      "Ü": 155,
      "Ý": 156,
      "Þ": 157,
      "ß": 158,
      "à": 159,
      "á": 160,
      "â": 161,
      "ã": 162,
      "ä": 163,
      "å": 164,
      "æ": 165,
      "ç": 166,
      "è": 167,
      "é": 168,
      "ê": 169,
      "ë": 170,
      "ì": 171,
      "í": 172,
      "î": 173,
      "ï": 174,
      "ð": 175,
      "ñ": 176,
      "ò": 177,
      "ó": 178,
      "ô": 179,
      "õ": 180,
      "ö": 181,
      "÷": 182,
      "ø": 183,
      "ù": 184,
      "ú": 185,
      "û": 186,
      "ü": 187,
      "ý": 188,
      "þ": 189,
      "ÿ": 190,
      "Ā": 191,
      "ā": 192,
      "Ă": 193,
      "ă": 194,
      "Ą": 195,
      "ą": 196,
      "Ć": 197,
      "ć": 198,
      "Ĉ": 199,
      "ĉ": 200,
      "Ċ": 201,
      "ċ": 202,
      "Č": 203,
      "č": 204,
      "Ď": 205,
      "ď": 206,
      "Đ": 207,
      "đ": 208,
      "Ē": 209,
      "ē": 210,
      "Ĕ": 211,
      "ĕ": 212,
      "Ė": 213,
      "ė": 214,
      "Ę": 215,
      "ę": 216,
      "Ě": 217,
      "ě": 218,
      "Ĝ": 219,
      "ĝ": 220,
      "Ğ": 221,
      "ğ": 222,
      "Ġ": 223,
      "ġ": 224,
      "Ģ": 225,
      "ģ": 226,
      "Ĥ": 227,
      "ĥ": 228,
      "Ħ": 229,
      "ħ": 230,
      "Ĩ": 231,
      "ĩ": 232,
      "Ī": 233,
      "ī": 234,
      "Ĭ": 235,
      "ĭ": 236,
      "Į": 237,
      "į": 238,
      "İ": 239,
      "ı": 240,
      "Ĳ": 241,
      "ĳ": 242,
      "Ĵ": 243,
      "ĵ": 244,
      "Ķ": 245,
      "ķ": 246,
      "ĸ": 247,
      "Ĺ": 248,
      "ĺ": 249,
      "Ļ": 250,
      "ļ": 251,
      "Ľ": 252,
      "ľ": 253,
      "Ŀ": 254,
      "ŀ": 255,
      "Ł": 256,
      "ł": 257,
      "Ń": 258,
      "ĠÜ": 259,
      "ÜĲ": 260,
      "Î½": 261,
      "á½": 262,
      "Î±": 263,
      "ÏĦ": 264,
      "Î¿": 265,
      "Ü¢": 266,
      "ÜĿ": 267,
      "Üĺ": 268,
      "ĠÎ": 269,
      "á¼": 270,
      "Îµ": 271,
      "Î¹": 272,
      "Üł": 273,
      "ÏĤ": 274,
      "á¿": 275,
      "Ġá¼": 276,
      "Ïĥ": 277,
      "Ü¡": 278,
      "Ü¬": 279,
      "Ïģ": 280,
      "Üª": 281,
      "ÏĢ": 282,
      "ÜĹ": 283,
      "Üķ": 284,
      "ĠÏĦ": 285,
      "ÜĴ": 286,
      "Î»": 287,
      "ĠÜķ": 288,
      "Î¼": 289,
      "ĠÜĲ": 290,
      "ÜŁ": 291,
      "Ïħ": 292,
      "Î±á½": 293,
      "Ü«": 294,
      "ĠÎº": 295,
      "ĠÜł": 296,
      "Îº": 297,
      "ÜĿÜ¢": 298,
      "Î·": 299,
      "Ü¥": 300,
      "ÜĺÜ¢": 301,
      "Ïī": 302,
      "ÌĪ": 303,
      "Î¯": 304,
      "Ġá½": 305,
      "ĠÜĺ": 306,
      "ĠÏĢ": 307,
      "Üļ": 308,
      "Î¸": 309,
      "Ġá¼Ĳ": 310,
      "ÎŃ": 311,
      "Î¿á¿": 312,
      "Î±á½¶": 313,
      "ĠÜ¡": 314,
      "Î³": 315,
      "Ìĩ": 316,
      "Õ¡": 317,
      "á½¸": 318,
      "ĠÜĹ": 319,
      "Î¿Î½": 320,
      "ĠÎ´": 321,
      "Î¬": 322,
      "Ì£": 323,
      "ÏĮ": 324,
      "Î´": 325,
      "Î¿á¿¦": 326,
      "Ġá¼Ģ": 327,
      "Î¿Ïħ": 328,
      "ĠÎºÎ±á½¶": 329,
      "Ü¬ÜĲ": 330,
      "Ü¦": 331,
      "Ü¢ÜĲ": 332,
      "ÏĦÎ±": 333,
      "á¿¶": 334,
      "Ü©": 335,
      "ĠÜĴ": 336,
      "Ïĩ": 337,
      "ĠÎ¼": 338,
      "ÜłÜĲ": 339,
      "Ü£": 340,
      "Õ¡Õ": 341,
      "ĠÕ": 342,
      "ÏĨ": 343,
      "ÏĦÎµ": 344,
      "ĠÏĥ": 345,
      "á½°": 346,
      "Î¿á½": 347,
      "Ïį": 348,
      "ĠÎµ": 349,
      "Î±Î½": 350,
      "á¿¶Î½": 351,
      "á½²": 352,
      "ÎµÎ½": 353,
      "á½´": 354,
      "ĠÎ±á½": 355,
      "ÎµÎ¹": 356,
      "ĲÏĦ": 357,
      "Î¿ÏĤ": 358,
      "ÜĿÜ¬": 359,
      "á¿ĸ": 360,
      "ÜĿÜĲ": 361,
      "ÏīÎ½": 362,
      "Õ¶": 363,
      "ÜĽ": 364,
      "Î®": 365,
      "á¿Ĩ": 366,
      "Î¿Î¹": 367,
      "ĠÎ±á½ĲÏĦ": 368,
      "Î±Î¹": 369,
      "ĠÜĹÜĺ": 370,
      "ÖĢ": 371,
      "ĠÜ¥": 372,
      "á¾": 373,
      "Üĵ": 374,
      "ĠÏĦá½¸": 375,
      "ÜĨ": 376,
      "ĠÎµá¼": 377,
      "Â·": 378,
      "ÜłÜĹ": 379,
      "Õ¸": 380,
      "Â¬": 381,
      "Ü¡ÜĲ": 382,
      "ÏĦÎ¹": 383,
      "Õ¥": 384,
      "ÏĥÎ¹": 385,
      "ĠÜłÜĹ": 386,
      "Õ«": 387,
      "ÜĹÜĿ": 388,
      "ÜĻ": 389,
      "Ġá½ģ": 390,
      "ĠÜĲÜ¢": 391,
      "ĠÎ³": 392,
      "á½´Î½": 393,
      "ÜķÜĲ": 394,
      "ĠÎ´á½²": 395,
      "ĠÜĺÜĲ": 396,
      "ÜªÜĲ": 397,
      "ĠÜ¢": 398,
      "Î²": 399,
      "Î±Ïģ": 400,
      "ĠÜŁ": 401,
      "âĢ": 402,
      "ĠÎ¿á½": 403,
      "ĠÜĿ": 404,
      "ĠÏĦÎ¿á¿¦": 405,
      "ĠÜķÜĲ": 406,
      "ĠÜłÜĲ": 407,
      "ÏĦÎ±Î¹": 408,
      "ĠÎ»": 409,
      "ÎµÏģ": 410,
      "Î¾": 411,
      "Î±ÏĤ": 412,
      "ĠÏĢÏģ": 413,
      "ÜŁÜĺÜ¢": 414,
      "á¿ĨÏĤ": 415,
      "Î¼Î±": 416,
      "ÜĹÜĺ": 417,
      "á½¶": 418,
      "Îµá¿ĸ": 419,
      "ĠÜķÜĿÜ¢": 420,
      "Ü«ÜĲ": 421,
      "ĠÜļ": 422,
      "Ïİ": 423,
      "ÜĿÜł": 424,
      "Ġá¼ĲÎ½": 425,
      "ĠÎµá¼°": 426,
      "Ü«Üĺ": 427,
      "Ġá½ĳ": 428,
      "Ġá¼Ķ": 429,
      "ÜķÜ¡": 430,
      "ÎŃÎ½": 431,
      "ĠÎ¸": 432,
      "Î·Ïĥ": 433,
      "ÜĿÜª": 434,
      "ÖĤ": 435,
      "Ġá¼¡": 436,
      "ĠÎºÎ±": 437,
      "ĠÜ¡Ü¢": 438,
      "ĠÜ«": 439,
      "á¿·": 440,
      "âĢ¤": 441,
      "ÏĥÏĦ": 442,
      "ĠÜ¬": 443,
      "Ġá¼ĢÏĢ": 444,
      "Î»Î»": 445,
      "ÜłÜ¡": 446,
      "ĠÏĦá½´Î½": 447,
      "Ü¡Ü¢": 448,
      "ĠÜĲÜ¡": 449,
      "á¼±": 450,
      "Öģ": 451,
      "ÜĺÜĹÜĿ": 452,
      "ĠÎ´Î¹": 453,
      "ÜĿÜŁ": 454,
      "ĠÎ¿": 455,
      "ÏģÎ¹": 456,
      "ĠÎ¿á½Ĳ": 457,
      "Î¼ÎµÎ½": 458,
      "ÜĴÜĲ": 459,
      "Î½Î±": 460,
      "ÜļÜĲ": 461,
      "Õ½": 462,
      "ÏĮÎ½": 463,
      "ÜĺÜ¬": 464,
      "á½¸Î½": 465,
      "ĠÏĦá¿¶Î½": 466,
      "Î¿á¿ĸ": 467,
      "ÎµÎ¯": 468,
      "ÜĢ": 469,
      "Î¿á½º": 470,
      "á½¸ÏĤ": 471,
      "Ü«ÜĺÜ¥": 472,
      "Ü¨": 473,
      "ĠÏĨ": 474,
      "ÏģÎ±": 475,
      "Ġá½ħ": 476,
      "ĠÏĦá½¸Î½": 477,
      "Î¿á¿ĸÏĤ": 478,
      "ÏīÏĤ": 479,
      "ÜłÜĿ": 480,
      "ĠÜ©": 481,
      "ÜĴÜª": 482,
      "ĠÜĲÜ¢Ü¬": 483,
      "Ġá¼ĲÏĢ": 484,
      "ĠÜĵ": 485,
      "Î¿Ïį": 486,
      "ÜķÜĿÜ¢": 487,
      "Õ¡Õ¶": 488,
      "ÜªÜĿ": 489,
      "Î¶": 490,
      "Ġá¼ĲÎº": 491,
      "ÖĢÕ": 492,
      "ÎŃÎ³": 493,
      "ĠÏĦá¿ĨÏĤ": 494,
      "ÏĥÎ¸": 495,
      "ÏĥÎ¹Î½": 496,
      "ÜĺÜ¬ÜĲ": 497,
      "ÜĺÜĲ": 498,
      "Î¬Î½": 499,
      "ĠÏĦá½°": 500,
      "ĠÎµá¼°ÏĤ": 501,
      "Î¿á½ºÏĤ": 502,
      "ÏĪ": 503,
      "ÏĥÎµ": 504,
      "ĠÜĹÜĺÜĲ": 505,
      "Õ§": 506,
      "ĠÜĲÜ¢ÜĲ": 507,
      "ĠÎ±": 508,
      "ĠÜª": 509,
      "Õ¸ÖĤ": 510,
      "ĠÎ²": 511,
      "ĠÜ£": 512,
      "Î½Îµ": 513,
      "á¾¶": 514,
      "Î±Î»": 515,
      "ĠÜķÜ¡": 516,
      "Î·ÏĤ": 517,
      "ÜĹÜĺÜ¢": 518,
      "Ġá¼Ħ": 519,
      "Õ¥Õ": 520,
      "Î·Î½": 521,
      "ÏĦÎ¿": 522,
      "ÜķÜ¥": 523,
      "ĠÂ": 524,
      "ÜĺÜª": 525,
      "ÜłÜĹÜĲ": 526,
      "ÏĦÎµÏĤ": 527,
      "ĠÏĢÏģÎ¿": 528,
      "ÏĥÎ±": 529,
      "Îĩ": 530,
      "ÏĦÎ¿ÏĤ": 531,
      "ĠÜĺÜĲÜ¡": 532,
      "ĠÜ¦": 533,
      "Ü«Ü¡": 534,
      "ĠÏĩ": 535,
      "ĠÜķÜ¢": 536,
      "ÎµÎ»": 537,
      "Üĩ": 538,
      "Î¿ÏħÏĤ": 539,
      "ĠÎ¼Îµ": 540,
      "ÜĽÜł": 541,
      "á¼°": 542,
      "Î¼ÎŃÎ½": 543,
      "ÜķÜĿ": 544,
      "ÜĺÜĴ": 545,
      "Öĩ": 546,
      "ĠÎ½": 547,
      "ĠÜĵÜĿÜª": 548,
      "ÜłÜĿÜ¢": 549,
      "ÜĲÜ¢": 550,
      "ÎºÎ±": 551,
      "ĠÜĿÜ«ÜĺÜ¥": 552,
      "Õ¸Õ": 553,
      "á¿ĩ": 554,
      "Î¹Î½": 555,
      "Ġá¼¸": 556,
      "ÏĦÏīÎ½": 557,
      "ÜĺÜ£": 558,
      "ÜªÜĿÜ¢": 559,
      "á¼Ĳ": 560,
      "ÜĺÜ¡": 561,
      "ÏĢÎ¿": 562,
      "Î»Î±": 563,
      "ÏģÎ¯": 564,
      "ÜĴÜĿ": 565,
      "á½°Ïģ": 566,
      "Ġá½ĳÎ¼": 567,
      "ĠÜ¥Üł": 568,
      "ĠÜłÜ¡": 569,
      "ĠÏĢÎ±Ïģ": 570,
      "ĠÏĥÎ¿Ïħ": 571,
      "Õ©": 572,
      "Ü¿": 573,
      "Ġá¼ĢÎ½": 574,
      "ĠÎ¿á¼±": 575,
      "ÎŃÏģ": 576,
      "ÖĦ": 577,
      "Ü¬ÜĿ": 578,
      "Ü¬Üª": 579,
      "ĠÎµá¼¶": 580,
      "ÜĴÜķ": 581,
      "Ü¥Üł": 582,
      "ĠÎ»ÎŃÎ³": 583,
      "ĠÎ³á½°Ïģ": 584,
      "Î¸Î·": 585,
      "ĠÜĲÜĿÜŁ": 586,
      "ĠÂ°": 587,
      "Î»Îµ": 588,
      "ÜłÜŁ": 589,
      "Ü«ÜĿ": 590,
      "Ü¢ÜĿ": 591,
      "Ü¼": 592,
      "ÎºÎ±á½¶": 593,
      "Ü¥ÜĲ": 594,
      "ÜĹÜĺÜĲ": 595,
      "ĠÜłÜĹÜĺÜ¢": 596,
      "ĠÏĦá¿·": 597,
      "ĠÎ±á½ĲÏĦÎ¿á¿¦": 598,
      "Õ¯": 599,
      "ĠÕ¡Õ": 600,
      "Õ«Õ¶": 601,
      "á¿¦": 602,
      "ĠÏĢÎ¿": 603,
      "ĠÜĺÜłÜĲ": 604,
      "á¼Ģ": 605,
      "ÏĦá½°": 606,
      "á¾½": 607,
      "ÜĲÜ¡": 608,
      "ÏĥÏĦÎ¹": 609,
      "Ġá¼¡Î¼": 610,
      "á½Ĳ": 611,
      "ÜªÜĺ": 612,
      "ĠÜĺÜ¡": 613,
      "Î®Ïĥ": 614,
      "ĠÜĢ": 615,
      "Ġá¼°": 616,
      "ĠÜŁÜķ": 617,
      "ÏģÎµ": 618,
      "ÜĺÜł": 619,
      "Î»Î¸": 620,
      "ĠÜłÜĿ": 621,
      "á¾¿": 622,
      "ĠÖĩ": 623,
      "Î¸Ïģ": 624,
      "ĠÜĲÜ¬": 625,
      "ÏħÎ½": 626,
      "ĠÜĲÜ¢Ü¬ÜĺÜ¢": 627,
      "á½²Î½": 628,
      "ĠÜłÜŁÜĺÜ¢": 629,
      "ÜŁÜł": 630,
      "ĠÜĲÜĿÜ¬": 631,
      "á½¼": 632,
      "ĠÏĦÎ±": 633,
      "ĠÎļ": 634,
      "ĠÜķÜłÜĲ": 635,
      "Î¿Î¹ÏĤ": 636,
      "Î»Î·": 637,
      "ÏĦÎ·": 638,
      "Ü«Ü¬": 639,
      "Õ´": 640,
      "ĠÜĲÜ¦": 641,
      "ÜŁÜķ": 642,
      "Ü¢ÜĺÜ¢": 643,
      "ĠÏĦÎ¿á¿ĸÏĤ": 644,
      "ÏĦÎ¿Î½": 645,
      "ĠÜĲÜłÜĲ": 646,
      "Î¯Î±Î½": 647,
      "ÏĦÎ¿á¿¦": 648,
      "ĠÜĴÜª": 649,
      "á¿ĥ": 650,
      "Ġá½ĳÏĢ": 651,
      "ÜŁÜĲ": 652,
      "ĠÜĻ": 653,
      "Ü¬ÜĺÜ¢": 654,
      "Î¯Î±ÏĤ": 655,
      "Õ¡ÖĢ": 656,
      "ÜłÜĹÜĺÜ¢": 657,
      "ÜĿÜķ": 658,
      "á¿³": 659,
      "Ü«ÜŁ": 660,
      "ÏģÎ¿Î½": 661,
      "ĠÜķÜĿ": 662,
      "ĠÏĦÎ¿á½ºÏĤ": 663,
      "ÏĥÎ±Î½": 664,
      "ÜĴÜĺ": 665,
      "ÏĥÎº": 666,
      "ÏģÎ¿": 667,
      "ĠÜķÜļ": 668,
      "Ġá¼ĢÏĢá½¸": 669,
      "ÏĬ": 670,
      "ĠÜĹÜĺÜĺ": 671,
      "ĠÜ¥Ü¡": 672,
      "ÜĿÜ¡": 673,
      "Ġá¼ĲÎ¾": 674,
      "ĠÎ¼á½´": 675,
      "á¿ĸÎ½": 676,
      "ÏĮÏĤ": 677,
      "Üı": 678,
      "Ġá½ħÏĦÎ¹": 679,
      "ĠÎ±á½ĲÏĦá¿·": 680,
      "ĠÜķÜĴ": 681,
      "ÜŁÜĿÜł": 682,
      "Î±ÏĦ": 683,
      "Ġá¼ĢÏĢÎ¿": 684,
      "Î¯Î±": 685,
      "Õ¡ÖĢÕ": 686,
      "Õ¿": 687,
      "ÜłÜĺ": 688,
      "Î´Îµ": 689,
      "Ü¬ÜĹ": 690,
      "Ü¢Ü¢": 691,
      "Îµá¿ĸÎ½": 692,
      "ÏĮÎ¼ÎµÎ½": 693,
      "Ġá½Ģ": 694,
      "ĠÏħ": 695,
      "Î¸Îµ": 696,
      "ĠÜĽ": 697,
      "Ü¦ÜĲ": 698,
      "Ü¥Ü¡": 699,
      "á¿ĸÏĤ": 700,
      "ĠÜłÜĺÜ¬": 701,
      "Î³Î±": 702,
      "ĠÕ¦": 703,
      "ÏģÎ±Î½": 704,
      "Öī": 705,
      "Ġá½Ħ": 706,
      "Î´Î¹": 707,
      "Ü¥ÜĿÜ¢": 708,
      "Ġá¼ĲÎ³": 709,
      "ĠÜ¡ÜĽÜł": 710,
      "ÏĥÎ±Î¹": 711,
      "Î·ÏĥÎ¿á¿¦": 712,
      "ÜĿÜłÜĿÜ¢": 713,
      "Ġá¼ĳ": 714,
      "Ġá¼ģ": 715,
      "ÜļÜª": 716,
      "ÏĥÎ¼": 717,
      "Õ¥Õ¬": 718,
      "ĠÕ«": 719,
      "á¾¶ÏĤ": 720,
      ":-": 721,
      "ĠÎ¼á½²Î½": 722,
      "ĠÏĢÎµÏģ": 723,
      "ÎŃÎ»": 724,
      "Î¿á½¶": 725,
      "ÏĮÏĦÎµ": 726,
      "ÜĺÜķ": 727,
      "ÏħÏĩ": 728,
      "Ü¢Ü«ÜĲ": 729,
      "ÏĦÏī": 730,
      "á¿¶ÏĤ": 731,
      "ĠÏĦá¿ĩ": 732,
      "ĠÜĹÜĿ": 733,
      "Ġá¼ĢÎ»Î»": 734,
      "Î¿Î¼": 735,
      "Ġá¼¢": 736,
      "Ü«ÜĿÜļÜĲ": 737,
      "Õ¤": 738,
      "ÎµÎ¹Î½": 739,
      "ĠÎ²Î±": 740,
      "ĠÏĪ": 741,
      "ÜķÜ¢": 742,
      "Ü¡Üª": 743,
      "ÏĢÎµ": 744,
      "Ġá¼ĲÏĢá½¶": 745,
      "ÏĥÏĦÎµ": 746,
      "Î¿Î»": 747,
      "Î½Î±Î¹": 748,
      "ÜķÜª": 749,
      "Ġá½¡": 750,
      "Ġá¼¸Î·ÏĥÎ¿á¿¦": 751,
      "ÏĦÎ¿Ïħ": 752,
      "ĠÜĺÜ¢": 753,
      "á½º": 754,
      "Î¿Ïģ": 755,
      "ĠÜłÜŁ": 756,
      "âĢĻ": 757,
      "ĠÎł": 758,
      "ĠÎºÎ±Î¹": 759,
      "ÜĺÜļ": 760,
      "Î´Î±": 761,
      "ÜłÜ¬ÜĲ": 762,
      "ĠÜĴÜĿ": 763,
      "ĠÎ¼Î±": 764,
      "Õ¸ÖĤÕ©": 765,
      "ÏģÏĩ": 766,
      "ÜĴÜ¢": 767,
      "ÜĴÜªÜĲ": 768,
      "ĠÏĢÎ¬Î½": 769,
      "ĠÜĴÜĹ": 770,
      "Âł": 771,
      "ÜĿÜĹ": 772,
      "Ü«ÜĴ": 773,
      "ĠÎ´Îµ": 774,
      "ĠÎµá½Ĳ": 775,
      "Î»ÎŃ": 776,
      "Î¯Î½": 777,
      "Î®Î½": 778,
      "ÏĦá¿¶Î½": 779,
      "ÏħÎ¼": 780,
      "Ü©Üª": 781,
      "Î¤": 782,
      "ĠÎ¼Î¿Ïħ": 783,
      "ÎµÎ¹ÏĤ": 784,
      "ÎµÏĦÎ±Î¹": 785,
      "Ü«ÜłÜ¡": 786,
      "ĠÜ¢Ü¦": 787,
      "ÜļÜĻ": 788,
      "ĠÜļÜķ": 789,
      "á½¼Î½": 790,
      "ÜłÜł": 791,
      "á½°Î½": 792,
      "ĠÎ¸Îµ": 793,
      "ĠÎ¿á½ĲÎº": 794,
      "ÜĺÜ¡ÜĲ": 795,
      "á½¶ÏĤ": 796,
      "ÜłÜ¦": 797,
      "á¿¥": 798,
      "ĠÎ´Î¹á½°": 799,
      "ĠÕ´": 800,
      "ĠÜĹÜ¢ÜĲ": 801,
      "Ü¦Üª": 802,
      "ÜłÜ¡ÜĲ": 803,
      "ÜĴÜĿÜ¢": 804,
      "Î»Î¹": 805,
      "Î±á½ĲÏĦ": 806,
      "Ġá¼ĶÏĩ": 807,
      "ĠÏħá¼±": 808,
      "ÜļÜķ": 809,
      "ÏħÏĦ": 810,
      "ĠÎļÎ±á½¶": 811,
      "Ġá¼ķ": 812,
      "Î¿Î½ÏĦÎµÏĤ": 813,
      "ÜĽÜĿ": 814,
      "ÏĮÎ³": 815,
      "Õ¡Õ´": 816,
      "Õ¡Õµ": 817,
      "ĠÜ¨": 818,
      "Î¼Îµ": 819,
      "ĠÜ«Ü¡": 820,
      "ÏĦÎ¯": 821,
      "ĠÏĢÎ¿Î¹": 822,
      "Õ¢": 823,
      "Üī": 824,
      "ĠÜĺÜĴ": 825,
      "Ġá¼ĢÎ½Î±": 826,
      "ÏĥÏī": 827,
      "ÏĦÎ±ÏĤ": 828,
      "ĠÕ¸": 829,
      "ĠÎ¤": 830,
      "ĠÜķÜĲÜłÜĹÜĲ": 831,
      "Ïĭ": 832,
      "Î·Î¼": 833,
      "Ġá½¡ÏĤ": 834,
      "ÜĹÜĿÜ¡Ü¢": 835,
      "Ü¬Ü¬": 836,
      "ĠÎ±á½ĳ": 837,
      "Î¹Îº": 838,
      "Î¬Î»": 839,
      "Î´á½²": 840,
      "ÏĥÏĢ": 841,
      "ĠÎ±á½ĲÏĦÎ¿á¿ĸÏĤ": 842,
      "Î¿Î³": 843,
      "ÏĥÎ¸Î±Î¹": 844,
      "ÜļÜĿ": 845,
      "Ġá¼¸Î·ÏĥÎ¿á¿¦ÏĤ": 846,
      "Ü¢Üĺ": 847,
      "ÜĴÜĹ": 848,
      "ĠÎ¶": 849,
      "ÜŁÜ¢ÜĲ": 850,
      "ĠÎ¿á½ĸ": 851,
      "Ü¥ÜĴÜķ": 852,
      "ĠÎ±á½ĲÏĦá¿¶Î½": 853,
      "Ġá½ĳÎ¼á¿ĸÎ½": 854,
      "ÏĦÎ¬": 855,
      "ÜĵÜĿÜĲ": 856,
      "ÜĺÜ©": 857,
      "ÜķÜ¡ÜĲ": 858,
      "Î¼ÏĢ": 859,
      "ĠÜĹÜłÜĿÜ¢": 860,
      "ÏĥÏĦÎ¹Î½": 861,
      "Ü«ÜŁÜļ": 862,
      "ÏĦÎŃ": 863,
      "ĠÏĢÎ»": 864,
      "Ġ.": 865,
      "ÏĦÎ±Î½": 866,
      "ĠÕ¯": 867,
      "ĠÏĢÏģá½¸ÏĤ": 868,
      "Õ¡Öģ": 869,
      "âģ": 870,
      "ÏĥÎ¿Î½": 871,
      "ĠÜĲÜĺ": 872,
      "ÜĵÜĿÜª": 873,
      "ÜŁÜª": 874,
      "ĠÜĴÜĲ": 875,
      "ĠÏĪÏħÏĩ": 876,
      "Õº": 877,
      "ÕŃ": 878,
      "ÜĿÜ¢ÜĲ": 879,
      "Î¸ÎµÎ½": 880,
      "ĠÎ±á½ĲÏĦá½¸Î½": 881,
      "Õ¸Õµ": 882,
      "ĠÎµá¼¶ÏĢ": 883,
      "Õ¦": 884,
      "Îµá¿ĸÏĤ": 885,
      "Õ¡ÖĤ": 886,
      "ĠÜŁÜł": 887,
      "ĠÎ²Î±ÏĥÎ¹": 888,
      "ÏĥÏĦÎ±": 889,
      "ĠÏĦÎ¹": 890,
      "Î®ÏĥÎµ": 891,
      "ĠÜĲÜ¢Ü«": 892,
      "ÏİÏĢ": 893,
      "á½ĳ": 894,
      "ĠÜķÜ©": 895,
      "ÜłÜļ": 896,
      "ĠÎ¿á½ĸÎ½": 897,
      "Î±Îº": 898,
      "ĠÜĺÜŁÜķ": 899,
      "á¾³": 900,
      "Ġá¼°Î´": 901,
      "ÜĲÜ¢ÜĲ": 902,
      "ĠÎ´Ïį": 903,
      "ĠÎºÎ±ÏĦÎ±": 904,
      "ĠÜłÜ¢": 905,
      "Ü£Üª": 906,
      "ÏįÏģÎ¹": 907,
      "Î¿Î¯": 908,
      "Ġá¼¦": 909,
      "Ġá¼ĢÎº": 910,
      "Î±Î²": 911,
      "ĠÏĦá½°ÏĤ": 912,
      "Ü¬ÜĴ": 913,
      "Ü«Ü¬ÜĲ": 914,
      "Ġá¼ĲÏĥÏĦ": 915,
      "Î·Ïģ": 916,
      "Õ¥Õ½": 917,
      "ĠÎ¿á¼": 918,
      "Ġá¿¥": 919,
      "ÜķÜĴ": 920,
      "ÜĹÜ¢ÜĲ": 921,
      "Î±Î³": 922,
      "ĠÜ¡ÜķÜ¡": 923,
      "Î»ÎµÎ¯": 924,
      "ÜĺÜ¬ÜĹ": 925,
      "ÜªÜ¥ÜĲ": 926,
      "ĠÜķÜ¥": 927,
      "Î·Î¸": 928,
      "ĠÜĲÜ¢ÜĺÜ¢": 929,
      "Ġá¼ĦÎ½": 930,
      "Îļ": 931,
      "ÏĦÏģ": 932,
      "Ü¦Ü©": 933,
      "Ü¢Ü«": 934,
      "ĠÜĹÜŁÜĿÜł": 935,
      "Î¬Î³": 936,
      "Î·ÏĥÎ±Î½": 937,
      "ĠÎ±á¼°": 938,
      "ĠÜĲÜĿÜŁÜ¢ÜĲ": 939,
      "Î¿á¿¦Î½": 940,
      "ÜĺÜĲÜ¡": 941,
      "ÏīÏģ": 942,
      "Ġá¼ĲÏĢÎ¹": 943,
      "ĠÏĢÎ¿Î»Î»": 944,
      "Î¬Ïĥ": 945,
      "Î¯Î¿Ïħ": 946,
      "ĠÕº": 947,
      "ĠÏĢÏģÎ¿Ïĥ": 948,
      "ÜĲÜĿÜ¬": 949,
      "ĠÕ¥": 950,
      "Îĳ": 951,
      "ÎµÏĦÎµ": 952,
      "ĠÏĦÎ¯": 953,
      "Õ¡Õ¬": 954,
      "ĠÕ°": 955,
      "Ġá½ī": 956,
      "ĠÎ³ÎµÎ½": 957,
      "ÜªÜĿÜĲ": 958,
      "ĠÜķÜ¬": 959,
      "Õ¡Õ¿": 960,
      "Î¸ÏģÏİÏĢ": 961,
      "ÜĲÜĿÜŁ": 962,
      "Î¼Î¬": 963,
      "ĠÜĲÜłÜĹÜĲ": 964,
      "Ġá½ķ": 965,
      "Õ°": 966,
      "Ġá½ĥ": 967,
      "ĠÜĹÜķÜĲ": 968,
      "ÖģÕ§": 969,
      "Õ²": 970,
      "Öħ": 971,
      "ĠÎľ": 972,
      "Õ¥Õ¶": 973,
      "Â°": 974,
      "ÜĿÜ¬ÜĲ": 975,
      "ÏħÏģ": 976,
      "Ü£ÜĲ": 977,
      "Ġá½ĳÎ¼á¿¶Î½": 978,
      "ĠÜ©ÜķÜ¡": 979,
      "Î¿Î¼ÎŃÎ½": 980,
      "ĠÎŁ": 981,
      "ĠÜķÜł": 982,
      "Õ¸ÖĢÕ": 983,
      "Î¼Î±ÏĦÎ±": 984,
      "Î·ÏĥÎµ": 985,
      "ĠÎºÎ±Î¸": 986,
      "Õ£": 987,
      "ÜĺÜłÜĲ": 988,
      "ĠÎ»ÏĮÎ³": 989,
      "ĠÎºÎ±ÏĦá½°": 990,
      "ÏħÎ³": 991,
      "Î±Î¯": 992,
      "ÏĦÎ¿Î¹": 993,
      "ĠÏĢÏĮ": 994,
      "ĠÜĺÜĲÜ¢": 995,
      "ĠÎ¿á½ĲÏģÎ±Î½": 996,
      "ĠÜĺÜĹ": 997,
      "ĠÏĢá¾¶": 998,
      "Ìĩ.": 999,
      "Î¿ÏħÏĥÎ¹Î½": 1000,
      "ÜªÜĴ": 1001,
      "ÜķÜ©": 1002,
      "ÜĿÜ«ÜĺÜ¥": 1003,
      "Ġá¼±": 1004,
      "Î¹Î»": 1005,
      "ÜĴÜªÜĹ": 1006,
      "ÜķÜļ": 1007,
      "Î¬Î¼": 1008,
      "Ü£ÜĿ": 1009,
      "ÜªÜ¢": 1010,
      "ÜĿÜ¢Ü¢": 1011,
      "ĠÏĢÎ±Î½": 1012,
      "Ġá¼ĲÎ¼": 1013,
      "ĠÎ´ÎŃ": 1014,
      "ĠÜĴÜ¡": 1015,
      "Î¸Îµá½¶ÏĤ": 1016,
      "ÜĵÜĿÜĲÜĲ": 1017,
      "ÜķÜłÜĲ": 1018,
      "Î¬Ïģ": 1019,
      "ÜĻÜł": 1020,
      "ÜĺÜĹ": 1021,
      "Î´Î¯": 1022,
      "Ü¬Üļ": 1023,
      "ĠÜķÜĹ": 1024,
      "Ġá½¥": 1025,
      "ĠÏĥÎº": 1026,
      "¨Õ¶": 1027,
      "ÏģÎ³": 1028,
      "ĠÕµ": 1029,
      "Î¸ÏģÏī": 1030,
      "ĤÎ½": 1031,
      "ÎµÏĥ": 1032,
      "Ü¥ÜĺÜ¢": 1033,
      "ĠÜĴÜ¢": 1034,
      "ÏĨÎ¸": 1035,
      "ĠÎ±á½ĳÏĦÎ¿á¿¦": 1036,
      "ÜĲÜłÜĲ": 1037,
      "Ġá¼ł": 1038,
      "Ġá¼ĢÎ³": 1039,
      "Ü©Üĺ": 1040,
      "Õ¬": 1041,
      "Ü«ÜĹ": 1042,
      "Ü©ÜĲ": 1043,
      "á¼°Îº": 1044,
      "ÎºÏģÎ¹": 1045,
      "ÏĥÎ¹ÏĤ": 1046,
      "Ġá½ĳÏĢÎ¿": 1047,
      "Ü«Ü¡ÜĿÜĲ": 1048,
      "ĠÎµá¼¶ÏĢÎµÎ½": 1049,
      "Â´": 1050,
      "ÜķÜĺ": 1051,
      "Î¿Î½ÏĦÎ±Î¹": 1052,
      "ĠÎ¼Î±Î¸Î·": 1053,
      "ÏħÏĥ": 1054,
      "ÏįÎ½": 1055,
      "ÜĲÜ¢Ü¬ÜĺÜ¢": 1056,
      "á½ģ": 1057,
      "ÜĿÜĹÜĺÜ¢": 1058,
      "ÜĴÜĿÜ¬": 1059,
      "ĠÜķÜĲÜĿÜ¬": 1060,
      "ÏĥÎ¸Îµ": 1061,
      "ÏģÎ¬": 1062,
      "ĠÏĦÎ¿Ïį": 1063,
      "Î¼Î±ÏĦÎ¹": 1064,
      "Ġá¼ģÎ³": 1065,
      "ĠÏĢÎµÏģÎ¹": 1066,
      "Õ¹": 1067,
      "ÏĢÎ¿Î½": 1068,
      "ĠÏĦÎ¿": 1069,
      "ĠÜķÜ«": 1070,
      "ĠÏĢÎ±": 1071,
      "Ġá¼ĢÏĨ": 1072,
      "Õ³": 1073,
      "ÖģÕ«": 1074,
      "ÜĲÜ¬": 1075,
      "ÜļÜ¡": 1076,
      "Ġá¼Ī": 1077,
      "ĠÏĢÎ±ÏĦ": 1078,
      "ĠÏĦÎ¿Ïħ": 1079,
      "Õ¡Õ¯": 1080,
      "ĠÜı": 1081,
      "ÏĦÏīÏĤ": 1082,
      "ĠÎĶ": 1083,
      "ÜªÜ¬": 1084,
      "ÜĴÜł": 1085,
      "ĠÜķÜĿÜł": 1086,
      "ĠÎ´Î¹Î±": 1087,
      "Ġá¼¡Î¼á¿¶Î½": 1088,
      "Ġá¼ĲÎ³ÎŃÎ½": 1089,
      "Ġâģ": 1090,
      "Ġá¼ĺ": 1091,
      "ĠÜķÜŁ": 1092,
      "Ġá¼Ĳá½°Î½": 1093,
      "Ü¢ÜĿÜ¢": 1094,
      "ÏĥÏĩ": 1095,
      "ĠÜ¡Ü¢ÜĲ": 1096,
      "ÏĢÎ¹": 1097,
      "á½¶Î½": 1098,
      "Ġá¼ĢÎ½Î¸ÏģÏİÏĢ": 1099,
      "Â´.": 1100,
      "ÕĽ": 1101,
      "ÜĺÜļÜĲ": 1102,
      "á¼ĺ": 1103,
      "ÏĥÎ±ÏĤ": 1104,
      "ÏĮÏĦÎ·": 1105,
      "ĠÜĿÜķÜ¥": 1106,
      "Î¼Î±ÏĦÎ¿ÏĤ": 1107,
      "ĠÂ·": 1108,
      "Ġá¼µ": 1109,
      "Ü¡Ü¬": 1110,
      "ĠÜĺÜ«": 1111,
      "ĠÏĥÎµ": 1112,
      "ÜĵÜĿ": 1113,
      "ĠÜĺÜĲÜ¬": 1114,
      "ĠÜļÜĻ": 1115,
      "á¼Ķ": 1116,
      "ĠÜŁÜłÜĹ": 1117,
      "ĠÎ¿á¼°Îº": 1118,
      "Îĵ": 1119,
      "ÏģÏī": 1120,
      "ĠÜ¡Ü«ÜĿÜļÜĲ": 1121,
      "ĠÎµá¼´": 1122,
      "Î½ÎµÏĦÎ±Î¹": 1123,
      "ÏĥÎµÎ¹": 1124,
      "Î»Î¿Î½": 1125,
      "Ü¥Üĺ": 1126,
      "ĠÜĺÜ¬": 1127,
      "ÜĿÜ¬ÜĺÜ¢": 1128,
      "ÎµÎ¯Î½": 1129,
      "ĠÎ¼ÎµÏĦá½°": 1130,
      "ÜķÜ¬": 1131,
      "ÏĦá½¸Î½": 1132,
      "Ġá¼¤": 1133,
      "ÜŁÜĿ": 1134,
      "ÜļÜĺ": 1135,
      "ÜĵÜª": 1136,
      "Î·ÏĥÎµÎ½": 1137,
      "Î®ÏĥÎµÏĦÎ±Î¹": 1138,
      "ÜłÜ¬": 1139,
      "Ü©ÜªÜĲ": 1140,
      "Õ¡Õ½": 1141,
      "Õ¸ÖĢ": 1142,
      "ĠÏĦÎ¿á¿¦ÏĦÎ¿": 1143,
      "Ġá½ĳÏĢá½¸": 1144,
      "ĠÎ£": 1145,
      "Ü¡ÜĺÜ£": 1146,
      "ÜĴÜķÜĲ": 1147,
      "ÏİÎ½": 1148,
      "á¼¡": 1149,
      "ÏĥÎµÏīÏĤ": 1150,
      "ÜłÜŁÜĺÜ¢": 1151,
      "ÏħÏģÎ¯": 1152,
      "Ġá¼ĲÏĥÏĦÎ¹Î½": 1153,
      "ĠÜ¡Ü¬": 1154,
      "Î¬Î¶": 1155,
      "Ġá¼ĢÎ´": 1156,
      "Ü¢Ü¬": 1157,
      "ÜĿÜķÜĲ": 1158,
      "Î¯ÏīÎ½": 1159,
      "ĠÜĴÜĿÜ¬": 1160,
      "ÜĲÜ¦": 1161,
      "Î¿ÏħÎ½": 1162,
      "á½°ÏĤ": 1163,
      "ÏĮÎ¼ÎµÎ½Î¿Î½": 1164,
      "ĠÎĺ": 1165,
      "Î¼Î¿Î½": 1166,
      "Õ¥Õ¡Õ¬": 1167,
      "ÏĢÎµÏģ": 1168,
      "ĠÜĲÜļÜª": 1169,
      "ĠÏĥÎ¿Î¹": 1170,
      "ĠÕ¡Õ´": 1171,
      "ĠÜ¡ÜłÜŁ": 1172,
      "Î¿ÏħÏĥÎ¹": 1173,
      "ĠÎ¼Î·": 1174,
      "ĠÎ±á½Ĳ": 1175,
      "ĠÏĦÎ±á¿ĸÏĤ": 1176,
      "Õµ": 1177,
      "ÜĿÜĹÜĿ": 1178,
      "Î¹ÏĤ": 1179,
      "ĠÜĲÜĿÜłÜĿÜ¢": 1180,
      "Î·ÏĦÎµ": 1181,
      "Î¼ÎµÎ½Î¿ÏĤ": 1182,
      "ÜĺÜļÜ¢Ü¢": 1183,
      "ĠÎ²Î±ÏĥÎ¹Î»ÎµÎ¯": 1184,
      "Ġ:": 1185,
      "ÜĴÜ¢ÜĲ": 1186,
      "Î¼Î±Ïģ": 1187,
      "ĠÜĺÜ©": 1188,
      "Î´Î¿": 1189,
      "Î±Î¹ÏĤ": 1190,
      "ÏĦÎ¹Îº": 1191,
      "Õ¥ÖĢ": 1192,
      "Ġá¼ĦÎ»Î»": 1193,
      "ÏĦá½´Î½": 1194,
      "ÏĦÎ·ÏĤ": 1195,
      "ÏĦÎ·Î½": 1196,
      "ÏĢÎ±": 1197,
      "ĠÏĦÎµ": 1198,
      "ĠÎºÏĮ": 1199,
      "ĠÏĥÏħÎ½": 1200,
      "ÜĽÜª": 1201,
      "ĠÜĹÜĺÜ¬": 1202,
      "ÜĹÜĺÜĺ": 1203,
      "Î¹Î±": 1204,
      "Ġá¼ĤÎ½": 1205,
      "ĠÜķÜĲÜ¡": 1206,
      "ĠÎºÎ±Î»": 1207,
      "ĠÏĢÏģÎ¿ÏĨ": 1208,
      "ÜĺÜ«": 1209,
      "ĠÜķÜ£": 1210,
      "ĠÎºÎµ": 1211,
      "ĠÎºÎ±Ïģ": 1212,
      "ĠÎ¿á½Ĺ": 1213,
      "ĠÜ¬ÜłÜ¡": 1214,
      "ĠÎ±á¼±": 1215,
      "ĠÜķÜ¡Ü¢": 1216,
      "ĠÜĺÜ¥": 1217,
      "á¿ĨÎ½Î±Î¹": 1218,
      "ĠÏĢÎ±ÏģÎ±": 1219,
      "Î¿Ïĥ": 1220,
      "ÎºÎ±Î¹": 1221,
      "Õ¡Õ·": 1222,
      "Î²Î±": 1223,
      "Ġá¼ĢÎ»Î»á½°": 1224,
      "ĠÎ·": 1225,
      "Ïģá½¸ÏĤ": 1226,
      "ÜĴÜ¬ÜĲ": 1227,
      "ĠÏĥÏĭ": 1228,
      "ĠÜĲÜ¡ÜĿÜ¢": 1229,
      "Î¯Î¶": 1230,
      "ĠÎ¼Î¿Î¹": 1231,
      "ĠÕ½": 1232,
      "ĠÏĥÏħ": 1233,
      "ÏĮÎ¼ÎµÎ½Î¿ÏĤ": 1234,
      "Ġá½ĦÎ½": 1235,
      "Ü¡ÜĺÜ£ÜĲ": 1236,
      "Üģ": 1237,
      "Î¿ÏĨ": 1238,
      "Ü¢Ü¦": 1239,
      "ÜĿÜĺ": 1240,
      "ÎµÏį": 1241,
      "Ġá¼¥": 1242,
      "ÏģÎŃ": 1243,
      "ÜķÜĿÜĲ": 1244,
      "Î¬ÏģÎ¹": 1245,
      "ĠÏĥá¿¶": 1246,
      "ĠÜ¢ÜĹÜĺÜĲ": 1247,
      "ÏĮÎ½ÏĦÎµÏĤ": 1248,
      "Õ¥Õ²": 1249,
      "Î½Î·ÏĥÎµ": 1250,
      "ÜķÜĹ": 1251,
      "Î»Ïħ": 1252,
      "ĠÜĲÜļ": 1253,
      "ĠÜĹÜ¢ÜĺÜ¢": 1254,
      "Ġá¼ĢÎ³Î±": 1255,
      "ĠÜĴÜŁ": 1256,
      "ĠÎ¿á½ķ": 1257,
      "ÎµÎ»ÏĨ": 1258,
      "Õ¸Õ¾": 1259,
      "ÎµÎ³": 1260,
      "ÏĢÎ¿Î¹": 1261,
      "Î²Î¬": 1262,
      "âĢ¢": 1263,
      "ĠÂ¹": 1264,
      "ĠÏĩÏģ": 1265,
      "á¼ĲÎ½": 1266,
      "Õ©Õ§": 1267,
      "ĠÎ»ÎŃÎ³Ïī": 1268,
      "ÎĳÎ¤": 1269,
      "Ü¥ÜłÜ¡": 1270,
      "ÜĺÜ¢ÜĲ": 1271,
      "ĠÜĺÜ£": 1272,
      "Î¿á½Ĳ": 1273,
      "Ü¥ÜłÜ¡ÜĲ": 1274,
      "ĠÜĴÜªÜĹ": 1275,
      "¼Õ¶": 1276,
      "Ü¡ÜłÜł": 1277,
      "ÎºÏģ": 1278,
      "Î±ÏģÎ¹": 1279,
      "Î¾Î±": 1280,
      "Ġá¼µÎ½Î±": 1281,
      "Îł": 1282,
      "ÜķÜ¢ÜĲ": 1283,
      "ÜĴÜ¥": 1284,
      "ĠÜĺÜļ": 1285,
      "Î¸Î±": 1286,
      "ĠÏĢÏģÎ¿ÏĥÎµ": 1287,
      "¨Õ¶Õ¤": 1288,
      "ĠâĢ¤": 1289,
      "ÜĿÜ«ÜĲ": 1290,
      "ÎºÎµ": 1291,
      "ĠÜĹÜĲ": 1292,
      "ĠÜĹÜŁÜ¢ÜĲ": 1293,
      "ĠÎ¼ÏĮÎ½": 1294,
      "ĠÏĥÏİ": 1295,
      "ĠÜ¥ÜķÜ¡ÜĲ": 1296,
      "Îµá¼°": 1297,
      "ÜªÜ¥": 1298,
      "ÜĴÜ¬": 1299,
      "Î¼Î¿Î¹": 1300,
      "Ġá¼ĢÏģÏĩ": 1301,
      "á¿ĨÎ»Î¸": 1302,
      "ĠÜ¥ÜłÜĿ": 1303,
      "ÜĵÜłÜĿ": 1304,
      "ÜĹÜĺÜĺÜ¢": 1305,
      "ĠÎµá¼°Ïĥ": 1306,
      "ÜªÜĿÜ¡": 1307,
      "ÜłÜĿÜĲ": 1308,
      "Ü¡ÜĽÜł": 1309,
      "Î¼Î½": 1310,
      "Ü¥Ü¬ÜĲ": 1311,
      "ĠÜĴÜ¬Üª": 1312,
      "Î®Î¼": 1313,
      "ĠÎ±á½ĲÏĦÎ¿á½ºÏĤ": 1314,
      "ĠÜŁÜłÜĹÜĺÜ¢": 1315,
      "ĠÎ»Î±": 1316,
      "ÜĹÜķ": 1317,
      "ĠÜłÜ¡ÜĲ": 1318,
      "ÜĽÜĲ": 1319,
      "ĠÎ¸ÎµÏģ": 1320,
      "Õ¸Õ²": 1321,
      "ÜĴÜĿÜĲ": 1322,
      "ĠÜ¢Ü¬": 1323,
      "ĠÜĹÜĿÜķÜĿÜ¢": 1324,
      "Ġá¼°Î´Î¿á½º": 1325,
      "Î±ÏħÏĦ": 1326,
      "ÏĦá½¸": 1327,
      "Ġá¼ħ": 1328,
      "ĠÏĦá¿¶": 1329,
      "Î»ÎŃÎ³": 1330,
      "ĠÜ¡ÜĲ": 1331,
      "ĠÎ»ÎŃÎ³ÎµÎ¹": 1332,
      "ÏĦÎ±á½¶": 1333,
      "ÜķÜŁ": 1334,
      "Î¬Îº": 1335,
      "Ġá½ħÏĦÎ±Î½": 1336,
      "Ġá¼ĲÎºÎµá¿ĸ": 1337,
      "á¿¦ÏĦÎ±": 1338,
      "ÏĦÏĮ": 1339,
      "ÏĩÎ»": 1340,
      "Ġá¼ĲÎºÎµÎ¯Î½": 1341,
      "ĠÎ½á½°": 1342,
      "ĠÏĢÎ¬Î½ÏĦÎ±": 1343,
      "Ġá¼ķÏīÏĤ": 1344,
      "ĠÜłÜļ": 1345,
      "Î³Î³": 1346,
      "Õ¡Õ°": 1347,
      "ÜĽÜĺÜ£": 1348,
      "ĠÎ±á¼": 1349,
      "ÏĨÎ¸Î±Î»": 1350,
      "Ġá¼ĢÎ´ÎµÎ»ÏĨ": 1351,
      "á½ħ": 1352,
      "Î¿Î¼ÎµÎ½": 1353,
      "ÜĴÜ©": 1354,
      "ÜĽÜ¢ÜĲ": 1355,
      "ÜķÜĲÜłÜĹÜĲ": 1356,
      "Î»Î·Î¸": 1357,
      "ĠÎ´ÏįÎ¿": 1358,
      "ÎĲ": 1359,
      "ÝĢ": 1360,
      "ÏĥÏĦÎ±Î¹": 1361,
      "Î·Î³": 1362,
      "ĠÏĥÏĢ": 1363,
      "Î¿ÏįÏĤ": 1364,
      "ÜªÜĺÜļÜĲ": 1365,
      "ÎļÎ±á½¶": 1366,
      "Ü¢ÜĿÜĲ": 1367,
      "ÜĺÜŁ": 1368,
      "ĠÜĺÜŁ": 1369,
      "ĠÜĴÜ¥": 1370,
      "ĠÜ¥ÜĴÜķ": 1371,
      "Õ«ÖĤ": 1372,
      "ĠÏĨÏį": 1373,
      "ĠÜķÜ¨": 1374,
      "ÎºÎ»": 1375,
      "Î¿Î½ÏĦÎ±": 1376,
      "Î¬ÏĦÏīÎ½": 1377,
      "ĠÜ¢Ü£": 1378,
      "ÜĲÜ¢Ü¬": 1379,
      "ĠÏħá¼±á½¸ÏĤ": 1380,
      "Ġá¼ĲÎ³ÎŃÎ½Î½Î·ÏĥÎµ": 1381,
      "Î½Ïī": 1382,
      "Õ¡Õ²": 1383,
      "ĠÜķÜĲÜ¢": 1384,
      "ÏģÎ¹ÏĥÏĦ": 1385,
      "Î¸ÏģÏīÏĢ": 1386,
      "ÏĦá¿ĨÏĤ": 1387,
      "ĠÎ¹": 1388,
      "Î¹Î¿Î½": 1389,
      "ÜłÜĺÜ¬": 1390,
      "ÏĢÏģÎ¿": 1391,
      "ĠÎ¼Î®": 1392,
      "Õ«Öģ": 1393,
      "ÏĥÎ¸ÎµÎ½": 1394,
      "ÏĥÎµÎ½": 1395,
      "ÜªÜ¡": 1396,
      "ĠÜĲÜ£": 1397,
      "ĠÜĲÜĻ": 1398,
      "ÜĵÜł": 1399,
      "ĠÜķÜĲÜ¬": 1400,
      "ĠÜ¬ÜĺÜĴ": 1401,
      "ĠÜªÜĺÜļÜĲ": 1402,
      "á½ºÏĤ": 1403,
      "ĠÎĺÎµ": 1404,
      "ÎŁ": 1405,
      "ÎµÏħ": 1406,
      "Î¼á¿¶Î½": 1407,
      "ÜļÜķÜĲ": 1408,
      "Ü©ÜķÜ¡": 1409,
      "ÜĻÜĲ": 1410,
      "Õ¸ÖĤÕ¶": 1411,
      "ĠÎ»ÎŃÎ³Î¿Î½ÏĦÎµÏĤ": 1412,
      "Õ¸ÖĤÕ©Õ¥": 1413,
      "Ġá¼ĢÎ¼": 1414,
      "Ü©ÜĿÜ¡": 1415,
      "ÏĦÎµÏģ": 1416,
      "ÜłÜĵ": 1417,
      "ĠÜĲÜ¬ÜĲ": 1418,
      "Ü¥Üª": 1419,
      "Î¸Î·ÏĥÎ±Î½": 1420,
      "ÏĮÏĦÎ¹": 1421,
      "ĠÜ¡Ü¢ÜĹ": 1422,
      "Î¼ÎµÎ½Î¿Î½": 1423,
      "Ġá¼ĦÏģ": 1424,
      "ĠÎ»ÎŃÎ³ÏīÎ½": 1425,
      "Õ·": 1426,
      "ĠÏĦÏĮ": 1427,
      "Ü©ÜĿ": 1428,
      "ĠÏĨÎ¹Î»": 1429,
      "ÎµÎ»Î¸": 1430,
      "Ġá¼¡Î¼ÎŃÏģ": 1431,
      "ĠÏĢÎµÏģá½¶": 1432,
      "Ġá¼ĢÎºÎ¿Ïį": 1433,
      "ÏĥÏĥ": 1434,
      "ÏĢÎµÎ¹": 1435,
      "ĠÏĦÎ·Î½": 1436,
      "Î»Î¬": 1437,
      "ÎŃÏĩ": 1438,
      "Ü¦ÜĿ": 1439,
      "ĠÜļÜĿ": 1440,
      "ĠÕ¡Õµ": 1441,
      "Ġ*": 1442,
      "Ġá¼´": 1443,
      "ÜĹÜĴ": 1444,
      "ĠÏĢÎ½Îµ": 1445,
      "ÎµÏģá½¶": 1446,
      "Ü«ÜĴÜ¬ÜĲ": 1447,
      ":Â·": 1448,
      "ÜĺÜªÜĲ": 1449,
      "ÜĺÜķÜĿ": 1450,
      "Ïĥá¿ĥ": 1451,
      "ÜķÜ£": 1452,
      "Î´Ïī": 1453,
      "ĠÕ¾": 1454,
      "Î¾Î¹": 1455,
      "ĠÏĢÏģÏĮ": 1456,
      "Õ½Õ¶": 1457,
      "Î¿ÏħÏĥ": 1458,
      "Õ¡ÖĢÕ¿": 1459,
      "ĠÎºÏĮÏĥÎ¼": 1460,
      "Õ¡Õ·ÕŃ": 1461,
      "ÏĦá½¸ÏĤ": 1462,
      "á¼¸": 1463,
      "ÜĴÜĺÜ¬ÜĲ": 1464,
      "Î»Î¿Î³": 1465,
      "Î¼ÏīÎ½": 1466,
      "ĠÜĺÜ¡Ü¢": 1467,
      "Ġá½ĳÎ¼á¾¶ÏĤ": 1468,
      "Ġá¼¡Î¼á¾¶ÏĤ": 1469,
      "Î®ÏĥÎµÎ¹": 1470,
      "ÏĦÎŃÏģ": 1471,
      "á¼Ħ": 1472,
      "ÎµÏĤ": 1473,
      "ĠÜłÜĴÜª": 1474,
      "Î¯Î½ÎµÏĦÎ±Î¹": 1475,
      "ÎŃÏģÎ±": 1476,
      "ĠÜ¡Ü«ÜŁÜļ": 1477,
      "ĠÜĹÜ«ÜĲ": 1478,
      "ĠÎ´Î¿": 1479,
      "ÜĲÜª": 1480,
      "ÏĦÎ¿ÏħÏĤ": 1481,
      "ÏĢÏĮ": 1482,
      "Î»Î¯": 1483,
      "Ġá½ł": 1484,
      "Î¸ÎŃÎ½": 1485,
      "Ü£ÜªÜĲ": 1486,
      "ĠÎ³á¿Ĩ": 1487,
      "Ġá¼ĢÎ³Î±Î¸": 1488,
      "Ü¡Ü¬ÜĲ": 1489,
      "ĠÜķÜĻ": 1490,
      "Ġá¼ĲÎ»Î¸": 1491,
      "ÜªÜĲÜĿÜ¬": 1492,
      "ĠÎ¿á½Ķ": 1493,
      "ĠÕ¡Õº": 1494,
      "Ġá¼ģÎ¼Î±Ïģ": 1495,
      "ÎºÏģÎ¹Î¸Îµá½¶ÏĤ": 1496,
      "Î±Ïħ": 1497,
      "ÏģÏİ": 1498,
      "ÎºÎµÎ½": 1499,
      "ĠÏĢÎ½": 1500,
      "ĠÎ´ÏĮ": 1501,
      "Î´ÏĮ": 1502,
      "Î´Î¿Ïħ": 1503,
      "Õ¡Õ¼": 1504,
      "ĠÎºÎ±ÏĦ": 1505,
      "ĠÎºÎ±Îº": 1506,
      "ÜĿÜķÜĺÜĹÜĿ": 1507,
      "Ġá½ĦÏĩÎ»": 1508,
      "Ġá¼ĲÏĥÏĦá½¶": 1509,
      "ĠÎ¿Ïħ": 1510,
      "ÏģÏĮ": 1511,
      "ÜĹÜĲ": 1512,
      "Î·ÏĦÎ±Î¹": 1513,
      "Î¿ÏħÏĥÎ±": 1514,
      "ĠÜ¥ÜĴ": 1515,
      "Î¾Îµ": 1516,
      "ÏĥÎ±ÏĦÎµ": 1517,
      "Õ¸ÖĤÕ©Õ«": 1518,
      "Õª": 1519,
      "ÜłÜĴ": 1520,
      "ÏĥÎ·ÏĤ": 1521,
      "ÏĩÎµ": 1522,
      "ĠÏĥá½º": 1523,
      "ĠÎ±á½ĲÏĦá¿ĨÏĤ": 1524,
      "ĠÎŁá½Ĳ": 1525,
      "ĠÏĢÏģÎ¿ÏĨÎ®": 1526,
      "ĠÎ¾": 1527,
      "ÜłÜĺÜ¢": 1528,
      "Ü¡ÜłÜĲ": 1529,
      "ÏĢÎ¿Ïħ": 1530,
      "Ġá¼ĲÏĥÏĦÎ¹": 1531,
      "ĠÎ¼ÎµÏĦÎ±": 1532,
      "ÏĥÏĢÎµÏģ": 1533,
      "ÜĲÜĺ": 1534,
      "Ü¡Ü¢ÜĲ": 1535,
      "ĠÏĦÎŃ": 1536,
      "ÜŁÜłÜĲ": 1537,
      "Î¸ÎŃ": 1538,
      "ÜķÜĿÜ¢Ü¬ÜĲ": 1539,
      "á¼ĲÎº": 1540,
      "Ġá¾": 1541,
      "ĠÎ¦": 1542,
      "Ü¡Ü«ÜĿÜļÜĲ": 1543,
      "ÜªÜĹ": 1544,
      "ÜķÜ«": 1545,
      "Î»Î¿ÏĤ": 1546,
      "ĠÜĺÜĿ": 1547,
      "Ġá¼ĲÏĨ": 1548,
      "ĠÕ¨Õ¶Õ¤": 1549,
      "ÜĻÜĴÜ¢": 1550,
      "ĠÜĵÜĴÜªÜĲ": 1551,
      "ÏĨÎ¸Î±Î»Î¼": 1552,
      "ĠÎ½Îµ": 1553,
      "ÜłÜ¢": 1554,
      "Ü¡ÜĹ": 1555,
      "ÏģÏħ": 1556,
      "ĠÜķÜ¦": 1557,
      "ĠÜĲÜĿ": 1558,
      "ĠÏĢÎ¿Î½": 1559,
      "ĠÜ¡Ü£": 1560,
      "Î¬Î»Î±": 1561,
      "Î´Î·": 1562,
      "Ü©ÜĺÜĴ": 1563,
      "Î®Î»": 1564,
      "ĠÜķÜĲÜ¢Ü«ÜĲ": 1565,
      "ÜĿÜłÜĽÜĺÜ£": 1566,
      "ĠÜ¬Ü¡Ü¢": 1567,
      "ĠÎ¿á½ĲÎ´á½²": 1568,
      "ÜĺÜªÜ«ÜłÜ¡": 1569,
      "Ġá¼¸Ïī": 1570,
      "ÜĺÜłÜķ": 1571,
      "ĠÎ¶Ïī": 1572,
      "Õ¸ÕµÕ¶": 1573,
      "ĠÎ´ÏįÎ½Î±": 1574,
      "Õ®": 1575,
      "Ü¬ÜłÜ¡": 1576,
      "ÏĢÎ¯": 1577,
      "ÏĢÎ±Ïģ": 1578,
      "ÜĹÜķÜĲ": 1579,
      "ĠÜĲÜĴÜĲ": 1580,
      "á½´Ïģ": 1581,
      "ĠÜķÜĲÜ¦": 1582,
      "Î¾Î±Î½": 1583,
      "ĠÎ½ÏĮ": 1584,
      "ÏģÎµÏħ": 1585,
      "ĠÎ¤ÏĮÏĦÎµ": 1586,
      "ÏįÏģÎ¹Îµ": 1587,
      "ĠÏĥÏĭÎ½": 1588,
      "Îĺ": 1589,
      "Ġá¼©": 1590,
      "ÏģÏīÎ½": 1591,
      "ÏģÎ±ÏĤ": 1592,
      "ÏĢÏĦ": 1593,
      "ÜķÜ¦": 1594,
      "ĠÏĦá¿Ĩ": 1595,
      "ĠÏĢÎ¯": 1596,
      "Î¸Î®ÏĥÎµÏĦÎ±Î¹": 1597,
      "ĠÕ¶": 1598,
      "ĠÏĥÏī": 1599,
      "á½²Ïģ": 1600,
      "ÜĵÜªÜĲ": 1601,
      "ĠÜ¢ÜĲ": 1602,
      "Î¬Î½Î½": 1603,
      "ĠÜ¦Üª": 1604,
      "ĠÏĦÎ±Ïį": 1605,
      "Ġá¼ĳÎ±ÏħÏĦ": 1606,
      "Î¬Î»Î¹Î½": 1607,
      "Î¼Î¬ÏĦÏīÎ½": 1608,
      "©Õ§": 1609,
      "Õ¨": 1610,
      "ÜĲÜłÜĹÜĲ": 1611,
      "ÜĲÜ¦ÜĲ": 1612,
      "Î½Î¿Î½": 1613,
      "Ü¢ÜĹ": 1614,
      "ÜĺÜ¦": 1615,
      "ĠÏĦÎµÎ»": 1616,
      "ĠÎ´Î¯": 1617,
      "Î´ÎµÎ¹": 1618,
      "ĠÏĨÏħ": 1619,
      "ĠÜ©Üª": 1620,
      "Ġá¼¡Î¼á¿ĸÎ½": 1621,
      "Õİ": 1622,
      "ĠÖĦ": 1623,
      "Î¿Î²": 1624,
      "Î¹ÏĥÏĦ": 1625,
      "Ü¬ÜĿÜ¢": 1626,
      "ÏģÎ¿ÏĤ": 1627,
      "ÏĢá½¸": 1628,
      "ÜĴÜŁ": 1629,
      "ÜĴÜļ": 1630,
      "Î·ÏĥÎ¹Î½": 1631,
      "ÏīÏĥÎ¹Î½": 1632,
      "ĠÜĴÜ«": 1633,
      "Ġá¼ĶÏĥÏĦÎ±Î¹": 1634,
      "ĠÜ¬Üª": 1635,
      "ĠÜĲÜ¢Ü¬Ü¬ÜĲ": 1636,
      "ÜĴÜĿÜ¬ÜĲ": 1637,
      "Ü¬ÜĿÜĴ": 1638,
      "ĠÎµá¼¶ÏĢÎµ": 1639,
      "ĠÏĥá¿¶Î¼Î±": 1640,
      "ÏģÏĮÎ½": 1641,
      "ÏħÎ½Î±": 1642,
      "ĠÜłÜ¥": 1643,
      "ĠÜłÜĿÜ¬": 1644,
      "ÎºÎ±Î½": 1645,
      "ĠÜĺÜł": 1646,
      "ÜļÜ¬ÜĲ": 1647,
      "Î³Îµ": 1648,
      "Ġá½ģÎ´": 1649,
      "ĠÎ³á¿ĨÏĤ": 1650,
      "ÎµÎ¯Î±ÏĤ": 1651,
      "ĠÜ¥ÜłÜĺÜĹÜĿ": 1652,
      "ĠÏĦÎ±á¿¦ÏĦÎ±": 1653,
      "á½ī": 1654,
      "ÏĦÏĮÏĤ": 1655,
      "ÏĢÏīÏĤ": 1656,
      "ÜĹÜŁÜĿÜł": 1657,
      "ÜķÜĺÜ¢": 1658,
      "ĠÜķÜ¢ÜĲ": 1659,
      "ĠÜķÜ«Ü¡": 1660,
      "ĠÜĲÜŁ": 1661,
      "Ü«Ü©": 1662,
      "ĠÜ¡ÜłÜ¬ÜĲ": 1663,
      "ĠÕ¿": 1664,
      "ĠÎµÎ½": 1665,
      "Îµá¿ĸÏĦÎµ": 1666,
      "ÏģÎ±Î¼": 1667,
      "ÜªÜĿÜ¬ÜĲ": 1668,
      "á¿¦Î½": 1669,
      ".ÜĢ": 1670,
      "ªÕ¡Õ¶": 1671,
      "Õ±": 1672,
      "ķá¼°": 1673,
      "ÜĿÜŁÜĺÜ¢": 1674,
      "ÏĢÎ±Î½": 1675,
      "Ü¥Ü£Üª": 1676,
      "Ġá¼ĢÏģ": 1677,
      "ĠÎ¼Î¹": 1678,
      "ĠÜĹÜĺÜĿÜ¬": 1679,
      "ÜĵÜĴÜªÜĲ": 1680,
      "Õ¸Öģ": 1681,
      "Õ¥Öģ": 1682,
      "ĠÜļÜ¡": 1683,
      "ĠÜļÜ¢Ü¢": 1684,
      "á¾¿,": 1685,
      "ĠÜĲÜĿÜ¬ÜĺÜĹÜĿ": 1686,
      "ĠÜ¥Ü¡ÜĹ": 1687,
      "ĠÎ¿á¼¶": 1688,
      "Õ¸ÖĢÕ¤": 1689,
      "Ġá¼±ÎµÏģ": 1690,
      "Õ¡Õ·ÕŃÕ¡ÖĢ": 1691,
      "·ÏĤ": 1692,
      "Õ¾": 1693,
      "ĠÎ§": 1694,
      "ĠÏĦÎ¹Î½": 1695,
      "Ü«Ü¢ÜĲ": 1696,
      "Î¯á¾³": 1697,
      "ĠÜ¡ÜªÜĿ": 1698,
      "Î´Î¬": 1699,
      "ĠÜĴÜłÜļ": 1700,
      "ĠÕ¢": 1701,
      "ĠÏĥÎ¿á¿¦": 1702,
      "ĠÏĥÏħÎ¼": 1703,
      "Ġá½ģÎ¼": 1704,
      "ĠÎ³ÎŃÎ½": 1705,
      "ĠÎ¸ÎŃÎ»": 1706,
      "Î·ÏĥÎ¿Î½": 1707,
      "ÏĮÎ½ÏĦÏīÎ½": 1708,
      "Î¿ÏįÎ»": 1709,
      "ÏģÎµÏį": 1710,
      "ĠÜłÜĺÜ¬ÜĹ": 1711,
      "ÜļÜĻÜĲ": 1712,
      "Ġá¼ĶÏĩÎµÎ¹": 1713,
      "Î¥": 1714,
      "Î½Î·": 1715,
      "Î½ÏĮ": 1716,
      "Ü¡ÜķÜ¡": 1717,
      "ÎºÎµÎ¹": 1718,
      "ÎŃÏĦÏģ": 1719,
      "Î¿Î½ÏĦÎ¿ÏĤ": 1720,
      "ĠÎ´ÏħÎ½": 1721,
      "Õ¡Õº": 1722,
      "ĠÕ£": 1723,
      "ĠÕ¬": 1724,
      "ĠÜĺÜĲÜ¦": 1725,
      "Ü¨ÜĲ": 1726,
      "ĠÏĨÏī": 1727,
      "Î»Î±Î²": 1728,
      "ĠÎ»ÏĮÎ³Î¿Î½": 1729,
      "ĠÎ¼Î±Î¸Î·ÏĦÎ±á½¶": 1730,
      "ĠÜķÜĿÜłÜĿ": 1731,
      "ÜĺÜ«ÜĲ": 1732,
      "ÏĢÎ»": 1733,
      "ĠÜķÜłÜ¡ÜĲ": 1734,
      "Î¼Î²": 1735,
      "Î´Ïİ": 1736,
      "ĠÜĹÜĿÜ¡Ü¢": 1737,
      "ĠÎĶÎ¹": 1738,
      "ÜĺÜĿ": 1739,
      "Îµá¼": 1740,
      "ĠÏĦÏĮÏĦÎµ": 1741,
      "Î¼Î¹": 1742,
      "ÎºÎ¬": 1743,
      "ĠÏĢÎ±Î¹": 1744,
      "Î´Î¿ÏĤ": 1745,
      "Ġá¼ĢÎ½Îµ": 1746,
      "Î¾Ïī": 1747,
      "ÜĹÜĺÜķÜĲ": 1748,
      "Îµá¿ĸÎ¿Î½": 1749,
      "ĠÜ¬ÜĲ": 1750,
      "Î»Î»Î¿Î½": 1751,
      "ÏĥÎ¸Î·": 1752,
      "ÜĿÜķÜĹ": 1753,
      "ĠÎłÎµÏģá½¶": 1754,
      "Î½Î¿": 1755,
      "Î½Ïİ": 1756,
      "ĠÎĵ": 1757,
      "ÎºÎ¿Ïį": 1758,
      "ĠÎ´Î¿á¿¦": 1759,
      "ÏĦÎ±á¿ĸÏĤ": 1760,
      "ĠÜĴÜļ": 1761,
      "ÏĨÎ·": 1762,
      "ÏĦÎµÎ¹": 1763,
      "Õ«Õ½": 1764,
      "ĠÎ³Î¯Î½ÎµÏĦÎ±Î¹": 1765,
      "ĠÜĿÜĺ": 1766,
      "ÎµÏģÎ¿Î½": 1767,
      "ĠÜ«Üª": 1768,
      "ÜĺÜ£Ü¦": 1769,
      "ĠÏĢÎ±Ïģá½°": 1770,
      "ĠÎµá¼¶Î½Î±Î¹": 1771,
      "ÏģÎ·": 1772,
      "ÜķÜĿÜł": 1773,
      "ĠÏĦÎ·ÏĤ": 1774,
      "ĠÜķÜª": 1775,
      "ĠÎºÎ¬": 1776,
      "Î´ÏīÏģ": 1777,
      "ĠÎ»Î±Î²": 1778,
      "ĠÜļÜķÜĲ": 1779,
      "Î·ÏĥÎ±": 1780,
      "ĠÜłÜĿÜ«ÜĺÜ¥": 1781,
      "ĠÕºÕ¡Õ¿": 1782,
      "ÏĦÎ®": 1783,
      "Ü¡Ü¥": 1784,
      "Ü¡ÜłÜŁ": 1785,
      "ÏħÏĨ": 1786,
      "ĠÎºÏģÎ¯": 1787,
      "Î´Î±ÏĤ": 1788,
      "ĠÎ¼ÎŃ": 1789,
      "á¿ĨÏĥÎ±Î¹": 1790,
      "Õ¸Õ¶": 1791,
      "ĠÜĺÜĲÜĿÜ¬": 1792,
      "Î±Î»Î¹": 1793,
      "ÜĺÜªÜļÜĲ": 1794,
      "ĠÎ¼ÎµÎ³": 1795,
      "ĠÕ¡Õ¼": 1796,
      "ÜĿÜ¡ÜĿÜ¢": 1797,
      "Ġá½ĢÏĨÎ¸Î±Î»Î¼": 1798,
      "Ġá½ĥÏĤ": 1799,
      "ĠÎ¿á½ķÏĦÏīÏĤ": 1800,
      "ĠÎ±Î½": 1801,
      "ÜĲÜļ": 1802,
      "á¼Ī": 1803,
      "ĠÜķÜ¥Üł": 1804,
      "Î¼ÏĮÎ½": 1805,
      "Î¸ÎµÏģ": 1806,
      "Î³Ïī": 1807,
      "Ü¦ÜĿÜ¢": 1808,
      "ĠÜĴÜ£": 1809,
      "ĠÕ¤": 1810,
      "ÏĦÎµÏģÎ¿Î½": 1811,
      "ĠÎµá½": 1812,
      "ĠÎ±á½ĲÏĦÏĮÎ½": 1813,
      "ĠÜ¢Üļ": 1814,
      "Îµá¿ĸÏĦÎ±Î¹": 1815,
      "ÏĥÏĦÎ·": 1816,
      "ÏģÎ¹Î¿Î½": 1817,
      "Ġá½ħÎ»": 1818,
      "ÏĪÎµ": 1819,
      "ĠÎ²Î¬": 1820,
      "Õ¥Õ¿": 1821,
      "Ü«Ü¡Ü¥": 1822,
      "ĠÜķÜĿÜłÜĹ": 1823,
      "Ġá¼¦Î»Î¸": 1824,
      "Õ¥Õ½ÖģÕ§": 1825,
      "ÜĲÜĿÜŁÜ¢ÜĲ": 1826,
      "ĠÎ¿á½ĲÏģÎ±Î½á¿¶Î½": 1827,
      "ĠÏĢÎ¿Î½Î·Ïģ": 1828,
      "ÎµÏĦÎ¿": 1829,
      "Ü¡ÜĿÜ¢": 1830,
      "ÏĢÎ¿á¿¦": 1831,
      "ĠÏĦÏī": 1832,
      "ÜĴÜ«": 1833,
      "Î»á¿¶Î½": 1834,
      "ÜĺÜ¢ÜĿÜĹÜĿ": 1835,
      "Ġá½§": 1836,
      "ĠÏĢá¿¶ÏĤ": 1837,
      "Î¸ÎµÎ¹": 1838,
      "ÏĮÏģ": 1839,
      "Î´ÎŃ": 1840,
      "Ü¦ÜªÜĲ": 1841,
      "ĠÎ»Î¿Î³": 1842,
      "ĠÏĢÏģÎµÏĥ": 1843,
      "ĠÜ¡Ü¢ÜĹÜĺÜ¢": 1844,
      "ĠÎ´Î¹Î¬": 1845,
      "ĠÜķÜ¢Ü¬": 1846,
      "ĠÜ¨ÜĴÜĿÜ¢": 1847,
      "Ġá½ĥÎ½": 1848,
      "ĠÎ¿á½ĶÏĦÎµ": 1849,
      "·Î¿Î½": 1850,
      "Î½á¿¶Î½": 1851,
      "ÜĺÜŁÜķ": 1852,
      "ÜłÜĿÜł": 1853,
      "ÜķÜ¬ÜĲ": 1854,
      "ÜķÜĺÜĹÜĿ": 1855,
      "Ü«Üª": 1856,
      "ÎºÎ¿Î»": 1857,
      "Ü¥Ü©ÜĺÜĴ": 1858,
      "Î¸á¿ĨÎ½Î±Î¹": 1859,
      "Ġá¼ĲÏģ": 1860,
      "Ġá¼ĲÏĩ": 1861,
      "ÏĩÎµÎ¹": 1862,
      "á¿ĸÎ¿Î¹": 1863,
      "ĠÜłÜĲÜĿÜłÜĿÜ¢": 1864,
      "ĠÏĢÏģá¿¶": 1865,
      "ĠÜ¡Ü¢Üĺ": 1866,
      "ÜłÜ¡ÜķÜ¡": 1867,
      "á¼ĢÎ½": 1868,
      "ÜĲÜ¡Üª": 1869,
      "ĠÜ¢Ü¦Ü«ÜĹ": 1870,
      "ĠÕ´Õ«": 1871,
      "Ġá¼ĲÏĥÏĦá½¶Î½": 1872,
      "Ġá¼ĢÎ½Î¸ÏģÏİÏĢÎ¿Ïħ": 1873,
      "ÏĮÏĦÎ·ÏĦÎ±": 1874,
      "ÜĵÜłÜĿÜłÜĲ": 1875,
      "Ġá¿": 1876,
      "Î»Ïį": 1877,
      "ÎºÎ¿": 1878,
      "ĠÜĺÜĹÜĺ": 1879,
      "ĠÜ¡ÜªÜĿÜĲ": 1880,
      "Ì£Ìĩ": 1881,
      "Ġá¼ĢÏĥÏĦ": 1882,
      "ĠÕ¨": 1883,
      "ÏĨÎ±Î»": 1884,
      "ĠÜ¥Üª": 1885,
      "ÜĵÜłÜĲ": 1886,
      "ÜķÜĲÜĿÜ¬": 1887,
      "ĠÎºÎ±Î¯": 1888,
      "ĠÎ¿á½ĲÏĩ": 1889,
      "ÜĺÜĲÜ¢": 1890,
      "ĠÎ¼ÎµÏĦ": 1891,
      "Î±á½ĲÏĦÎ¿á¿¦": 1892,
      "ĠÎŁá¼±": 1893,
      "Îµá¼°ÏĤ": 1894,
      "ÕİÕ½": 1895,
      "ĠÎĴ": 1896,
      "ÜłÜ¥": 1897,
      "ÏĥÎ¿Ïħ": 1898,
      "ĠÜĲÜĺÜłÜķ": 1899,
      "ÎºÎ¿Ïħ": 1900,
      "á¾º": 1901,
      "ĠÎ³Î¬Ïģ": 1902,
      "ĠÜķÜĲÜ¬ÜĲ": 1903,
      "ĠÎ»ÎµÎ³": 1904,
      "ĠÎ¸ÏĤ": 1905,
      "ÜĿÜŁÜĲ": 1906,
      "Ġá¼ĲÎºÎµá¿ĸÎ½": 1907,
      "ĠÎ±Ïħ": 1908,
      "ĠÜĲÜĿÜŁÜĲ": 1909,
      "ĠÎļÏįÏģÎ¹Îµ": 1910,
      "ÏĮÎ¼ÎµÎ½Î¿Î¹": 1911,
      "ÜĺÜķÜ«ÜĲ": 1912,
      "ÜĹÜĿÜ¡Ü¢ÜĺÜ¬ÜĲ": 1913,
      "ĠÎľÎĳÎ¤": 1914,
      "ÎĵÎĵ": 1915,
      "ĠÎµá¼´ÏĢ": 1916,
      "ÎĳÎ¤á¾º": 1917,
      "ĠÎľÎĳÎ¤Îĺ": 1918,
      "ĠÎĽ": 1919,
      "Ü¡Üĺ": 1920,
      "Ü¬ÜŁ": 1921,
      "ÏīÎ¼ÎµÎ½": 1922,
      "ĠÏĢÎµ": 1923,
      "ĠÜ¡Ü«": 1924,
      "Î´Î¿Î½": 1925,
      "ĠÏĥÏĦ": 1926,
      "á½´ÏĤ": 1927,
      "ĠÎ³Îµ": 1928,
      "ĠÜĺÜĲÜĻ": 1929,
      "ĠÜ«ÜĲ": 1930,
      "Õ¸ÖĤÕ´": 1931,
      "Î½ÎµÏĤ": 1932,
      "ĠÏĩÎµÎ¹": 1933,
      "Õ¡ÖĢÕªÕ¡Õ¶": 1934,
      "ĠÕ¸ÖĤ": 1935,
      "Õ¥Õ½ÖģÕ«": 1936,
      "Î²Î¬Î»Î»": 1937,
      "Î£": 1938,
      "ÜłÜ©": 1939,
      "ĠÏĦÏīÎ½": 1940,
      "ĠÜĲÜĴÜĿ": 1941,
      "ĠÎºÎ¹Î½": 1942,
      "ĠÏĢÎ»Î·": 1943,
      "Î³ÎµÎ½": 1944,
      "Î´ÎµÎ½": 1945,
      "ÜłÜĲÜŁÜĲ": 1946,
      "ĠÕŃ": 1947,
      "Õ«ÖĢ": 1948,
      "ĠÜĿÜĺÜļÜ¢Ü¢": 1949,
      "ĠÜ©ÜķÜĿ": 1950,
      "ÜķÜ¥ÜĿÜ¢": 1951,
      "ÜĺÜªÜĴÜĲ": 1952,
      "ÎļÎĳÎ¤á¾º": 1953,
      "ÎĳÎĵÎĵ": 1954,
      "ÜĴÜªÜĹÜ¡": 1955,
      "ĠÎ¼ÏĮÎ½Î¿Î½": 1956,
      "Î¥ÎĳÎĵÎĵ": 1957,
      "Õ»": 1958,
      "ÜĿÜĺÜĹÜĿ": 1959,
      "ÜĹÜłÜĿÜ¢": 1960,
      "Î»Î®": 1961,
      "Î¼Î¿Ïħ": 1962,
      "ÎºÏĮ": 1963,
      "ĠÏĢÎ¬Ïĥ": 1964,
      "ĠÜ¡ÜĽ": 1965,
      "Ü©ÜĴÜł": 1966,
      "ĠÜĴÜŁÜł": 1967,
      "ĠÜłÜĲÜłÜĹÜĲ": 1968,
      "ĠÜķÜ¡Ü¬": 1969,
      "Ü«Ü¡Ü¥ÜĺÜ¢": 1970,
      "ĠÎ½á¿¦Î½": 1971,
      "ÎºÎ±ÏĦÎ±": 1972,
      "Ġá½ĳÎ¼Îµá¿ĸÏĤ": 1973,
      "ÖĦÕ¶": 1974,
      "ĠÎ¤Î¯": 1975,
      "Ġá¼¦Î½": 1976,
      "Ġá½¥ÏĥÏĢÎµÏģ": 1977,
      "Ü¬ÜŁÜĺÜ¢": 1978,
      "ÏģÎ¿á¿¦": 1979,
      "ĠÜķÜŁÜł": 1980,
      "ÜŁÜĺÜł": 1981,
      "ĠÎºÏħ": 1982,
      "Ü¥ÜĴ": 1983,
      "ĠÏĢÎ¬": 1984,
      "Î¸ÏħÎ¼": 1985,
      "ĠÏĥÎ±": 1986,
      "ĠÎ±á½ĲÏĦá½¸ÏĤ": 1987,
      "Î¼ÎµÎ½Î¿Î¹": 1988,
      "ĠÜ¦ÜĿÜłÜĽÜĺÜ£": 1989,
      "Î®ÏĥÎ¿Î½ÏĦÎ±Î¹": 1990,
      "á¾¿.": 1991,
      "ĠÜ«Ü¡Ü¥ÜĺÜ¢": 1992,
      "ÜŁÜªÜĻ": 1993,
      "ĠÏĢÏĮÎ»": 1994,
      "á¼ĺÎ¥ÎĳÎĵÎĵ": 1995,
      "ĠÎ¦Î±ÏģÎ¹": 1996,
      "ÏĥÎ·": 1997,
      "Ü¬ÜĿÜª": 1998,
      "Ü¬ÜĴÜĲ": 1999,
      "ÜķÜ¨": 2000,
      "ĠÜĲÜ«Ü¬": 2001,
      "Î³ÎµÎ¹": 2002,
      "Ü£ÜĴ": 2003,
      "ĠÎµÎ¹": 2004,
      "ĠÎµá½ĳ": 2005,
      "ĠÎ±á½ĲÏĦá¿¶": 2006,
      "ĠÜ¥Ü¢": 2007,
      "ÜĵÜĲ": 2008,
      "ÜĹÜĿÜŁÜłÜĲ": 2009,
      "ĠÎ»ÎŃ": 2010,
      "ĠÎ¸ÎµÎ¯": 2011,
      "Î¼ÎŃÎ½ÏīÎ½": 2012,
      "ÜĲÜ¢ÜĺÜ¢": 2013,
      "ĠÎ¿á¼·Î¿Î½": 2014,
      "ĠÏĦÎ¿ÏįÏĦÏīÎ½": 2015,
      "Î®Î¼ÎµÏģÎ¿Î½": 2016,
      "ĠÏĢÏģÎµÏĥÎ²": 2017,
      "ÎĶ": 2018,
      "ÏĦÎ¿á¿ĸÏĤ": 2019,
      "Î¹ÎµÏģ": 2020,
      "ÏĥÎ¯": 2021,
      "ĠÏĦÎ·": 2022,
      "Ü«ÜĴÜĺ": 2023,
      "ĠÜłÜĴ": 2024,
      "Ü¥ÜĿÜĲ": 2025,
      "ÜļÜĿÜ¢": 2026,
      "Î³á½¼": 2027,
      "ÏĮÎ»": 2028,
      "Î´Ïį": 2029,
      "ĠÜĴÜŁÜĺÜ¢": 2030,
      "ĠÏĥÎ¿á½¶": 2031,
      "Î±Î¹Î½": 2032,
      "Õ¥ÖĢÕ": 2033,
      "ĠÎ³ÏħÎ½": 2034,
      "ÜķÜĲÜ¢": 2035,
      "ĠÜŁÜĲÜ¦ÜĲ": 2036,
      "ĠÎºÎ±ÏĦÎ¬": 2037,
      "ĠÜ«ÜªÜĿ": 2038,
      "ÜłÜĿÜļÜĲ": 2039,
      "á¾¶Î»Î»Î¿Î½": 2040,
      "ÎºÎ±Î¸": 2041,
      "Ġá¼ĢÎ½ÎŃ": 2042,
      "Î®Ïĥá¿ĥ": 2043,
      "ÏĬÎ½": 2044,
      "Ü©ÜªÜĴ": 2045,
      "Î¤ÏĮÏĦÎµ": 2046,
      "ĠÜ«Ü¡ÜĿÜĲ": 2047,
      "Ġá½ķÎ´ÏīÏģ": 2048,
      "ÏħÏĥÎµÎ½": 2049,
      "ĠÎ²Î±ÏĥÎ¹Î»ÎµÎ¯Î±": 2050,
      "Ġá¼¥Î»Î¹": 2051,
      "Î¸ÏģÏīÏĢÎ¿ÏĤ": 2052,
      "Îľ": 2053,
      "ÏĦÎ¿á½ºÏĤ": 2054,
      "ÏĦá¿³": 2055,
      "ÏĥÎ¯Î±Î½": 2056,
      "Ü¡ÜŁ": 2057,
      "ÜĴÜĺÜĹÜĿ": 2058,
      "Î¼Î·": 2059,
      "ĠÎºÏģÎ±": 2060,
      "ĠÜłÜĴÜĿÜ¬": 2061,
      "ÎºÎ±Î»": 2062,
      "Ġá½į": 2063,
      "ĠÏĢÎ¬Î»Î¹Î½": 2064,
      "ĠÜ¡Üł": 2065,
      "Î´Ïģ": 2066,
      "Î¿á¿¦ÏĤ": 2067,
      "Ü©Üł": 2068,
      "ĠÎ¼ÎµÏģ": 2069,
      "ĠÏĥÏĨ": 2070,
      "ĠÏĥá½²": 2071,
      "Î®Ïģ": 2072,
      "ĠÜ¥Ü¡ÜĲ": 2073,
      "ÏĥÏĦÎ¬": 2074,
      "ĠÜĲÜ¡Üª": 2075,
      "á¼ĲÏĢ": 2076,
      "Ġá¼ĲÎ³á½¼": 2077,
      "ĠÎ¼Î±Îº": 2078,
      "Ġá¼ĦÎ½Î¸ÏģÏī": 2079,
      "ĠÎ³á¿ĨÎ½": 2080,
      "Î´Î¬ÏĥÎº": 2081,
      "Ôµ": 2082,
      "Ü¬Üĺ": 2083,
      "ÏĢÎ¬Î½": 2084,
      "Ü«Ü¢": 2085,
      "ĠÜĺÜłÜ¡": 2086,
      "ĠÎ´Ïİ": 2087,
      "Î¿á¿¦ÏĥÎ¹Î½": 2088,
      "Ü¦Ü¢ÜĲ": 2089,
      "ĠÜĿÜĺÜ¡": 2090,
      "ÜĹÜĺÜ¬": 2091,
      "ĠÜļÜłÜ¦": 2092,
      "Ġá¼ĶÎ½": 2093,
      "ĠÜ«ÜĴ": 2094,
      "Ü¨ÜļÜĲ": 2095,
      "ÏĥÎµÎ»Î¸": 2096,
      "ĠÂ²": 2097,
      "á¼ĢÎ»Î»": 2098,
      "ÏĦá½°ÏĤ": 2099,
      "ÏĥÏĦÎ¹ÏĤ": 2100,
      "ĠÜĽÜĴ": 2101,
      "ĠÜĺÜ¢Ü¦": 2102,
      "Î»ÎŃÏĢ": 2103,
      "ĠÎ±á½ĳÏĦá¿¶Î½": 2104,
      "ĠÎµá¼¶ÏĢÎ¿Î½": 2105,
      "Ġá¼ĦÎ½Ïī": 2106,
      "ĠÕ¥Õ©Õ§": 2107,
      "ĠÎ´Î¹Î±ÏĨ": 2108,
      "á¿ĨÎ»Î¸Î¿Î½": 2109,
      "Î³Î³ÎµÎ»": 2110,
      "ĠÎĺÎµÎ¿á¿¦": 2111,
      "ĠÜĴÜłÜļÜĺÜķ": 2112,
      "ÎµÎ²": 2113,
      "Ü¬ÜĺÜĴ": 2114,
      "Ïģá½¸Î½": 2115,
      "Î¼Î¹Î½": 2116,
      "ÜŁÜ¢": 2117,
      "ĠÜ¡ÜªÜ¢": 2118,
      "Î³Î¿Î½": 2119,
      "ĠÎ¼á¾¶Î»Î»Î¿Î½": 2120,
      "ÜĵÜ¡": 2121,
      "ĠÎ³ÏģÎ±Î¼": 2122,
      "ĠÜŁÜ¢": 2123,
      "Î¿ÏįÎ¼ÎµÎ½Î¿ÏĤ": 2124,
      "ĠÜªÜĴ": 2125,
      "ĠÜ¦ÜĲÜª": 2126,
      "Î»ÎµÏį": 2127,
      "ĠÜķÜĿÜ«ÜĺÜ¥": 2128,
      "Ü¡ÜªÜ¢": 2129,
      "ĠÕ¯Õ¡Õ´": 2130,
      "ĠÏĦÎ¹ÏĤ": 2131,
      "ĠÜŁÜłÜĹÜĿÜ¢": 2132,
      "Ġá¼¸ÏīÎ¬Î½Î½": 2133,
      "Ëĳ": 2134,
      "Î½Î®": 2135,
      "ÏĦá¿·": 2136,
      "Îµá½¶": 2137,
      "Î¹Î¶": 2138,
      "ĠÏĦÏģÎ¹": 2139,
      "Ü«ÜĿÜ¢": 2140,
      "ĠÏĢÎ¹": 2141,
      "ĠÎ´Î±Î¹": 2142,
      "ĠÎ´Î¿ÏįÎ»": 2143,
      "Î¿á¿¦ÏĥÎ±": 2144,
      "Î¿ÏħÎ´Î±": 2145,
      "Ü©ÜĿÜ¢": 2146,
      "ÏĩÎ¸": 2147,
      "Õ¡Õ¦": 2148,
      "ÏĦÎµÏį": 2149,
      "ĠÜ¥Üķ": 2150,
      "Õ¡Õ¶Õ¥Õ¬": 2151,
      "ĠÜķÜ¡ÜªÜĿÜĲ": 2152,
      "ÜĲÜ¢Ü«": 2153,
      "Õ¯Õ¶": 2154,
      "Õ¡ÖĢÕ¤": 2155,
      "Õ¸ÖĤÕ©Õ¢": 2156,
      "ĠÏĢÎ¿Î¹Îµá¿ĸ": 2157,
      "ĠÏĪÏħÏĩá¿ĨÏĤ": 2158,
      "ĠÎĽÎŃÎ³": 2159,
      "ĵÎ½": 2160,
      "ÜłÜĿÜ¬": 2161,
      "ÏĥÏĢÎ¿": 2162,
      "ÜªÜŁÜĲ": 2163,
      "ÏĢÎŃ": 2164,
      "ĠÏĦÏģÎ¯": 2165,
      "Î¼Î¿ÏĤ": 2166,
      "Î¼á½´Î½": 2167,
      "ĠÜĲÜĿÜ¢ÜĲ": 2168,
      "ĠÜĲÜªÜ¥ÜĲ": 2169,
      "ĠÎºÎ¿": 2170,
      "ĠÜ¡Üļ": 2171,
      "Î´ÏģÎ±": 2172,
      "Ü¦Ü«": 2173,
      "ÏĩÎ¿ÏĤ": 2174,
      "ĠÎ¼ÎŃÎ½": 2175,
      "ĠÎ±á½ĲÏĦá½´Î½": 2176,
      "Ü«ÜĺÜĴ": 2177,
      "ĠÎ¸Î±Î»": 2178,
      "ĠÜ¡Ü¢ÜŁÜĺÜ¢": 2179,
      "Ġá¼ĢÏĢÎŃ": 2180,
      "Ġá½ħÏĢÏīÏĤ": 2181,
      "ÜĴÜªÜĿÜ¢": 2182,
      "ÜķÜĿÜ¢ÜĲ": 2183,
      "Õ¥Õ¯": 2184,
      "ÏĥÎ±á¿ĸÎ¿Î¹": 2185,
      "ĠÎ½Î¿": 2186,
      "ÎŃÏģÎ¿ÏĤ": 2187,
      "ÜļÜªÜ¢ÜĲ": 2188,
      "ĠÎ¸ÎµÎ¿á¿¦": 2189,
      "Î¼ÎµÎ¸Î±": 2190,
      "ÖħÖĢ": 2191,
      "ÏĮÏĦÎ·ÏĦÎ¿ÏĤ": 2192,
      "ĠÜ¡ÜłÜŁÜĲ": 2193,
      "ĠÜ¡ÜłÜŁÜĺÜ¬ÜĲ": 2194,
      "ĠÎ½Î±": 2195,
      "ÏĦÏĬ": 2196,
      "Î¹ÏĥÎ¼": 2197,
      "Ü¡ÜĿÜĲ": 2198,
      "ÜĹÜĿÜ¢": 2199,
      "ĠÏĦÎ¬": 2200,
      "ĠÜķÜ¡ÜĲ": 2201,
      "Î¼ÏĨ": 2202,
      "ĠÎºÎ¿Î¹": 2203,
      "Ü¥ÜłÜĿ": 2204,
      "ĠÜĺÜª": 2205,
      "ĠÏĢÎŃ": 2206,
      "Î¸Î¿ÏĤ": 2207,
      "Ġá¼ĲÎ»": 2208,
      "ĠÜ¡ÜĿÜ¬": 2209,
      "Ü©ÜĺÜ¡": 2210,
      "Ü£Ü¬": 2211,
      "ÜĽÜĿÜĲ": 2212,
      "ĠÎ³Î¹Î½": 2213,
      "ĠÜŁÜĹ": 2214,
      "Ġá¼ĶÎ¼ÏĢ": 2215,
      "Õ¡Õ¶Öģ": 2216,
      "Î¶Î¿Î½": 2217,
      "Î¼ÎŃÎ½Î¿Î½": 2218,
      "á¼ĢÏĢÎ¿": 2219,
      "Î®ÏĥÎ±ÏĤ": 2220,
      "ÏĥÎ±Î½ÏĦÎµÏĤ": 2221,
      "Ġá¼ĢÏĢÎ¿ÎºÏģÎ¹Î¸Îµá½¶ÏĤ": 2222,
      "ÎŃÎ»ÎµÎ¹": 2223,
      "ĠÕ¸ÖĢ": 2224,
      "Î±Î³Î³": 2225,
      "ĠÎ¿á½ķÏĦÏī": 2226,
      "Ġá¼ĢÏģÏĩÎ¹ÎµÏģ": 2227,
      "ĠÜłÜļÜ¡ÜĲ": 2228,
      "Îµá¼¶": 2229,
      "ÎºÎ¿Î»Î¿Ïį": 2230,
      "Ġá¿¯": 2231,
      "ÔµÕ©Õ§": 2232,
      "Öĥ": 2233,
      "Ýģ": 2234,
      "ÜĲÜ¬ÜĲ": 2235,
      "ĠÎķá¼°": 2236,
      "ĠÜķÜ«Ü¡ÜĿÜĲ": 2237,
      "ÎºÎ¿Î½": 2238,
      "Î·Î»": 2239,
      "Ü¦Ü¢": 2240,
      "ĠÎ¼Î±Ïģ": 2241,
      "Õ¸Õ½": 2242,
      "Î¼Î±ÏĦÎ¯": 2243,
      "ÏģÎ±ÏĨ": 2244,
      "ĠÜ£ÜĵÜĿ": 2245,
      "Õ¥Õ¦": 2246,
      "Î¼ÎŃÎ½Î·": 2247,
      "á¿¦Î¼Î±": 2248,
      "Õ´Õ«": 2249,
      "ĠÜ¥Ü¡ÜĹÜĺÜ¢": 2250,
      "ĠÕ¦Õ«": 2251,
      "Î¿Î»Î¿Î³": 2252,
      "ĠÏĢÎ¬Î½ÏĦÏīÎ½": 2253,
      "Î¿Î¼ÎŃÎ½ÏīÎ½": 2254,
      "Î½Ïħ": 2255,
      "Î±Î´": 2256,
      "Ü¢Üļ": 2257,
      "Ġá¼ĵÎ½": 2258,
      "ÏĥÎ¼Î±": 2259,
      "Ü¡Ü«Ü¬": 2260,
      "Ü¬ÜĹÜĺÜ¢": 2261,
      "ÏĢÎ½": 2262,
      "ÜĹÜŁÜ¢ÜĲ": 2263,
      "ĠÜķÜ¥Ü¡": 2264,
      "ĠÜĲÜª": 2265,
      "ĠÜłÜ£": 2266,
      "Ü¥ÜĺÜª": 2267,
      "Ġá½¦": 2268,
      "Î¸á¿ĩ": 2269,
      "Î´Ïħ": 2270,
      "ĠÕ©Õ§": 2271,
      "ĠÏĥÏħÎ³": 2272,
      "ĠÜ¢Ü¨": 2273,
      "Î±ÏģÎº": 2274,
      "ĠÜĿÜĹ": 2275,
      "Ġá½ĳÎ³": 2276,
      "ĠÎ¸ÎŃ": 2277,
      "ÏĥÏĦÎ¿Î½": 2278,
      "Õ¸ÖĤÖģ": 2279,
      "Î®ÏĥÎµÎ¹ÏĤ": 2280,
      "ÜŁÜĲÜ¦ÜĲ": 2281,
      "ĠÜķÜļÜķ": 2282,
      "ÜłÜłÜĿÜĲ": 2283,
      "Õ¡ÕµÕ¶": 2284,
      "ÜĹÜĿÜ¡Ü¢ÜĿÜ¢": 2285,
      "ÕºÕ¡Õ¶": 2286,
      "ÖħÖĦ": 2287,
      "ĠÎºÎµÏĨÎ±Î»": 2288,
      "ĠÎ¿á½ĹÏĦÎ¿ÏĤ": 2289,
      "Î¿ÏĥÏįÎ½": 2290,
      "á¿ĨÎ»Î¸ÎµÎ½": 2291,
      "ĠÕ¡ÕºÕ¡Õ·ÕŃÕ¡ÖĢ": 2292,
      "Ġá¼ĶÎ¼ÏĢÏģÎ¿": 2293,
      "ÏĢÏģá½¸ÏĤ": 2294,
      "ĠÏĦÎ¿Î¹": 2295,
      "ĠÏĦÏħÏĨ": 2296,
      "Î»ÎµÎ¹": 2297,
      "ĠÜķÜ¬Üª": 2298,
      "Î¼á½¸ÏĤ": 2299,
      "ÜŁÜĺ": 2300,
      "ĠÜłÜĺÜ©": 2301,
      "ĠÏĢÏħÏģ": 2302,
      "Î¬Î¼ÎµÎ½Î¿ÏĤ": 2303,
      "ÏĩÏģ": 2304,
      "ĠÏĥÏĩ": 2305,
      "ĠÏĥÏĦÏĮ": 2306,
      "ÜĿÜ¬ÜĹ": 2307,
      "Õ¸ÖĦ": 2308,
      "ĠÎ»Ïį": 2309,
      "ÜĹÜĺÜķ": 2310,
      "Õ¡Õ¶Õ¤": 2311,
      "ĠÜªÜĴÜĲ": 2312,
      "ĠÏĢÏģÎ¿ÏĥÎº": 2313,
      "ĠÏĩÎµá¿ĸ": 2314,
      "Î®ÏĥÏī": 2315,
      "ĠÖĩÕ¦": 2316,
      "Ġá½ĳÏĢá½²Ïģ": 2317,
      "ĠÜĻÜĴÜ¢ÜĲ": 2318,
      "Î´ÎµÎºÎ±": 2319,
      "Î¿Î¼Î±Î¹": 2320,
      "ĠÏħá¼±á½¸Î½": 2321,
      "ÜĽÜĿÜ¬ÜĲ": 2322,
      "ĠÏĦÎ¹Î¼": 2323,
      "ÏįÏģÎ¹Î¿ÏĤ": 2324,
      "ĠÜĺÜĹÜĲ": 2325,
      "ĠÏĢÏģÎ¿ÏĨÎ®ÏĦÎ¿Ïħ": 2326,
      "Õ¼": 2327,
      "ÖĬ": 2328,
      "á½Ħ": 2329,
      "á½į": 2330,
      "ÏĦá½¶": 2331,
      "ÜĺÜ¥": 2332,
      "ÜŁÜĿÜ¢": 2333,
      "ÏħÎ¸": 2334,
      "Î¯á¿³": 2335,
      "ĠÜ¡Ü¨": 2336,
      "Î´Î¿á½º": 2337,
      "Ü¦ÜĿÜª": 2338,
      "ĠÎ¼ÎŃÎ³": 2339,
      "ĠÏĥÏĦÎ±": 2340,
      "ĠÏĥÏį": 2341,
      "ÜĽÜĴ": 2342,
      "ĠÎ±á½ĲÏĦá½¸": 2343,
      "ĠÜ¥ÜĴÜķÜĲ": 2344,
      "ĠÎ³Î±Ïģ": 2345,
      "ĠÜ¢Ü¡ÜĺÜ£ÜĲ": 2346,
      "ĠÎ»Î±Î»": 2347,
      "Î¼Î±ÏĦÎµ": 2348,
      "Ġá¼ĶÎ»Îµ": 2349,
      "Ġá¼ĶÏĥÏĦÎ¹": 2350,
      "ĠÎ¸Î¬Î»Î±": 2351,
      "ĠÜ¬Ü¬": 2352,
      "ÜªÜĿÜ«": 2353,
      "ĠÜ£ÜĿ": 2354,
      "ĠÜ£ÜĵÜĿÜĲÜĲ": 2355,
      "Õ¸Õ¹": 2356,
      "ÏģÎ¿ÏĨ": 2357,
      "ĠÎ¿á¼´": 2358,
      "ĠÎ±á¼°ÏĦ": 2359,
      "ĠÜķÜłÜ¥ÜłÜ¡": 2360,
      "á½ħÏĦÎ¹": 2361,
      "ĠÏĢÎ½ÎµÏį": 2362,
      "¤á¿¥": 2363,
      "ÜĤ": 2364,
      "ÜĿÜķÜ¥": 2365,
      "ÏĥÏĨ": 2366,
      "ÏĥÎµÎ¹ÏĤ": 2367,
      "Ü¡Üł": 2368,
      "Ïģá¿¶Î½": 2369,
      "ÏĢÎµÎ½": 2370,
      "ÏĢÏĦÎ¹": 2371,
      "ĠÜķÜ¥ÜłÜ¡ÜĲ": 2372,
      "ÜŁÜłÜĹÜĺÜ¢": 2373,
      "ĠÎºÏį": 2374,
      "ÏīÏĥ": 2375,
      "Ġá¼ĲÎ»Î±": 2376,
      "ĠÜ¡ÜłÜ¦": 2377,
      "Õ¡ÖĦ": 2378,
      "Î¬ÏģÏĩ": 2379,
      "Ü©Ü¢": 2380,
      "ĠÜĴÜ¬": 2381,
      "ÏĨÏīÎ½": 2382,
      "ÏĦÎµÎ¹Î½": 2383,
      "Î±Î½ÏĦÎ±": 2384,
      "ĠÎµá¼·ÏĤ": 2385,
      "Õ«Õ¯": 2386,
      "Õ«ÖģÕ«": 2387,
      "ÜĻÜĿÜ¢": 2388,
      "ĠÜŁÜ¢Ü«ÜĲ": 2389,
      "Ġá¼ĶÎ¾Ïī": 2390,
      "ÎµÎ¯Î±Î½": 2391,
      "ÜłÜĿÜĽ": 2392,
      "ÏĪÎ±ÏĤ": 2393,
      "ÜłÜŁÜĺÜ¬ÜĲ": 2394,
      "á¿¦ÏĥÎ±Î¹": 2395,
      "Î±á½ĲÏĦá½¸Î½": 2396,
      "ĠÕ¸Õ¹": 2397,
      "ĠÜķÜłÜĿÜ¬": 2398,
      "ĠÏĢá¾¶ÏĥÎ±Î½": 2399,
      "ĠÎºÎ±ÏģÏĢ": 2400,
      "ĠÎ±á¼´": 2401,
      "Ġá¼¡Î¼ÎŃÏģÎ±ÏĤ": 2402,
      "ĠÕ¡ÕµÕ¬": 2403,
      "ÜĲÜĿ": 2404,
      "ÜĲÜĿÜłÜĿÜ¢": 2405,
      "á½ķ": 2406,
      "ÎµÎº": 2407,
      "ĠÏĦÎ¿Î½": 2408,
      "Î¼á¿ĸÎ½": 2409,
      "ĠÜĲÜ«": 2410,
      "ÜŁÜłÜĹ": 2411,
      "Ġá¼ĲÎ»Îµ": 2412,
      "Ġá¼ĲÎ¼ÏĢ": 2413,
      "ĠÜ¡Ü«Ü¬": 2414,
      "ĠÜ¡Ü¡ÜłÜł": 2415,
      "ĠÜĴÜ¨": 2416,
      "ĠÎ¼Î¬": 2417,
      "ÜĹÜĿÜķÜĿÜ¢": 2418,
      "Ġá½ģÏĢÎ¿á¿¦": 2419,
      "ĠÜĿÜ¬ÜĿ": 2420,
      "Î¾ÎµÎ½": 2421,
      "ĠÎµá¼°Ïģ": 2422,
      "Ġá¼ĶÎ½Î±Î¹": 2423,
      "Ġá¼ĶÏģÏĩ": 2424,
      "Õ¡Õ¶Õ¶": 2425,
      "ÖĢÕ¤": 2426,
      "ĠÎ±ÏħÏĦ": 2427,
      "ĠÜ£Üĵ": 2428,
      "ĠÂ³": 2429,
      "Ü«Ü¡ÜĹ": 2430,
      "Î¼ÎŃÎ½Î¿Î¹": 2431,
      "á¼ĲÎ¾": 2432,
      "ÏĢÎ¿ÏĦÎµ": 2433,
      "Õ¯Õ¡Õ´": 2434,
      "á¿ĥÏĤ": 2435,
      "Ġá½ĳÏĢÎµÏģ": 2436,
      "ÜĿÜ¡Ü¬ÜĲ": 2437,
      "ĠÜĽÜĿ": 2438,
      "ÏĮÏĦÎµÏģÎ¿Î½": 2439,
      "ÜļÜĻÜĿ": 2440,
      "Ġá¼ĦÎ½Î¸ÏģÏīÏĢÎ¿ÏĤ": 2441,
      "ĠÏĢá¾¶ÏĥÎ±": 2442,
      "ĠÜĿÜķÜ¥ÜĿÜ¢": 2443,
      "ÏħÏģÎ¯Î¿Ïħ": 2444,
      "ĠÜĲÜļÜªÜ¢ÜĲ": 2445,
      "ĠÏĢÏģÎ¿ÏĥÎµÎ»Î¸": 2446,
      "ÎŁá½Ĳ": 2447,
      "á½¡": 2448,
      "ÏĦÏĮÎ½": 2449,
      "Î¿Î¼Î±": 2450,
      "Î¿á¼±": 2451,
      "ÜĺÜĴÜĲ": 2452,
      "Ü¡Ü«": 2453,
      "ÏģÎ¼": 2454,
      "ÏĢÎ±Î³": 2455,
      "ÜĴÜĺÜ¢": 2456,
      "Î»ÏĮÎ³": 2457,
      "Î¼ÎŃ": 2458,
      "ÏħÏĢ": 2459,
      "ĠÜłÜĺ": 2460,
      "ÎºÎµá¿ĸ": 2461,
      "ÎºÏģÎ±": 2462,
      "Ü¥ÜķÜ¡ÜĲ": 2463,
      "ĠÜ¡Ü«ÜŁ": 2464,
      "Î´Î±Î»": 2465,
      "Ü¦Üł": 2466,
      "ÏĦÎ±Î¯": 2467,
      "ĠÜĴÜªÜĲ": 2468,
      "Ü£ÜĴÜª": 2469,
      "ĠÏĥÎ®Î¼ÎµÏģÎ¿Î½": 2470,
      "ÎµÎ¹Î´": 2471,
      "ÜĿÜĲÜĲ": 2472,
      "ĠÜ¥Ü¢ÜĲ": 2473,
      "ÜłÜĹÜ¢ÜĲ": 2474,
      "ÜĻÜĿ": 2475,
      "ĠÜ¬ÜĹÜĺÜĲ": 2476,
      "ĠÎ´Î¹ÏĮÏĦÎ¹": 2477,
      "ÏģÎ±ÏĢ": 2478,
      "Ġá¼ĦÎ³Î³ÎµÎ»": 2479,
      "Î¼ÎŃÎ½Î·Î½": 2480,
      "Ü¬ÜĿÜķ": 2481,
      "ĠÜĲÜĿÜ¬ÜĿÜĹ": 2482,
      "ĠÜĴÜªÜ¢Ü«ÜĲ": 2483,
      "Ü¥Ü¡Üķ": 2484,
      "ĠÜłÜĺÜ¬ÜŁÜĺÜ¢": 2485,
      "ĠÏĢÎ¬Î½ÏĦÎµÏĤ": 2486,
      "ĠÏĢÎ¬Î½ÏĦÎ±ÏĤ": 2487,
      "ÜļÜĻÜĺÜ¢": 2488,
      "Î¿á¿¦Î½ÏĦÎµÏĤ": 2489,
      "Ġá½ķÎ´Î±": 2490,
      "Ġá¼ĲÎ¼Î¿á¿¦": 2491,
      "Ġá½¥ÏĥÏĦÎµ": 2492,
      "Ġá¼ĢÎ³Î³": 2493,
      "ÜķÜĺÜĿÜķ": 2494,
      "ĠÏĦÎŃÎº": 2495,
      "Î¼Î²Î¬Î½": 2496,
      "Î½Î¿ÏĤ": 2497,
      "ÏĦÎ¿Î¹ÏĤ": 2498,
      "ÜĿÜªÜĲ": 2499,
      "ÜĺÜķÜĲ": 2500,
      "ĠÜķÜĹÜĺ": 2501,
      "Ü¥Ü¢": 2502,
      "ĠÜĺÜ¥Üł": 2503,
      "ÜļÜĹ": 2504,
      "ĠÜ¡Üª": 2505,
      "Î´á½²Î½": 2506,
      "Î¿á¿¦ÏĥÎ¹": 2507,
      "ĠÎ¼Î¿Î½": 2508,
      "Ü£ÜĿÜ¢": 2509,
      "ĠÏĥÏĦÎ¿Î¹": 2510,
      "ĠÎµÏĢÎ¹": 2511,
      "ĠÜķÜĲÜ¢ÜĲ": 2512,
      "ÏİÏģ": 2513,
      "ĠÎµá¼°ÏĢ": 2514,
      "ĠÎºÎ±ÏĦÎµ": 2515,
      "Î»Î»Î±": 2516,
      "ÖģÕ¥Õ¶": 2517,
      "ÜĺÜ¬ÜŁÜĺÜ¢": 2518,
      "Ġá½ħÏĥÏĦÎ¹ÏĤ": 2519,
      "Ġá¼ĲÏĢÎ¯": 2520,
      "Õ¡Õ¶Õ¸Õ¶": 2521,
      "ÜĺÜĲÜ¬": 2522,
      "ÏĪÎ±": 2523,
      "ĠÜĲÜ¬Ü¬": 2524,
      "ĠÜĻÜĴ": 2525,
      "ĠÜłÜĺÜ¬ÜĿ": 2526,
      "ĠÕ«Õ¶": 2527,
      "ĠÏħá¼±Î¿á¿¦": 2528,
      "ÜĲÜĿÜ¬ÜĺÜĹÜĿ": 2529,
      "ĠÂ¹Â": 2530,
      "Ġá¼ĲÏĩÎ¸Ïģ": 2531,
      "Ġá¼ĶÎ¼ÏĢÏģÎ¿ÏĥÎ¸ÎµÎ½": 2532,
      "ĠÎ¸Î¬Î»Î±Ïĥ": 2533,
      "ĠÕ¡Õ¶": 2534,
      "ÎµÏĥÎ¸Î±Î¹": 2535,
      "ÏĥÎ¯Î±": 2536,
      "Ü¡Ü«ÜĲ": 2537,
      "ÜļÜ¬": 2538,
      "ĠÎ´ÎŃÎ½": 2539,
      "Ġá¼ĢÏĥ": 2540,
      "Î¿ÏħÏģÎ³": 2541,
      "ÏĩÎµÏĦÎ±Î¹": 2542,
      "ÏĨÎ±Î½": 2543,
      "ĠÏĥÎ·Î¼": 2544,
      "Î®ÏĥÎ±": 2545,
      "ÜĻÜª": 2546,
      "ĠÜ¢Ü«Ü¬": 2547,
      "Î²Î¿Î»": 2548,
      "ĠÎ»Îµ": 2549,
      "Ġá¼ĶÏģ": 2550,
      "ĠÎ¸Ïħ": 2551,
      "ĠÏĨÎ¸": 2552,
      "Î¶ÏīÎ½": 2553,
      "ÏģÎ¯Î±Î½": 2554,
      "Õ¯Õ«Õ¶": 2555,
      "ÏĦÎ·Ïģ": 2556,
      "Ü©ÜªÜĴÜĺ": 2557,
      "ÏĦÎŃÏģÎ±": 2558,
      "ĠÜķÜ©ÜĺÜķÜ«ÜĲ": 2559,
      "ĠÕ¾Õ½": 2560,
      "ĠÏĢÎ±Î¹Î´Î¯": 2561,
      "Ïģá¿¶": 2562,
      "ÏģÏĮÏĤ": 2563,
      "ÜĹÜ¢ÜĺÜ¢": 2564,
      "ÜĴÜ¡": 2565,
      "Î¼á½´": 2566,
      "ÏħÎº": 2567,
      "ĠÜłÜ¥ÜłÜ¡": 2568,
      "ĠÜĺÜ¢ÜĲ": 2569,
      "Î¸á¿Ĩ": 2570,
      "Ġá¼ĲÎ»ÎŃ": 2571,
      "ĠÜ¡ÜĹ": 2572,
      "Î¬ÏĦ": 2573,
      "ĠÜĴÜł": 2574,
      "ĠÜĴÜ©": 2575,
      "ĠÜĴÜĿÜķ": 2576,
      "Ü£Üĵ": 2577,
      "ĠÏĥÎµÎ»": 2578,
      "ÜĿÜ¬ÜĿÜª": 2579,
      "ĠÎ±á½ĲÏĦÎ®Î½": 2580,
      "ĠÜĹÜĺÜĿÜ¬ÜĺÜ¢": 2581,
      "ĠÜĿÜ¬ÜĿÜª": 2582,
      "Î¾Î±ÏĤ": 2583,
      "ĠÜļÜĽ": 2584,
      "ĠÎ¸á¿¦": 2585,
      "Î·ÏĥÎ±ÏĤ": 2586,
      "ĠÜ«ÜķÜª": 2587,
      "ĠÜ«Ü¥Ü¬ÜĲ": 2588,
      "ĠÜĲÜ¡Ü¬ÜĿ": 2589,
      "ĠÎ´Î¹ÎºÎ±": 2590,
      "ĠÎ´Î¹Î´Î¬ÏĥÎº": 2591,
      "Õ½Õ¯": 2592,
      "ÜªÜĿÜĺ": 2593,
      "ÖĢÕ¢": 2594,
      "ÖĢÕ¿": 2595,
      "ĠÜ£Ü¡": 2596,
      "á¾¶Î½": 2597,
      "ĠÜķÜ¢Ü¦": 2598,
      "ÎµÎ»á¿¶Î½": 2599,
      "ÏģÎ¯Î±ÏĤ": 2600,
      "ĠÏĢÎ±ÏģÎŃ": 2601,
      "á¼ĢÏĢá½¸": 2602,
      "Ġá½ĳÏĢÏĮ": 2603,
      "ĠÎ´ÎµÎ¾Î¹": 2604,
      "Î±á½ĲÏĦá¿·": 2605,
      "ÜĽÜĿÜĴ": 2606,
      "ĠÜŁÜłÜ¢Ü«": 2607,
      "Ġâģ´": 2608,
      "Î¿ÏĥÏĮ": 2609,
      "Ô¿": 2610,
      "ÏĦá¿Ĩ": 2611,
      "ÏĦá¿ĩ": 2612,
      "ÏĥÎ¯Î±ÏĤ": 2613,
      "ÜªÜĺÜ¢": 2614,
      "ĠÏĦÏĮÎ½": 2615,
      "ĠÜķÜ«ÜĴÜ¬ÜĲ": 2616,
      "Î¼ÎµÏģ": 2617,
      "ÜŁÜ£": 2618,
      "ĠÎºÏģ": 2619,
      "Î¯Î¿ÏħÏĤ": 2620,
      "Î¸Î¿Î½": 2621,
      "Î´Î·ÏĤ": 2622,
      "Î¿ÏħÎ¸": 2623,
      "Ü£ÜĿÜª": 2624,
      "Õ¡Õ£": 2625,
      "á½²ÏĤ": 2626,
      "ĠÎ±á½ĲÏĦÎ¿ÏįÏĤ": 2627,
      "ĠÜĿÜķ": 2628,
      "Î¾Î¹Î½": 2629,
      "Ü«ÜĺÜŁÜĲ": 2630,
      "ÜķÜ¡Ü¢": 2631,
      "ÜĿÜŁÜ¢ÜĲ": 2632,
      "Ġá½ħÏĦÎµ": 2633,
      "Ġá¼ĲÏĢÎ¿Î¯": 2634,
      "Ġá¼ĦÎ½Îµ": 2635,
      "ĠÏĢÎ±ÏģÎ±Î²": 2636,
      "ĠÜĻÜĴÜ¢": 2637,
      "ĠÎµá½ĲÎ»Î¿Î³": 2638,
      "Ġá¼ķÎ½Î±": 2639,
      "Î®ÏĥÎµÏīÏĤ": 2640,
      "Î·Î¸á½²Î½": 2641,
      "ĠÎºÎ±Î¸Î±Ïģ": 2642,
      "ÜªÜĴÜ¬ÜĲ": 2643,
      "ĠÏĢÎ±ÏĦÏģá½¸ÏĤ": 2644,
      "Ġá¼ĢÎ½Î¸ÏģÏİÏĢÏīÎ½": 2645,
      "ĠÏĥÏĢÎŃÏģ": 2646,
      "Õ«ÖĤÖĢ": 2647,
      "Ġá¼ģÎ¼Î±ÏģÏĦ": 2648,
      "ĠÎ´ÏħÎ½Î¬Î¼": 2649,
      "ĠÕ¡ÖĢ": 2650,
      "ĠÕ¡ÖĤ": 2651,
      "ķÏĦÎ·": 2652,
      "ÜĲÜĻ": 2653,
      "á½Ģ": 2654,
      "Î±ÏĥÏĦ": 2655,
      "ÜĿÜłÜĲ": 2656,
      "á¼´": 2657,
      "á¼ģ": 2658,
      "Îµá½¸": 2659,
      "Ü¡ÜĿ": 2660,
      "Ü¡Ü«ÜŁÜļ": 2661,
      "Ïģá½¶": 2662,
      "ÜķÜł": 2663,
      "ĠÜķÜĵ": 2664,
      "Î¼ÏĮ": 2665,
      "Î¼á¾¶ÏĤ": 2666,
      "ÎºÎ±Ïģ": 2667,
      "ÜĿÜ¢Ü«ÜĲ": 2668,
      "Ü¥Ü¬": 2669,
      "Ü¥ÜĴÜª": 2670,
      "ĠÜĺÜĴÜª": 2671,
      "ĠÜĺÜŁÜł": 2672,
      "ÜļÜłÜ¦": 2673,
      "ĠÎ´Ïħ": 2674,
      "Î¬Î²": 2675,
      "Ġá¼ĢÎ»Î·Î¸": 2676,
      "Ü©Üķ": 2677,
      "ĠÜĴÜ¦": 2678,
      "ÏĩÎ¿Î½": 2679,
      "ÏįÎ»": 2680,
      "ÜĿÜ¬ÜĿ": 2681,
      "ÜĻÜĴÜ¢ÜĲ": 2682,
      "ĠÎ³ÎŃÎ³": 2683,
      "ĠÜŁÜ¡ÜĲ": 2684,
      "ĠÜ«ÜłÜ¡": 2685,
      "ĠÜ¬Üļ": 2686,
      "Ü¡Ü¢Üĺ": 2687,
      "Ġá½ħÎ»Î¿Î½": 2688,
      "ĠÜ©Ü¡": 2689,
      "ĠÜ©ÜªÜĴ": 2690,
      "Õ¡Õ¶Õ§": 2691,
      "Õ¸ÖĤÖĢ": 2692,
      "ĠÎ²Î¿": 2693,
      "Î±Î»Î±": 2694,
      "á¼ĲÎ³": 2695,
      "ÜĺÜ¡Üª": 2696,
      "ÏĢÎ¿ÎºÏģÎ¹Î¸Îµá½¶ÏĤ": 2697,
      "ĠÕ¡Õ¼Õ¶": 2698,
      "Õ«Õ¶Õ¹": 2699,
      "ĠÏĢÎ¿Î»": 2700,
      "Ü¥ÜĿÜ¢ÜĲ": 2701,
      "ĠÜĴÜĿÜĺÜ¡ÜĲ": 2702,
      "Î·Î¼Î¹": 2703,
      "ĠÏĢá¾¶Î½": 2704,
      "Ġá¼ģÎ³Î¯Î¿Ïħ": 2705,
      "ĠÂ¹âģ": 2706,
      "ÎµÎ»Î¸á½¼Î½": 2707,
      "ĠÏĢÎ½Îµá¿¦Î¼Î±": 2708,
      "Ü£ÜªÜĲÜĿÜł": 2709,
      "ĠÏĦÎ±ÏįÏĦÎ·Î½": 2710,
      "Ġá½§Î´Îµ": 2711,
      "Î¼Î±ÏĦÎµá¿ĸÏĤ": 2712,
      "Î½ÎµÎ¹": 2713,
      "Î½ÏīÎ½": 2714,
      "á¼¢": 2715,
      "á¿¤á¿¥": 2716,
      "Ü¬Üł": 2717,
      "Ïģá¿·": 2718,
      "ÏĢÎ·": 2719,
      "ĠÏĦÎ¿ÏħÏĤ": 2720,
      "ÜĴÜ¬Üª": 2721,
      "ĠÜķÜĴÜĿ": 2722,
      "Î¼Î·Î½": 2723,
      "ÜŁÜĹ": 2724,
      "ĠÜłÜ©": 2725,
      "Ü¥Ü¢ÜĲ": 2726,
      "ĠÜĺÜ¡ÜĲ": 2727,
      "Î³ÏīÎ½": 2728,
      "ÏĦÎ±ÏĦÎ¿Î½": 2729,
      "ĠÎ¼Î¯Î±Î½": 2730,
      "Ü£ÜĹÜķ": 2731,
      "ĠÕª": 2732,
      "ÏĨÎŃÏģ": 2733,
      "ÜĵÜĺ": 2734,
      "ĠÎ³ÎµÎ³": 2735,
      "ÜķÜĲÜ¡": 2736,
      "ĠÎ´á½²Î½": 2737,
      "ĠÜĺÜĲÜļ": 2738,
      "ĠÜ¢ÜĹ": 2739,
      "ĠÜ¢ÜĴÜĿÜĲ": 2740,
      "Î²Î±Î»": 2741,
      "Î¾Î¿Î½": 2742,
      "ĠÎ¸Î½": 2743,
      "ĠÏĨá¿¶ÏĤ": 2744,
      "ÖĢÕ¯": 2745,
      "ĠÜķÜ¡ÜªÜ¢": 2746,
      "Õ¥Õ¼": 2747,
      "ĠÜ¦ÜĺÜ©": 2748,
      "ĠÜłÜ¡Ü¢ÜĲ": 2749,
      "Ġá¼°ÏĥÏĩ": 2750,
      "Õ¡ÖĢÕ±": 2751,
      "ÜķÜªÜ¢ÜĿ": 2752,
      "Î¿ÏģÎ´": 2753,
      "ĠÎłÎŃÏĦÏģ": 2754,
      "ĠÜ¢Ü¦Ü©": 2755,
      "ÜĵÜĿÜĲÜ¬ÜĲ": 2756,
      "Õ¡ÖģÕ¶": 2757,
      "ĠÎ±á¼°á¿¶Î½": 2758,
      "ĠÏĦÎ¯ÏĤ": 2759,
      "ĠÎ¿á½ĲÏģÎ±Î½Î¿á¿ĸÏĤ": 2760,
      "ÜĺÜĹÜªÜĲ": 2761,
      "ĠÎ¼Î±Î¸Î·ÏĦÎ±á¿ĸÏĤ": 2762,
      "ĠÏĢÏģÏĮÏĥÏī": 2763,
      "ĠÎºÏĮÏĥÎ¼Î¿Ïħ": 2764,
      "Î¸ÎŃÏīÏĤ": 2765,
      "ĠÏĢÏģá¿¶ÏĦÎ¿Î½": 2766,
      "Ê¼": 2767,
      "ÎĿ": 2768,
      "ÏĦá¿ĥ": 2769,
      "ĠÎĿ": 2770,
      "Ġá¼£": 2771,
      "ÏģÎµÎ¹": 2772,
      "ÏĢá½²Ïģ": 2773,
      "ÜķÜĴÜª": 2774,
      "ĠÏĦÎ¿Î¹ÏĤ": 2775,
      "ĠÜĲÜĿÜķÜĲ": 2776,
      "Ü«ÜªÜĲ": 2777,
      "ĠÜłÜ¬": 2778,
      "ÎºÏĮÎ½": 2779,
      "ĠÜĺÜ¨": 2780,
      "ĠÏĢÎµÎ¹": 2781,
      "ÎŃÏĨ": 2782,
      "Î´ÎµÎ¯": 2783,
      "Ü¦Ü¢ÜĿ": 2784,
      "á¿¶ÏĥÎ¹Î½": 2785,
      "Ü©ÜĴ": 2786,
      "ĠÜĴÜĹÜĺÜ¢": 2787,
      "Ü£ÜĹ": 2788,
      "Õ¡Õ®": 2789,
      "ĠÕ¹": 2790,
      "ĠÏĥÏĦÏģ": 2791,
      "ĠÏĥÎ¿ÏĨ": 2792,
      "ÜĿÜ¬Üĺ": 2793,
      "ĠÎ±á½ĲÏĦá¿ĩ": 2794,
      "ĠÜŁÜª": 2795,
      "Ü«ÜĲÜł": 2796,
      "Ġá½ĳÏĪ": 2797,
      "ĠÎ¸Î±Î½": 2798,
      "ĠÜ«ÜĺÜĴ": 2799,
      "ÏĥÏĦÏī": 2800,
      "ÖģÕ«Õ¶": 2801,
      "ĠÎ´Î¹ÎºÎ±Î¹": 2802,
      "ĠÏĨÎ±": 2803,
      "ĠÏĨÎ¿Î²": 2804,
      "Ġá½ħÏĢÎ¿Ïħ": 2805,
      "Õ§Õ½": 2806,
      "ĠÜªÜĿ": 2807,
      "ĠÜ¦Ü¢ÜĿ": 2808,
      "ĠÜ¦Ü¨ÜļÜĲ": 2809,
      "Ü«Ü¡Ü«Ü¢ÜĲ": 2810,
      "ÜĲÜ¢ÜĺÜ¬ÜĲ": 2811,
      "ÎŃÏģÏīÎ½": 2812,
      "á¿¦Ïģ": 2813,
      "Ġá¼°ÏĤ": 2814,
      "á½¼ÏĤ": 2815,
      "ĠÜķÜĴÜ¬Üª": 2816,
      "Î±ÏĦÎ¯": 2817,
      "ĠÜĽÜĴÜĲ": 2818,
      "ĠÎµá½ĲÎ¸": 2819,
      "ÜĽÜĿÜĴÜĺÜ¬ÜĲ": 2820,
      "ÏĥÏĦÎ±ÏĥÎ¹Î½": 2821,
      "ĠÎ³ÎµÎ½ÎŃ": 2822,
      "ĠÜ©ÜķÜ¡ÜĿÜĲ": 2823,
      "Õ¸ÖĢÕ´": 2824,
      "ĠÏĥÎºÎ¿": 2825,
      "ĠÏĥÎºÎ±Î½": 2826,
      "Ġâģµ": 2827,
      "ÜĽÜªÜĺÜ£": 2828,
      "ĠÜĴÜ¬ÜªÜĹ": 2829,
      "Ġá¼ĲÎºÎµá¿ĸÎ¸ÎµÎ½": 2830,
      "ĠÎ±á¼µ": 2831,
      "Ġá½ĦÏĩÎ»Î¿Î¹": 2832,
      "ĠÎ½ÎµÎºÏģ": 2833,
      "ÏħÎ½Î±á¿ĸ": 2834,
      "Î±Î»Î¹Î»Î±": 2835,
      "ĠÎ¦Î±ÏģÎ¹ÏĥÎ±á¿ĸÎ¿Î¹": 2836,
      "..": 2837,
      "Ô±": 2838,
      "ÕĪ": 2839,
      "ÜĲÜł": 2840,
      "ÜĲÜķÜĲ": 2841,
      "Î±Ïĩ": 2842,
      "ÜĿÜ¦": 2843,
      "ÏĥÎ·Î¼": 2844,
      "Ü¡Ü¥ÜĿÜ¢": 2845,
      "ĠÜķÜ¬ÜĲ": 2846,
      "ĠÎºÎ»": 2847,
      "ĠÎºÏģÎ¬": 2848,
      "ĠÎºÏįÏģÎ¹Î¿ÏĤ": 2849,
      "ĠÜłÜļÜķ": 2850,
      "ĠÜĺÜĿÜĹ": 2851,
      "Î¸á¿¶Î½": 2852,
      "Î¸Î®": 2853,
      "Î³á½°Ïģ": 2854,
      "ÌĩÜĨ": 2855,
      "Ü©Ü¦": 2856,
      "Õ¡Õ»": 2857,
      "Õ«ÖģÕ§": 2858,
      "ÜĻÜĴ": 2859,
      "ÜĻÜķÜ©": 2860,
      "Î²Î·": 2861,
      "ÎµÏģÏĩ": 2862,
      "ÖĤÖĢ": 2863,
      "ĠÜ¬ÜªÜĿÜ¢": 2864,
      "ĠÎ´Î¹Îµ": 2865,
      "ÜĺÜ¬ÜĹÜĺÜ¢": 2866,
      "ĠÏĨÎ·Ïĥ": 2867,
      "ĠÜ©ÜłÜĿÜł": 2868,
      "Ġá¼ĲÎºÎ²Î¬Î»Î»": 2869,
      "ĠÎ²Î»ÎŃÏĢ": 2870,
      "ÜĽÜłÜĿÜĲ": 2871,
      "ĠÜ¥ÜłÜ¡ÜĲ": 2872,
      "Î¸Î·ÏĦÎµ": 2873,
      "Î»Îµá½ºÏĤ": 2874,
      "á¼ĢÎ½Î±": 2875,
      "Î®ÏĥÎ±Î½": 2876,
      "ĠÜķÜļÜĻ": 2877,
      "Õ¡ÖĢÕ£": 2878,
      "Ġá½ĢÎ½ÏĮ": 2879,
      "ÏĥÏĦÎµÏģÎ¿Î½": 2880,
      "Î¯Î½Î¿Î½ÏĦÎ±Î¹": 2881,
      "Î®Î½Î·": 2882,
      "ÏĥÏĢÏĮ": 2883,
      "ÏĥÎ¿Î½ÏĦÎ±Î¹": 2884,
      "ĠÏĢÎ¿Î»Î»Î¿á½¶": 2885,
      "Ġá¼ĲÎ³ÎŃÎ½ÎµÏĦÎ¿": 2886,
      "ĠÜļÜĻÜĲ": 2887,
      "ĠÏĥÏħÎ½Îµ": 2888,
      "ĠÜĴÜŁÜłÜĹ": 2889,
      "ĠÜ¥ÜłÜĿÜŁÜĺÜ¢": 2890,
      "Õ¡Õ²Õ¸ÖĢÕ¤": 2891,
      "Ġá¼ĢÎ¼á½´Î½": 2892,
      "ÕĿ": 2893,
      "Õ¨Õ¶Õ¤": 2894,
      "Î½á½°": 2895,
      "ÏĦÏį": 2896,
      "ĠÎĳ": 2897,
      "á¼ķ": 2898,
      "Ü¬Ü¢ÜĲ": 2899,
      "ÏģÎ±Î¹": 2900,
      "ÜķÜļÜķ": 2901,
      "ĠÜķÜ¥ÜĴÜķ": 2902,
      "ĠÜĲÜĻÜł": 2903,
      "ÜŁÜ¬ÜĲ": 2904,
      "ÜŁÜ¦": 2905,
      "Ü«Üł": 2906,
      "ĠÎºÏģÎ¹": 2907,
      "ĠÜłÜ¦": 2908,
      "ĠÜłÜ¥ÜłÜ¡ÜĲ": 2909,
      "ĠÏĢá¿¦Ïģ": 2910,
      "ĠÜ¡ÜŁ": 2911,
      "ĠÜĹÜ¢Üĺ": 2912,
      "Î´Î¿Î¼": 2913,
      "Ġá¼ĢÏĥÎº": 2914,
      "Ü©ÜĽÜł": 2915,
      "ĠÜĴÜ¢ÜĿ": 2916,
      "ÏĩÎ±": 2917,
      "Ü£Üĺ": 2918,
      "ÏĨÎ±": 2919,
      "ÏĦÎ¹Î¿Î½": 2920,
      "ÜķÜĲÜ¬": 2921,
      "ĠÎ»Î¹": 2922,
      "Îµá¿ĸÎ±": 2923,
      "ÜĿÜłÜķ": 2924,
      "Ġá¼ĶÏĥÏĦÎ¹Î½": 2925,
      "ĠÜ¬ÜķÜļ": 2926,
      "Ġá¼ĢÏĢÏĮ": 2927,
      "ÏģÎ¹Î±": 2928,
      "ĠÏĨÎ±Î½": 2929,
      "ÜłÜĿÜ¬ÜĲ": 2930,
      "ÜªÜĿÜĹ": 2931,
      "ÏĪÎ±Î¹": 2932,
      "ÏĦÎ¿Î»": 2933,
      "ĠÏĩÏī": 2934,
      "Î¼ÎŃÎ½Î±": 2935,
      "Î¼ÎŃÎ½Î¿Ïħ": 2936,
      "Î¼ÎŃÎ½Î¿ÏħÏĤ": 2937,
      "ÜªÜĿÜ¢ÜĲ": 2938,
      "Î»Î±Îº": 2939,
      "Ü¬ÜĿÜĹÜĴ": 2940,
      "Ü¥ÜłÜķÜĴ": 2941,
      "ÜłÜŁÜĲ": 2942,
      "Ü¢ÜĿÜ¬ÜĲ": 2943,
      "Ġá¼ĳÎ±Ïħ": 2944,
      "ĠÜĴÜĿÜ«ÜĲ": 2945,
      "Ġá¼ĶÏĩÏīÎ½": 2946,
      "ĠÏĪÏħÏĩá½´Î½": 2947,
      "ĠÕ°ÖĢ": 2948,
      "ĠÎ³ÎµÎ½Îµ": 2949,
      "ÖħÕ©": 2950,
      "Ġâģ¶": 2951,
      "ĠÎ¿á¼°ÎºÎ¿": 2952,
      "ĠÏĥÏĭÎ½Î±": 2953,
      "Ġá½ĦÎ½Î¿Î¼Î±": 2954,
      "ĠÎµá¼°Ïĥá½¶": 2955,
      "ĠÎ»Î±Î¼ÏĢ": 2956,
      "Ġá¼ħÎ³": 2957,
      "Ġá¼ĲÎ»Î¸á½¼Î½": 2958,
      "ĠÎ³ÎŃÎ½Î·ÏĦÎ±Î¹": 2959,
      "Ü¦ÜĿÜ¢Ü¬ÜĲ": 2960,
      "Ġá¼¥Î»Î¹Î¿ÏĤ": 2961,
      "ĠÎ´ÎŃÎ½Î´": 2962,
      "Î¿ÏģÎ´Î¬Î½": 2963,
      "ÏĦÎ¿Ïį": 2964,
      "ÜĿÜ¡Ü¢": 2965,
      "á¼ĤÎ½": 2966,
      "Îµá½Ĳ": 2967,
      "Ġá¼Į": 2968,
      "Î»Ïī": 2969,
      "Î»Î±Î½": 2970,
      "ĠÜķÜķ": 2971,
      "Î¼ÎµÎ»": 2972,
      "ĠÎºÏħÏģÎ¯": 2973,
      "ĠÜłÜ¬ÜłÜ¡": 2974,
      "ÎºÏģÎ¯": 2975,
      "ĠÜĺÜ¦": 2976,
      "ĠÜĺÜłÜĿ": 2977,
      "ĠÜ¡Üĺ": 2978,
      "ĠÜ¡ÜĺÜ«ÜĲ": 2979,
      "Î¬ÏĦÎ¿Ïħ": 2980,
      "Î¿á¿¦Î¼ÎµÎ½": 2981,
      "Ġá¼ĢÏģÎµ": 2982,
      "Ü¦ÜŁ": 2983,
      "á¿¶Î¼ÎµÎ½": 2984,
      "ĠÜĴÜªÜĺÜļÜĲ": 2985,
      "ĠÎ¼Î¯Î±": 2986,
      "Ü£ÜĿÜ¡": 2987,
      "Õ¡Õ¼Õ¶": 2988,
      "ÏĨÎµÎ¹": 2989,
      "ĠÎ±á½ķÏĦÎ·": 2990,
      "Õ¶Õ¡": 2991,
      "ÜĽÜĺÜªÜĲ": 2992,
      "Î®Î½Îµ": 2993,
      "ĠÎ±á½ĲÏĦÎ¿á½¶": 2994,
      "ÜĵÜ¢": 2995,
      "ÏĥÎ¹Î±": 2996,
      "ĠÏĦÎ¿á¿¦ÏĦÎ¿Î½": 2997,
      "ĠÎ»Î¿Î¹": 2998,
      "Ġá¼ĶÎ¸": 2999
    },
    "merges": [
      [
        "Ġ",
        "Ü"
      ],
      [
        "Ü",
        "Ĳ"
      ],
      [
        "Î",
        "½"
      ],
      [
        "á",
        "½"
      ],
      [
        "Î",
        "±"
      ],
      [
        "Ï",
        "Ħ"
      ],
      [
        "Î",
        "¿"
      ],
      [
        "Ü",
        "¢"
      ],
      [
        "Ü",
        "Ŀ"
      ],
      [
        "Ü",
        "ĺ"
      ],
      [
        "Ġ",
        "Î"
      ],
      [
        "á",
        "¼"
      ],
      [
        "Î",
        "µ"
      ],
      [
        "Î",
        "¹"
      ],
      [
        "Ü",
        "ł"
      ],
      [
        "Ï",
        "Ĥ"
      ],
      [
        "á",
        "¿"
      ],
      [
        "Ġ",
        "á¼"
      ],
      [
        "Ï",
        "ĥ"
      ],
      [
        "Ü",
        "¡"
      ],
      [
        "Ü",
        "¬"
      ],
      [
        "Ï",
        "ģ"
      ],
      [
        "Ü",
        "ª"
      ],
      [
        "Ï",
        "Ģ"
      ],
      [
        "Ü",
        "Ĺ"
      ],
      [
        "Ü",
        "ķ"
      ],
      [
        "Ġ",
        "ÏĦ"
      ],
      [
        "Ü",
        "Ĵ"
      ],
      [
        "Î",
        "»"
      ],
      [
        "ĠÜ",
        "ķ"
      ],
      [
        "Î",
        "¼"
      ],
      [
        "ĠÜ",
        "Ĳ"
      ],
      [
        "Ü",
        "Ł"
      ],
      [
        "Ï",
        "ħ"
      ],
      [
        "Î±",
        "á½"
      ],
      [
        "Ü",
        "«"
      ],
      [
        "ĠÎ",
        "º"
      ],
      [
        "ĠÜ",
        "ł"
      ],
      [
        "Î",
        "º"
      ],
      [
        "ÜĿ",
        "Ü¢"
      ],
      [
        "Î",
        "·"
      ],
      [
        "Ü",
        "¥"
      ],
      [
        "Üĺ",
        "Ü¢"
      ],
      [
        "Ï",
        "ī"
      ],
      [
        "Ì",
        "Ī"
      ],
      [
        "Î",
        "¯"
      ],
      [
        "Ġ",
        "á½"
      ],
      [
        "ĠÜ",
        "ĺ"
      ],
      [
        "Ġ",
        "ÏĢ"
      ],
      [
        "Ü",
        "ļ"
      ],
      [
        "Î",
        "¸"
      ],
      [
        "Ġá¼",
        "Ĳ"
      ],
      [
        "Î",
        "Ń"
      ],
      [
        "Î¿",
        "á¿"
      ],
      [
        "Î±á½",
        "¶"
      ],
      [
        "ĠÜ",
        "¡"
      ],
      [
        "Î",
        "³"
      ],
      [
        "Ì",
        "ĩ"
      ],
      [
        "Õ",
        "¡"
      ],
      [
        "á½",
        "¸"
      ],
      [
        "ĠÜ",
        "Ĺ"
      ],
      [
        "Î¿",
        "Î½"
      ],
      [
        "ĠÎ",
        "´"
      ],
      [
        "Î",
        "¬"
      ],
      [
        "Ì",
        "£"
      ],
      [
        "Ï",
        "Į"
      ],
      [
        "Î",
        "´"
      ],
      [
        "Î¿á¿",
        "¦"
      ],
      [
        "Ġá¼",
        "Ģ"
      ],
      [
        "Î¿",
        "Ïħ"
      ],
      [
        "ĠÎº",
        "Î±á½¶"
      ],
      [
        "Ü¬",
        "ÜĲ"
      ],
      [
        "Ü",
        "¦"
      ],
      [
        "Ü¢",
        "ÜĲ"
      ],
      [
        "ÏĦ",
        "Î±"
      ],
      [
        "á¿",
        "¶"
      ],
      [
        "Ü",
        "©"
      ],
      [
        "ĠÜ",
        "Ĵ"
      ],
      [
        "Ï",
        "ĩ"
      ],
      [
        "ĠÎ",
        "¼"
      ],
      [
        "Üł",
        "ÜĲ"
      ],
      [
        "Ü",
        "£"
      ],
      [
        "Õ¡",
        "Õ"
      ],
      [
        "Ġ",
        "Õ"
      ],
      [
        "Ï",
        "Ĩ"
      ],
      [
        "ÏĦ",
        "Îµ"
      ],
      [
        "Ġ",
        "Ïĥ"
      ],
      [
        "á½",
        "°"
      ],
      [
        "Î¿",
        "á½"
      ],
      [
        "Ï",
        "į"
      ],
      [
        "ĠÎ",
        "µ"
      ],
      [
        "Î±",
        "Î½"
      ],
      [
        "á¿¶",
        "Î½"
      ],
      [
        "á½",
        "²"
      ],
      [
        "Îµ",
        "Î½"
      ],
      [
        "á½",
        "´"
      ],
      [
        "Ġ",
        "Î±á½"
      ],
      [
        "Îµ",
        "Î¹"
      ],
      [
        "Ĳ",
        "ÏĦ"
      ],
      [
        "Î¿",
        "ÏĤ"
      ],
      [
        "ÜĿ",
        "Ü¬"
      ],
      [
        "á¿",
        "ĸ"
      ],
      [
        "ÜĿ",
        "ÜĲ"
      ],
      [
        "Ïī",
        "Î½"
      ],
      [
        "Õ",
        "¶"
      ],
      [
        "Ü",
        "Ľ"
      ],
      [
        "Î",
        "®"
      ],
      [
        "á¿",
        "Ĩ"
      ],
      [
        "Î¿",
        "Î¹"
      ],
      [
        "ĠÎ±á½",
        "ĲÏĦ"
      ],
      [
        "Î±",
        "Î¹"
      ],
      [
        "ĠÜĹ",
        "Üĺ"
      ],
      [
        "Ö",
        "Ģ"
      ],
      [
        "ĠÜ",
        "¥"
      ],
      [
        "á",
        "¾"
      ],
      [
        "Ü",
        "ĵ"
      ],
      [
        "ĠÏĦ",
        "á½¸"
      ],
      [
        "Ü",
        "Ĩ"
      ],
      [
        "ĠÎµ",
        "á¼"
      ],
      [
        "Â",
        "·"
      ],
      [
        "Üł",
        "ÜĹ"
      ],
      [
        "Õ",
        "¸"
      ],
      [
        "Â",
        "¬"
      ],
      [
        "Ü¡",
        "ÜĲ"
      ],
      [
        "ÏĦ",
        "Î¹"
      ],
      [
        "Õ",
        "¥"
      ],
      [
        "Ïĥ",
        "Î¹"
      ],
      [
        "ĠÜł",
        "ÜĹ"
      ],
      [
        "Õ",
        "«"
      ],
      [
        "ÜĹ",
        "ÜĿ"
      ],
      [
        "Ü",
        "Ļ"
      ],
      [
        "Ġá½",
        "ģ"
      ],
      [
        "ĠÜĲ",
        "Ü¢"
      ],
      [
        "ĠÎ",
        "³"
      ],
      [
        "á½´",
        "Î½"
      ],
      [
        "Üķ",
        "ÜĲ"
      ],
      [
        "ĠÎ´",
        "á½²"
      ],
      [
        "ĠÜĺ",
        "ÜĲ"
      ],
      [
        "Üª",
        "ÜĲ"
      ],
      [
        "ĠÜ",
        "¢"
      ],
      [
        "Î",
        "²"
      ],
      [
        "Î±",
        "Ïģ"
      ],
      [
        "ĠÜ",
        "Ł"
      ],
      [
        "â",
        "Ģ"
      ],
      [
        "Ġ",
        "Î¿á½"
      ],
      [
        "ĠÜ",
        "Ŀ"
      ],
      [
        "ĠÏĦ",
        "Î¿á¿¦"
      ],
      [
        "ĠÜķ",
        "ÜĲ"
      ],
      [
        "ĠÜł",
        "ÜĲ"
      ],
      [
        "ÏĦÎ±",
        "Î¹"
      ],
      [
        "ĠÎ",
        "»"
      ],
      [
        "Îµ",
        "Ïģ"
      ],
      [
        "Î",
        "¾"
      ],
      [
        "Î±",
        "ÏĤ"
      ],
      [
        "ĠÏĢ",
        "Ïģ"
      ],
      [
        "ÜŁ",
        "ÜĺÜ¢"
      ],
      [
        "á¿Ĩ",
        "ÏĤ"
      ],
      [
        "Î¼",
        "Î±"
      ],
      [
        "ÜĹ",
        "Üĺ"
      ],
      [
        "á½",
        "¶"
      ],
      [
        "Îµ",
        "á¿ĸ"
      ],
      [
        "ĠÜķ",
        "ÜĿÜ¢"
      ],
      [
        "Ü«",
        "ÜĲ"
      ],
      [
        "ĠÜ",
        "ļ"
      ],
      [
        "Ï",
        "İ"
      ],
      [
        "ÜĿ",
        "Üł"
      ],
      [
        "Ġá¼Ĳ",
        "Î½"
      ],
      [
        "ĠÎµá¼",
        "°"
      ],
      [
        "Ü«",
        "Üĺ"
      ],
      [
        "Ġá½",
        "ĳ"
      ],
      [
        "Ġá¼",
        "Ķ"
      ],
      [
        "Üķ",
        "Ü¡"
      ],
      [
        "ÎŃ",
        "Î½"
      ],
      [
        "ĠÎ",
        "¸"
      ],
      [
        "Î·",
        "Ïĥ"
      ],
      [
        "ÜĿ",
        "Üª"
      ],
      [
        "Ö",
        "Ĥ"
      ],
      [
        "Ġá¼",
        "¡"
      ],
      [
        "ĠÎº",
        "Î±"
      ],
      [
        "ĠÜ¡",
        "Ü¢"
      ],
      [
        "ĠÜ",
        "«"
      ],
      [
        "á¿",
        "·"
      ],
      [
        "âĢ",
        "¤"
      ],
      [
        "Ïĥ",
        "ÏĦ"
      ],
      [
        "ĠÜ",
        "¬"
      ],
      [
        "Ġá¼Ģ",
        "ÏĢ"
      ],
      [
        "Î»",
        "Î»"
      ],
      [
        "Üł",
        "Ü¡"
      ],
      [
        "ĠÏĦ",
        "á½´Î½"
      ],
      [
        "Ü¡",
        "Ü¢"
      ],
      [
        "ĠÜĲ",
        "Ü¡"
      ],
      [
        "á¼",
        "±"
      ],
      [
        "Ö",
        "ģ"
      ],
      [
        "Üĺ",
        "ÜĹÜĿ"
      ],
      [
        "ĠÎ´",
        "Î¹"
      ],
      [
        "ÜĿ",
        "ÜŁ"
      ],
      [
        "Ġ",
        "Î¿"
      ],
      [
        "Ïģ",
        "Î¹"
      ],
      [
        "ĠÎ¿á½",
        "Ĳ"
      ],
      [
        "Î¼",
        "ÎµÎ½"
      ],
      [
        "ÜĴ",
        "ÜĲ"
      ],
      [
        "Î½",
        "Î±"
      ],
      [
        "Üļ",
        "ÜĲ"
      ],
      [
        "Õ",
        "½"
      ],
      [
        "ÏĮ",
        "Î½"
      ],
      [
        "Üĺ",
        "Ü¬"
      ],
      [
        "á½¸",
        "Î½"
      ],
      [
        "ĠÏĦ",
        "á¿¶Î½"
      ],
      [
        "Î¿á¿",
        "ĸ"
      ],
      [
        "Îµ",
        "Î¯"
      ],
      [
        "Ü",
        "Ģ"
      ],
      [
        "Î¿á½",
        "º"
      ],
      [
        "á½¸",
        "ÏĤ"
      ],
      [
        "Ü«Üĺ",
        "Ü¥"
      ],
      [
        "Ü",
        "¨"
      ],
      [
        "Ġ",
        "ÏĨ"
      ],
      [
        "Ïģ",
        "Î±"
      ],
      [
        "Ġá½",
        "ħ"
      ],
      [
        "ĠÏĦá½¸",
        "Î½"
      ],
      [
        "Î¿á¿ĸ",
        "ÏĤ"
      ],
      [
        "Ïī",
        "ÏĤ"
      ],
      [
        "Üł",
        "ÜĿ"
      ],
      [
        "ĠÜ",
        "©"
      ],
      [
        "ÜĴ",
        "Üª"
      ],
      [
        "ĠÜĲÜ¢",
        "Ü¬"
      ],
      [
        "Ġá¼Ĳ",
        "ÏĢ"
      ],
      [
        "ĠÜ",
        "ĵ"
      ],
      [
        "Î¿",
        "Ïį"
      ],
      [
        "Üķ",
        "ÜĿÜ¢"
      ],
      [
        "Õ¡Õ",
        "¶"
      ],
      [
        "Üª",
        "ÜĿ"
      ],
      [
        "Î",
        "¶"
      ],
      [
        "Ġá¼Ĳ",
        "Îº"
      ],
      [
        "ÖĢ",
        "Õ"
      ],
      [
        "ÎŃ",
        "Î³"
      ],
      [
        "ĠÏĦ",
        "á¿ĨÏĤ"
      ],
      [
        "Ïĥ",
        "Î¸"
      ],
      [
        "ÏĥÎ¹",
        "Î½"
      ],
      [
        "Üĺ",
        "Ü¬ÜĲ"
      ],
      [
        "Üĺ",
        "ÜĲ"
      ],
      [
        "Î¬",
        "Î½"
      ],
      [
        "ĠÏĦ",
        "á½°"
      ],
      [
        "ĠÎµá¼°",
        "ÏĤ"
      ],
      [
        "Î¿á½º",
        "ÏĤ"
      ],
      [
        "Ï",
        "Ī"
      ],
      [
        "Ïĥ",
        "Îµ"
      ],
      [
        "ĠÜĹÜĺ",
        "ÜĲ"
      ],
      [
        "Õ",
        "§"
      ],
      [
        "ĠÜĲ",
        "Ü¢ÜĲ"
      ],
      [
        "Ġ",
        "Î±"
      ],
      [
        "ĠÜ",
        "ª"
      ],
      [
        "Õ¸",
        "ÖĤ"
      ],
      [
        "ĠÎ",
        "²"
      ],
      [
        "ĠÜ",
        "£"
      ],
      [
        "Î½",
        "Îµ"
      ],
      [
        "á¾",
        "¶"
      ],
      [
        "Î±",
        "Î»"
      ],
      [
        "ĠÜķ",
        "Ü¡"
      ],
      [
        "Î·",
        "ÏĤ"
      ],
      [
        "ÜĹ",
        "ÜĺÜ¢"
      ],
      [
        "Ġá¼",
        "Ħ"
      ],
      [
        "Õ¥",
        "Õ"
      ],
      [
        "Î·",
        "Î½"
      ],
      [
        "ÏĦ",
        "Î¿"
      ],
      [
        "Üķ",
        "Ü¥"
      ],
      [
        "Ġ",
        "Â"
      ],
      [
        "Üĺ",
        "Üª"
      ],
      [
        "ÜłÜĹ",
        "ÜĲ"
      ],
      [
        "ÏĦÎµ",
        "ÏĤ"
      ],
      [
        "ĠÏĢÏģ",
        "Î¿"
      ],
      [
        "Ïĥ",
        "Î±"
      ],
      [
        "Î",
        "ĩ"
      ],
      [
        "ÏĦ",
        "Î¿ÏĤ"
      ],
      [
        "ĠÜĺÜĲ",
        "Ü¡"
      ],
      [
        "ĠÜ",
        "¦"
      ],
      [
        "Ü«",
        "Ü¡"
      ],
      [
        "Ġ",
        "Ïĩ"
      ],
      [
        "ĠÜķ",
        "Ü¢"
      ],
      [
        "Îµ",
        "Î»"
      ],
      [
        "Ü",
        "ĩ"
      ],
      [
        "Î¿Ïħ",
        "ÏĤ"
      ],
      [
        "ĠÎ¼",
        "Îµ"
      ],
      [
        "ÜĽ",
        "Üł"
      ],
      [
        "á¼",
        "°"
      ],
      [
        "Î¼",
        "ÎŃÎ½"
      ],
      [
        "Üķ",
        "ÜĿ"
      ],
      [
        "Üĺ",
        "ÜĴ"
      ],
      [
        "Ö",
        "ĩ"
      ],
      [
        "Ġ",
        "Î½"
      ],
      [
        "ĠÜĵ",
        "ÜĿÜª"
      ],
      [
        "Üł",
        "ÜĿÜ¢"
      ],
      [
        "ÜĲ",
        "Ü¢"
      ],
      [
        "Îº",
        "Î±"
      ],
      [
        "ĠÜĿ",
        "Ü«ÜĺÜ¥"
      ],
      [
        "Õ¸",
        "Õ"
      ],
      [
        "á¿",
        "ĩ"
      ],
      [
        "Î¹",
        "Î½"
      ],
      [
        "Ġá¼",
        "¸"
      ],
      [
        "ÏĦ",
        "ÏīÎ½"
      ],
      [
        "Üĺ",
        "Ü£"
      ],
      [
        "Üª",
        "ÜĿÜ¢"
      ],
      [
        "á¼",
        "Ĳ"
      ],
      [
        "Üĺ",
        "Ü¡"
      ],
      [
        "ÏĢ",
        "Î¿"
      ],
      [
        "Î»",
        "Î±"
      ],
      [
        "Ïģ",
        "Î¯"
      ],
      [
        "ÜĴ",
        "ÜĿ"
      ],
      [
        "á½°",
        "Ïģ"
      ],
      [
        "Ġá½ĳ",
        "Î¼"
      ],
      [
        "ĠÜ¥",
        "Üł"
      ],
      [
        "ĠÜł",
        "Ü¡"
      ],
      [
        "ĠÏĢ",
        "Î±Ïģ"
      ],
      [
        "ĠÏĥ",
        "Î¿Ïħ"
      ],
      [
        "Õ",
        "©"
      ],
      [
        "Ü",
        "¿"
      ],
      [
        "Ġá¼Ģ",
        "Î½"
      ],
      [
        "ĠÎ¿",
        "á¼±"
      ],
      [
        "ÎŃ",
        "Ïģ"
      ],
      [
        "Ö",
        "Ħ"
      ],
      [
        "Ü¬",
        "ÜĿ"
      ],
      [
        "Ü¬",
        "Üª"
      ],
      [
        "ĠÎµá¼",
        "¶"
      ],
      [
        "ÜĴ",
        "Üķ"
      ],
      [
        "Ü¥",
        "Üł"
      ],
      [
        "ĠÎ»",
        "ÎŃÎ³"
      ],
      [
        "ĠÎ³",
        "á½°Ïģ"
      ],
      [
        "Î¸",
        "Î·"
      ],
      [
        "ĠÜĲ",
        "ÜĿÜŁ"
      ],
      [
        "ĠÂ",
        "°"
      ],
      [
        "Î»",
        "Îµ"
      ],
      [
        "Üł",
        "ÜŁ"
      ],
      [
        "Ü«",
        "ÜĿ"
      ],
      [
        "Ü¢",
        "ÜĿ"
      ],
      [
        "Ü",
        "¼"
      ],
      [
        "Îº",
        "Î±á½¶"
      ],
      [
        "Ü¥",
        "ÜĲ"
      ],
      [
        "ÜĹÜĺ",
        "ÜĲ"
      ],
      [
        "ĠÜłÜĹ",
        "ÜĺÜ¢"
      ],
      [
        "ĠÏĦ",
        "á¿·"
      ],
      [
        "ĠÎ±á½ĲÏĦ",
        "Î¿á¿¦"
      ],
      [
        "Õ",
        "¯"
      ],
      [
        "Ġ",
        "Õ¡Õ"
      ],
      [
        "Õ«",
        "Õ¶"
      ],
      [
        "á¿",
        "¦"
      ],
      [
        "ĠÏĢ",
        "Î¿"
      ],
      [
        "ĠÜĺ",
        "ÜłÜĲ"
      ],
      [
        "á¼",
        "Ģ"
      ],
      [
        "ÏĦ",
        "á½°"
      ],
      [
        "á¾",
        "½"
      ],
      [
        "ÜĲ",
        "Ü¡"
      ],
      [
        "Ïĥ",
        "ÏĦÎ¹"
      ],
      [
        "Ġá¼¡",
        "Î¼"
      ],
      [
        "á½",
        "Ĳ"
      ],
      [
        "Üª",
        "Üĺ"
      ],
      [
        "ĠÜĺ",
        "Ü¡"
      ],
      [
        "Î®",
        "Ïĥ"
      ],
      [
        "ĠÜ",
        "Ģ"
      ],
      [
        "Ġá¼",
        "°"
      ],
      [
        "ĠÜŁ",
        "Üķ"
      ],
      [
        "Ïģ",
        "Îµ"
      ],
      [
        "Üĺ",
        "Üł"
      ],
      [
        "Î»",
        "Î¸"
      ],
      [
        "ĠÜł",
        "ÜĿ"
      ],
      [
        "á¾",
        "¿"
      ],
      [
        "Ġ",
        "Öĩ"
      ],
      [
        "Î¸",
        "Ïģ"
      ],
      [
        "ĠÜĲ",
        "Ü¬"
      ],
      [
        "Ïħ",
        "Î½"
      ],
      [
        "ĠÜĲÜ¢Ü¬",
        "ÜĺÜ¢"
      ],
      [
        "á½²",
        "Î½"
      ],
      [
        "ĠÜł",
        "ÜŁÜĺÜ¢"
      ],
      [
        "ÜŁ",
        "Üł"
      ],
      [
        "ĠÜĲ",
        "ÜĿÜ¬"
      ],
      [
        "á½",
        "¼"
      ],
      [
        "ĠÏĦ",
        "Î±"
      ],
      [
        "ĠÎ",
        "ļ"
      ],
      [
        "ĠÜķ",
        "ÜłÜĲ"
      ],
      [
        "Î¿Î¹",
        "ÏĤ"
      ],
      [
        "Î»",
        "Î·"
      ],
      [
        "ÏĦ",
        "Î·"
      ],
      [
        "Ü«",
        "Ü¬"
      ],
      [
        "Õ",
        "´"
      ],
      [
        "ĠÜĲ",
        "Ü¦"
      ],
      [
        "ÜŁ",
        "Üķ"
      ],
      [
        "Ü¢",
        "ÜĺÜ¢"
      ],
      [
        "ĠÏĦ",
        "Î¿á¿ĸÏĤ"
      ],
      [
        "ÏĦ",
        "Î¿Î½"
      ],
      [
        "ĠÜĲ",
        "ÜłÜĲ"
      ],
      [
        "Î¯",
        "Î±Î½"
      ],
      [
        "ÏĦ",
        "Î¿á¿¦"
      ],
      [
        "ĠÜĴ",
        "Üª"
      ],
      [
        "á¿",
        "ĥ"
      ],
      [
        "Ġá½ĳ",
        "ÏĢ"
      ],
      [
        "ÜŁ",
        "ÜĲ"
      ],
      [
        "ĠÜ",
        "Ļ"
      ],
      [
        "Ü¬",
        "ÜĺÜ¢"
      ],
      [
        "Î¯",
        "Î±ÏĤ"
      ],
      [
        "Õ¡",
        "ÖĢ"
      ],
      [
        "ÜłÜĹ",
        "ÜĺÜ¢"
      ],
      [
        "ÜĿ",
        "Üķ"
      ],
      [
        "á¿",
        "³"
      ],
      [
        "Ü«",
        "ÜŁ"
      ],
      [
        "Ïģ",
        "Î¿Î½"
      ],
      [
        "ĠÜķ",
        "ÜĿ"
      ],
      [
        "ĠÏĦ",
        "Î¿á½ºÏĤ"
      ],
      [
        "Ïĥ",
        "Î±Î½"
      ],
      [
        "ÜĴ",
        "Üĺ"
      ],
      [
        "Ïĥ",
        "Îº"
      ],
      [
        "Ïģ",
        "Î¿"
      ],
      [
        "ĠÜķ",
        "Üļ"
      ],
      [
        "Ġá¼ĢÏĢ",
        "á½¸"
      ],
      [
        "Ï",
        "Ĭ"
      ],
      [
        "ĠÜĹÜĺ",
        "Üĺ"
      ],
      [
        "ĠÜ¥",
        "Ü¡"
      ],
      [
        "ÜĿ",
        "Ü¡"
      ],
      [
        "Ġá¼Ĳ",
        "Î¾"
      ],
      [
        "ĠÎ¼",
        "á½´"
      ],
      [
        "á¿ĸ",
        "Î½"
      ],
      [
        "ÏĮ",
        "ÏĤ"
      ],
      [
        "Ü",
        "ı"
      ],
      [
        "Ġá½ħ",
        "ÏĦÎ¹"
      ],
      [
        "ĠÎ±á½ĲÏĦ",
        "á¿·"
      ],
      [
        "ĠÜķ",
        "ÜĴ"
      ],
      [
        "ÜŁ",
        "ÜĿÜł"
      ],
      [
        "Î±",
        "ÏĦ"
      ],
      [
        "Ġá¼ĢÏĢ",
        "Î¿"
      ],
      [
        "Î¯",
        "Î±"
      ],
      [
        "Õ¡",
        "ÖĢÕ"
      ],
      [
        "Õ",
        "¿"
      ],
      [
        "Üł",
        "Üĺ"
      ],
      [
        "Î´",
        "Îµ"
      ],
      [
        "Ü¬",
        "ÜĹ"
      ],
      [
        "Ü¢",
        "Ü¢"
      ],
      [
        "Îµá¿ĸ",
        "Î½"
      ],
      [
        "ÏĮ",
        "Î¼ÎµÎ½"
      ],
      [
        "Ġá½",
        "Ģ"
      ],
      [
        "Ġ",
        "Ïħ"
      ],
      [
        "Î¸",
        "Îµ"
      ],
      [
        "ĠÜ",
        "Ľ"
      ],
      [
        "Ü¦",
        "ÜĲ"
      ],
      [
        "Ü¥",
        "Ü¡"
      ],
      [
        "á¿ĸ",
        "ÏĤ"
      ],
      [
        "ĠÜł",
        "ÜĺÜ¬"
      ],
      [
        "Î³",
        "Î±"
      ],
      [
        "ĠÕ",
        "¦"
      ],
      [
        "Ïģ",
        "Î±Î½"
      ],
      [
        "Ö",
        "ī"
      ],
      [
        "Ġá½",
        "Ħ"
      ],
      [
        "Î´",
        "Î¹"
      ],
      [
        "Ü¥",
        "ÜĿÜ¢"
      ],
      [
        "Ġá¼Ĳ",
        "Î³"
      ],
      [
        "ĠÜ¡",
        "ÜĽÜł"
      ],
      [
        "Ïĥ",
        "Î±Î¹"
      ],
      [
        "Î·Ïĥ",
        "Î¿á¿¦"
      ],
      [
        "ÜĿÜł",
        "ÜĿÜ¢"
      ],
      [
        "Ġá¼",
        "ĳ"
      ],
      [
        "Ġá¼",
        "ģ"
      ],
      [
        "Üļ",
        "Üª"
      ],
      [
        "Ïĥ",
        "Î¼"
      ],
      [
        "Õ¥Õ",
        "¬"
      ],
      [
        "ĠÕ",
        "«"
      ],
      [
        "á¾¶",
        "ÏĤ"
      ],
      [
        ":",
        "-"
      ],
      [
        "ĠÎ¼",
        "á½²Î½"
      ],
      [
        "ĠÏĢ",
        "ÎµÏģ"
      ],
      [
        "ÎŃ",
        "Î»"
      ],
      [
        "Î¿á½",
        "¶"
      ],
      [
        "ÏĮ",
        "ÏĦÎµ"
      ],
      [
        "Üĺ",
        "Üķ"
      ],
      [
        "Ïħ",
        "Ïĩ"
      ],
      [
        "Ü¢",
        "Ü«ÜĲ"
      ],
      [
        "ÏĦ",
        "Ïī"
      ],
      [
        "á¿¶",
        "ÏĤ"
      ],
      [
        "ĠÏĦ",
        "á¿ĩ"
      ],
      [
        "ĠÜĹ",
        "ÜĿ"
      ],
      [
        "Ġá¼Ģ",
        "Î»Î»"
      ],
      [
        "Î¿",
        "Î¼"
      ],
      [
        "Ġá¼",
        "¢"
      ],
      [
        "Ü«ÜĿ",
        "ÜļÜĲ"
      ],
      [
        "Õ",
        "¤"
      ],
      [
        "ÎµÎ¹",
        "Î½"
      ],
      [
        "ĠÎ²",
        "Î±"
      ],
      [
        "Ġ",
        "ÏĪ"
      ],
      [
        "Üķ",
        "Ü¢"
      ],
      [
        "Ü¡",
        "Üª"
      ],
      [
        "ÏĢ",
        "Îµ"
      ],
      [
        "Ġá¼ĲÏĢ",
        "á½¶"
      ],
      [
        "Ïĥ",
        "ÏĦÎµ"
      ],
      [
        "Î¿",
        "Î»"
      ],
      [
        "Î½",
        "Î±Î¹"
      ],
      [
        "Üķ",
        "Üª"
      ],
      [
        "Ġá½",
        "¡"
      ],
      [
        "Ġá¼¸",
        "Î·ÏĥÎ¿á¿¦"
      ],
      [
        "ÏĦ",
        "Î¿Ïħ"
      ],
      [
        "ĠÜĺ",
        "Ü¢"
      ],
      [
        "á½",
        "º"
      ],
      [
        "Î¿",
        "Ïģ"
      ],
      [
        "ĠÜł",
        "ÜŁ"
      ],
      [
        "âĢ",
        "Ļ"
      ],
      [
        "ĠÎ",
        "ł"
      ],
      [
        "ĠÎº",
        "Î±Î¹"
      ],
      [
        "Üĺ",
        "Üļ"
      ],
      [
        "Î´",
        "Î±"
      ],
      [
        "Üł",
        "Ü¬ÜĲ"
      ],
      [
        "ĠÜĴ",
        "ÜĿ"
      ],
      [
        "ĠÎ¼",
        "Î±"
      ],
      [
        "Õ¸ÖĤ",
        "Õ©"
      ],
      [
        "Ïģ",
        "Ïĩ"
      ],
      [
        "ÜĴ",
        "Ü¢"
      ],
      [
        "ÜĴ",
        "ÜªÜĲ"
      ],
      [
        "ĠÏĢ",
        "Î¬Î½"
      ],
      [
        "ĠÜĴ",
        "ÜĹ"
      ],
      [
        "Â",
        "ł"
      ],
      [
        "ÜĿ",
        "ÜĹ"
      ],
      [
        "Ü«",
        "ÜĴ"
      ],
      [
        "ĠÎ´",
        "Îµ"
      ],
      [
        "ĠÎµ",
        "á½Ĳ"
      ],
      [
        "Î»",
        "ÎŃ"
      ],
      [
        "Î¯",
        "Î½"
      ],
      [
        "Î®",
        "Î½"
      ],
      [
        "ÏĦ",
        "á¿¶Î½"
      ],
      [
        "Ïħ",
        "Î¼"
      ],
      [
        "Ü©",
        "Üª"
      ],
      [
        "Î",
        "¤"
      ],
      [
        "ĠÎ¼",
        "Î¿Ïħ"
      ],
      [
        "ÎµÎ¹",
        "ÏĤ"
      ],
      [
        "Îµ",
        "ÏĦÎ±Î¹"
      ],
      [
        "Ü«",
        "ÜłÜ¡"
      ],
      [
        "ĠÜ¢",
        "Ü¦"
      ],
      [
        "Üļ",
        "ÜĻ"
      ],
      [
        "ĠÜļ",
        "Üķ"
      ],
      [
        "á½¼",
        "Î½"
      ],
      [
        "Üł",
        "Üł"
      ],
      [
        "á½°",
        "Î½"
      ],
      [
        "ĠÎ¸",
        "Îµ"
      ],
      [
        "ĠÎ¿á½Ĳ",
        "Îº"
      ],
      [
        "Üĺ",
        "Ü¡ÜĲ"
      ],
      [
        "á½¶",
        "ÏĤ"
      ],
      [
        "Üł",
        "Ü¦"
      ],
      [
        "á¿",
        "¥"
      ],
      [
        "ĠÎ´Î¹",
        "á½°"
      ],
      [
        "ĠÕ",
        "´"
      ],
      [
        "ĠÜĹ",
        "Ü¢ÜĲ"
      ],
      [
        "Ü¦",
        "Üª"
      ],
      [
        "Üł",
        "Ü¡ÜĲ"
      ],
      [
        "ÜĴ",
        "ÜĿÜ¢"
      ],
      [
        "Î»",
        "Î¹"
      ],
      [
        "Î±á½",
        "ĲÏĦ"
      ],
      [
        "Ġá¼Ķ",
        "Ïĩ"
      ],
      [
        "ĠÏħ",
        "á¼±"
      ],
      [
        "Üļ",
        "Üķ"
      ],
      [
        "Ïħ",
        "ÏĦ"
      ],
      [
        "ĠÎļ",
        "Î±á½¶"
      ],
      [
        "Ġá¼",
        "ķ"
      ],
      [
        "Î¿Î½",
        "ÏĦÎµÏĤ"
      ],
      [
        "ÜĽ",
        "ÜĿ"
      ],
      [
        "ÏĮ",
        "Î³"
      ],
      [
        "Õ¡Õ",
        "´"
      ],
      [
        "Õ¡Õ",
        "µ"
      ],
      [
        "ĠÜ",
        "¨"
      ],
      [
        "Î¼",
        "Îµ"
      ],
      [
        "ĠÜ«",
        "Ü¡"
      ],
      [
        "ÏĦ",
        "Î¯"
      ],
      [
        "ĠÏĢ",
        "Î¿Î¹"
      ],
      [
        "Õ",
        "¢"
      ],
      [
        "Ü",
        "ī"
      ],
      [
        "ĠÜĺ",
        "ÜĴ"
      ],
      [
        "Ġá¼Ģ",
        "Î½Î±"
      ],
      [
        "Ïĥ",
        "Ïī"
      ],
      [
        "ÏĦÎ±",
        "ÏĤ"
      ],
      [
        "ĠÕ",
        "¸"
      ],
      [
        "ĠÎ",
        "¤"
      ],
      [
        "ĠÜķÜĲ",
        "ÜłÜĹÜĲ"
      ],
      [
        "Ï",
        "ĭ"
      ],
      [
        "Î·",
        "Î¼"
      ],
      [
        "Ġá½¡",
        "ÏĤ"
      ],
      [
        "ÜĹÜĿ",
        "Ü¡Ü¢"
      ],
      [
        "Ü¬",
        "Ü¬"
      ],
      [
        "ĠÎ±á½",
        "ĳ"
      ],
      [
        "Î¹",
        "Îº"
      ],
      [
        "Î¬",
        "Î»"
      ],
      [
        "Î´",
        "á½²"
      ],
      [
        "Ïĥ",
        "ÏĢ"
      ],
      [
        "ĠÎ±á½ĲÏĦ",
        "Î¿á¿ĸÏĤ"
      ],
      [
        "Î¿",
        "Î³"
      ],
      [
        "ÏĥÎ¸",
        "Î±Î¹"
      ],
      [
        "Üļ",
        "ÜĿ"
      ],
      [
        "Ġá¼¸Î·ÏĥÎ¿á¿¦",
        "ÏĤ"
      ],
      [
        "Ü¢",
        "Üĺ"
      ],
      [
        "ÜĴ",
        "ÜĹ"
      ],
      [
        "ĠÎ",
        "¶"
      ],
      [
        "ÜŁ",
        "Ü¢ÜĲ"
      ],
      [
        "ĠÎ¿á½",
        "ĸ"
      ],
      [
        "Ü¥",
        "ÜĴÜķ"
      ],
      [
        "ĠÎ±á½ĲÏĦ",
        "á¿¶Î½"
      ],
      [
        "Ġá½ĳÎ¼",
        "á¿ĸÎ½"
      ],
      [
        "ÏĦ",
        "Î¬"
      ],
      [
        "Üĵ",
        "ÜĿÜĲ"
      ],
      [
        "Üĺ",
        "Ü©"
      ],
      [
        "Üķ",
        "Ü¡ÜĲ"
      ],
      [
        "Î¼",
        "ÏĢ"
      ],
      [
        "ĠÜĹ",
        "ÜłÜĿÜ¢"
      ],
      [
        "ÏĥÏĦÎ¹",
        "Î½"
      ],
      [
        "Ü«ÜŁ",
        "Üļ"
      ],
      [
        "ÏĦ",
        "ÎŃ"
      ],
      [
        "ĠÏĢ",
        "Î»"
      ],
      [
        "Ġ",
        "."
      ],
      [
        "ÏĦÎ±",
        "Î½"
      ],
      [
        "ĠÕ",
        "¯"
      ],
      [
        "ĠÏĢÏģ",
        "á½¸ÏĤ"
      ],
      [
        "Õ¡",
        "Öģ"
      ],
      [
        "â",
        "ģ"
      ],
      [
        "Ïĥ",
        "Î¿Î½"
      ],
      [
        "ĠÜĲ",
        "Üĺ"
      ],
      [
        "Üĵ",
        "ÜĿÜª"
      ],
      [
        "ÜŁ",
        "Üª"
      ],
      [
        "ĠÜĴ",
        "ÜĲ"
      ],
      [
        "ĠÏĪ",
        "ÏħÏĩ"
      ],
      [
        "Õ",
        "º"
      ],
      [
        "Õ",
        "Ń"
      ],
      [
        "ÜĿÜ¢",
        "ÜĲ"
      ],
      [
        "Î¸",
        "ÎµÎ½"
      ],
      [
        "ĠÎ±á½ĲÏĦ",
        "á½¸Î½"
      ],
      [
        "Õ¸Õ",
        "µ"
      ],
      [
        "ĠÎµá¼¶",
        "ÏĢ"
      ],
      [
        "Õ",
        "¦"
      ],
      [
        "Îµá¿ĸ",
        "ÏĤ"
      ],
      [
        "Õ¡",
        "ÖĤ"
      ],
      [
        "ĠÜŁ",
        "Üł"
      ],
      [
        "ĠÎ²Î±",
        "ÏĥÎ¹"
      ],
      [
        "Ïĥ",
        "ÏĦÎ±"
      ],
      [
        "ĠÏĦ",
        "Î¹"
      ],
      [
        "Î®",
        "ÏĥÎµ"
      ],
      [
        "ĠÜĲÜ¢",
        "Ü«"
      ],
      [
        "Ïİ",
        "ÏĢ"
      ],
      [
        "á½",
        "ĳ"
      ],
      [
        "ĠÜķ",
        "Ü©"
      ],
      [
        "Üł",
        "Üļ"
      ],
      [
        "ĠÎ¿á½ĸ",
        "Î½"
      ],
      [
        "Î±",
        "Îº"
      ],
      [
        "ĠÜĺ",
        "ÜŁÜķ"
      ],
      [
        "á¾",
        "³"
      ],
      [
        "Ġá¼°",
        "Î´"
      ],
      [
        "ÜĲ",
        "Ü¢ÜĲ"
      ],
      [
        "ĠÎ´",
        "Ïį"
      ],
      [
        "ĠÎºÎ±",
        "ÏĦÎ±"
      ],
      [
        "ĠÜł",
        "Ü¢"
      ],
      [
        "Ü£",
        "Üª"
      ],
      [
        "Ïį",
        "ÏģÎ¹"
      ],
      [
        "Î¿",
        "Î¯"
      ],
      [
        "Ġá¼",
        "¦"
      ],
      [
        "Ġá¼Ģ",
        "Îº"
      ],
      [
        "Î±",
        "Î²"
      ],
      [
        "ĠÏĦá½°",
        "ÏĤ"
      ],
      [
        "Ü¬",
        "ÜĴ"
      ],
      [
        "Ü«",
        "Ü¬ÜĲ"
      ],
      [
        "Ġá¼Ĳ",
        "ÏĥÏĦ"
      ],
      [
        "Î·",
        "Ïģ"
      ],
      [
        "Õ¥",
        "Õ½"
      ],
      [
        "ĠÎ¿",
        "á¼"
      ],
      [
        "Ġ",
        "á¿¥"
      ],
      [
        "Üķ",
        "ÜĴ"
      ],
      [
        "ÜĹ",
        "Ü¢ÜĲ"
      ],
      [
        "Î±",
        "Î³"
      ],
      [
        "ĠÜ¡",
        "ÜķÜ¡"
      ],
      [
        "Î»",
        "ÎµÎ¯"
      ],
      [
        "ÜĺÜ¬",
        "ÜĹ"
      ],
      [
        "Üª",
        "Ü¥ÜĲ"
      ],
      [
        "ĠÜķ",
        "Ü¥"
      ],
      [
        "Î·",
        "Î¸"
      ],
      [
        "ĠÜĲÜ¢",
        "ÜĺÜ¢"
      ],
      [
        "Ġá¼Ħ",
        "Î½"
      ],
      [
        "Î",
        "ļ"
      ],
      [
        "ÏĦ",
        "Ïģ"
      ],
      [
        "Ü¦",
        "Ü©"
      ],
      [
        "Ü¢",
        "Ü«"
      ],
      [
        "ĠÜĹ",
        "ÜŁÜĿÜł"
      ],
      [
        "Î¬",
        "Î³"
      ],
      [
        "Î·Ïĥ",
        "Î±Î½"
      ],
      [
        "ĠÎ±",
        "á¼°"
      ],
      [
        "ĠÜĲÜĿÜŁ",
        "Ü¢ÜĲ"
      ],
      [
        "Î¿á¿¦",
        "Î½"
      ],
      [
        "ÜĺÜĲ",
        "Ü¡"
      ],
      [
        "Ïī",
        "Ïģ"
      ],
      [
        "Ġá¼ĲÏĢ",
        "Î¹"
      ],
      [
        "ĠÏĢÎ¿",
        "Î»Î»"
      ],
      [
        "Î¬",
        "Ïĥ"
      ],
      [
        "Î¯",
        "Î¿Ïħ"
      ],
      [
        "ĠÕ",
        "º"
      ],
      [
        "ĠÏĢÏģÎ¿",
        "Ïĥ"
      ],
      [
        "ÜĲ",
        "ÜĿÜ¬"
      ],
      [
        "ĠÕ",
        "¥"
      ],
      [
        "Î",
        "ĳ"
      ],
      [
        "Îµ",
        "ÏĦÎµ"
      ],
      [
        "ĠÏĦ",
        "Î¯"
      ],
      [
        "Õ¡Õ",
        "¬"
      ],
      [
        "ĠÕ",
        "°"
      ],
      [
        "Ġá½",
        "ī"
      ],
      [
        "ĠÎ³",
        "ÎµÎ½"
      ],
      [
        "Üª",
        "ÜĿÜĲ"
      ],
      [
        "ĠÜķ",
        "Ü¬"
      ],
      [
        "Õ¡Õ",
        "¿"
      ],
      [
        "Î¸Ïģ",
        "ÏİÏĢ"
      ],
      [
        "ÜĲ",
        "ÜĿÜŁ"
      ],
      [
        "Î¼",
        "Î¬"
      ],
      [
        "ĠÜĲ",
        "ÜłÜĹÜĲ"
      ],
      [
        "Ġá½",
        "ķ"
      ],
      [
        "Õ",
        "°"
      ],
      [
        "Ġá½",
        "ĥ"
      ],
      [
        "ĠÜĹ",
        "ÜķÜĲ"
      ],
      [
        "Öģ",
        "Õ§"
      ],
      [
        "Õ",
        "²"
      ],
      [
        "Ö",
        "ħ"
      ],
      [
        "ĠÎ",
        "ľ"
      ],
      [
        "Õ¥",
        "Õ¶"
      ],
      [
        "Â",
        "°"
      ],
      [
        "ÜĿ",
        "Ü¬ÜĲ"
      ],
      [
        "Ïħ",
        "Ïģ"
      ],
      [
        "Ü£",
        "ÜĲ"
      ],
      [
        "Ġá½ĳÎ¼",
        "á¿¶Î½"
      ],
      [
        "ĠÜ©",
        "ÜķÜ¡"
      ],
      [
        "Î¿",
        "Î¼ÎŃÎ½"
      ],
      [
        "ĠÎ",
        "Ł"
      ],
      [
        "ĠÜķ",
        "Üł"
      ],
      [
        "Õ¸",
        "ÖĢÕ"
      ],
      [
        "Î¼Î±",
        "ÏĦÎ±"
      ],
      [
        "Î·Ïĥ",
        "Îµ"
      ],
      [
        "ĠÎºÎ±",
        "Î¸"
      ],
      [
        "Õ",
        "£"
      ],
      [
        "Üĺ",
        "ÜłÜĲ"
      ],
      [
        "ĠÎ»",
        "ÏĮÎ³"
      ],
      [
        "ĠÎºÎ±",
        "ÏĦá½°"
      ],
      [
        "Ïħ",
        "Î³"
      ],
      [
        "Î±",
        "Î¯"
      ],
      [
        "ÏĦ",
        "Î¿Î¹"
      ],
      [
        "ĠÏĢ",
        "ÏĮ"
      ],
      [
        "ĠÜĺÜĲ",
        "Ü¢"
      ],
      [
        "ĠÎ¿á½Ĳ",
        "ÏģÎ±Î½"
      ],
      [
        "ĠÜĺ",
        "ÜĹ"
      ],
      [
        "ĠÏĢ",
        "á¾¶"
      ],
      [
        "Ìĩ",
        "."
      ],
      [
        "Î¿Ïħ",
        "ÏĥÎ¹Î½"
      ],
      [
        "Üª",
        "ÜĴ"
      ],
      [
        "Üķ",
        "Ü©"
      ],
      [
        "ÜĿ",
        "Ü«ÜĺÜ¥"
      ],
      [
        "Ġá¼",
        "±"
      ],
      [
        "Î¹",
        "Î»"
      ],
      [
        "ÜĴÜª",
        "ÜĹ"
      ],
      [
        "Üķ",
        "Üļ"
      ],
      [
        "Î¬",
        "Î¼"
      ],
      [
        "Ü£",
        "ÜĿ"
      ],
      [
        "Üª",
        "Ü¢"
      ],
      [
        "ÜĿÜ¢",
        "Ü¢"
      ],
      [
        "ĠÏĢ",
        "Î±Î½"
      ],
      [
        "Ġá¼Ĳ",
        "Î¼"
      ],
      [
        "ĠÎ´",
        "ÎŃ"
      ],
      [
        "ĠÜĴ",
        "Ü¡"
      ],
      [
        "Î¸Îµ",
        "á½¶ÏĤ"
      ],
      [
        "ÜĵÜĿÜĲ",
        "ÜĲ"
      ],
      [
        "Üķ",
        "ÜłÜĲ"
      ],
      [
        "Î¬",
        "Ïģ"
      ],
      [
        "ÜĻ",
        "Üł"
      ],
      [
        "Üĺ",
        "ÜĹ"
      ],
      [
        "Î´",
        "Î¯"
      ],
      [
        "Ü¬",
        "Üļ"
      ],
      [
        "ĠÜķ",
        "ÜĹ"
      ],
      [
        "Ġá½",
        "¥"
      ],
      [
        "ĠÏĥ",
        "Îº"
      ],
      [
        "¨",
        "Õ¶"
      ],
      [
        "Ïģ",
        "Î³"
      ],
      [
        "ĠÕ",
        "µ"
      ],
      [
        "Î¸Ïģ",
        "Ïī"
      ],
      [
        "Ĥ",
        "Î½"
      ],
      [
        "Îµ",
        "Ïĥ"
      ],
      [
        "Ü¥",
        "ÜĺÜ¢"
      ],
      [
        "ĠÜĴ",
        "Ü¢"
      ],
      [
        "ÏĨ",
        "Î¸"
      ],
      [
        "ĠÎ±á½ĳ",
        "ÏĦÎ¿á¿¦"
      ],
      [
        "ÜĲ",
        "ÜłÜĲ"
      ],
      [
        "Ġá¼",
        "ł"
      ],
      [
        "Ġá¼Ģ",
        "Î³"
      ],
      [
        "Ü©",
        "Üĺ"
      ],
      [
        "Õ",
        "¬"
      ],
      [
        "Ü«",
        "ÜĹ"
      ],
      [
        "Ü©",
        "ÜĲ"
      ],
      [
        "á¼°",
        "Îº"
      ],
      [
        "Îº",
        "ÏģÎ¹"
      ],
      [
        "ÏĥÎ¹",
        "ÏĤ"
      ],
      [
        "Ġá½ĳ",
        "ÏĢÎ¿"
      ],
      [
        "Ü«Ü¡",
        "ÜĿÜĲ"
      ],
      [
        "ĠÎµá¼¶ÏĢ",
        "ÎµÎ½"
      ],
      [
        "Â",
        "´"
      ],
      [
        "Üķ",
        "Üĺ"
      ],
      [
        "Î¿Î½",
        "ÏĦÎ±Î¹"
      ],
      [
        "ĠÎ¼Î±",
        "Î¸Î·"
      ],
      [
        "Ïħ",
        "Ïĥ"
      ],
      [
        "Ïį",
        "Î½"
      ],
      [
        "ÜĲÜ¢",
        "Ü¬ÜĺÜ¢"
      ],
      [
        "á½",
        "ģ"
      ],
      [
        "ÜĿ",
        "ÜĹÜĺÜ¢"
      ],
      [
        "ÜĴ",
        "ÜĿÜ¬"
      ],
      [
        "ĠÜķÜĲ",
        "ÜĿÜ¬"
      ],
      [
        "ÏĥÎ¸",
        "Îµ"
      ],
      [
        "Ïģ",
        "Î¬"
      ],
      [
        "ĠÏĦ",
        "Î¿Ïį"
      ],
      [
        "Î¼Î±",
        "ÏĦÎ¹"
      ],
      [
        "Ġá¼ģ",
        "Î³"
      ],
      [
        "ĠÏĢÎµÏģ",
        "Î¹"
      ],
      [
        "Õ",
        "¹"
      ],
      [
        "ÏĢ",
        "Î¿Î½"
      ],
      [
        "ĠÏĦ",
        "Î¿"
      ],
      [
        "ĠÜķ",
        "Ü«"
      ],
      [
        "ĠÏĢ",
        "Î±"
      ],
      [
        "Ġá¼Ģ",
        "ÏĨ"
      ],
      [
        "Õ",
        "³"
      ],
      [
        "Öģ",
        "Õ«"
      ],
      [
        "ÜĲ",
        "Ü¬"
      ],
      [
        "Üļ",
        "Ü¡"
      ],
      [
        "Ġá¼",
        "Ī"
      ],
      [
        "ĠÏĢ",
        "Î±ÏĦ"
      ],
      [
        "ĠÏĦ",
        "Î¿Ïħ"
      ],
      [
        "Õ¡Õ",
        "¯"
      ],
      [
        "ĠÜ",
        "ı"
      ],
      [
        "ÏĦ",
        "ÏīÏĤ"
      ],
      [
        "ĠÎ",
        "Ķ"
      ],
      [
        "Üª",
        "Ü¬"
      ],
      [
        "ÜĴ",
        "Üł"
      ],
      [
        "ĠÜķ",
        "ÜĿÜł"
      ],
      [
        "ĠÎ´Î¹",
        "Î±"
      ],
      [
        "Ġá¼¡Î¼",
        "á¿¶Î½"
      ],
      [
        "Ġá¼ĲÎ³",
        "ÎŃÎ½"
      ],
      [
        "Ġ",
        "âģ"
      ],
      [
        "Ġá¼",
        "ĺ"
      ],
      [
        "ĠÜķ",
        "ÜŁ"
      ],
      [
        "Ġá¼Ĳ",
        "á½°Î½"
      ],
      [
        "Ü¢",
        "ÜĿÜ¢"
      ],
      [
        "Ïĥ",
        "Ïĩ"
      ],
      [
        "ĠÜ¡",
        "Ü¢ÜĲ"
      ],
      [
        "ÏĢ",
        "Î¹"
      ],
      [
        "á½¶",
        "Î½"
      ],
      [
        "Ġá¼ĢÎ½",
        "Î¸ÏģÏİÏĢ"
      ],
      [
        "Â´",
        "."
      ],
      [
        "Õ",
        "Ľ"
      ],
      [
        "Üĺ",
        "ÜļÜĲ"
      ],
      [
        "á¼",
        "ĺ"
      ],
      [
        "Ïĥ",
        "Î±ÏĤ"
      ],
      [
        "ÏĮ",
        "ÏĦÎ·"
      ],
      [
        "ĠÜĿ",
        "ÜķÜ¥"
      ],
      [
        "Î¼Î±",
        "ÏĦÎ¿ÏĤ"
      ],
      [
        "Ġ",
        "Â·"
      ],
      [
        "Ġá¼",
        "µ"
      ],
      [
        "Ü¡",
        "Ü¬"
      ],
      [
        "ĠÜĺ",
        "Ü«"
      ],
      [
        "ĠÏĥ",
        "Îµ"
      ],
      [
        "Üĵ",
        "ÜĿ"
      ],
      [
        "ĠÜĺÜĲ",
        "Ü¬"
      ],
      [
        "ĠÜļ",
        "ÜĻ"
      ],
      [
        "á¼",
        "Ķ"
      ],
      [
        "ĠÜŁ",
        "ÜłÜĹ"
      ],
      [
        "ĠÎ¿",
        "á¼°Îº"
      ],
      [
        "Î",
        "ĵ"
      ],
      [
        "Ïģ",
        "Ïī"
      ],
      [
        "ĠÜ¡",
        "Ü«ÜĿÜļÜĲ"
      ],
      [
        "ĠÎµá¼",
        "´"
      ],
      [
        "Î½Îµ",
        "ÏĦÎ±Î¹"
      ],
      [
        "Ïĥ",
        "ÎµÎ¹"
      ],
      [
        "Î»",
        "Î¿Î½"
      ],
      [
        "Ü¥",
        "Üĺ"
      ],
      [
        "ĠÜĺ",
        "Ü¬"
      ],
      [
        "ÜĿÜ¬",
        "ÜĺÜ¢"
      ],
      [
        "ÎµÎ¯",
        "Î½"
      ],
      [
        "ĠÎ¼Îµ",
        "ÏĦá½°"
      ],
      [
        "Üķ",
        "Ü¬"
      ],
      [
        "ÏĦ",
        "á½¸Î½"
      ],
      [
        "Ġá¼",
        "¤"
      ],
      [
        "ÜŁ",
        "ÜĿ"
      ],
      [
        "Üļ",
        "Üĺ"
      ],
      [
        "Üĵ",
        "Üª"
      ],
      [
        "Î·Ïĥ",
        "ÎµÎ½"
      ],
      [
        "Î®ÏĥÎµ",
        "ÏĦÎ±Î¹"
      ],
      [
        "Üł",
        "Ü¬"
      ],
      [
        "Ü©",
        "ÜªÜĲ"
      ],
      [
        "Õ¡Õ",
        "½"
      ],
      [
        "Õ¸",
        "ÖĢ"
      ],
      [
        "ĠÏĦÎ¿á¿¦",
        "ÏĦÎ¿"
      ],
      [
        "Ġá½ĳÏĢ",
        "á½¸"
      ],
      [
        "ĠÎ",
        "£"
      ],
      [
        "Ü¡",
        "ÜĺÜ£"
      ],
      [
        "ÜĴ",
        "ÜķÜĲ"
      ],
      [
        "Ïİ",
        "Î½"
      ],
      [
        "á¼",
        "¡"
      ],
      [
        "ÏĥÎµ",
        "ÏīÏĤ"
      ],
      [
        "Üł",
        "ÜŁÜĺÜ¢"
      ],
      [
        "Ïħ",
        "ÏģÎ¯"
      ],
      [
        "Ġá¼Ĳ",
        "ÏĥÏĦÎ¹Î½"
      ],
      [
        "ĠÜ¡",
        "Ü¬"
      ],
      [
        "Î¬",
        "Î¶"
      ],
      [
        "Ġá¼Ģ",
        "Î´"
      ],
      [
        "Ü¢",
        "Ü¬"
      ],
      [
        "ÜĿ",
        "ÜķÜĲ"
      ],
      [
        "Î¯",
        "ÏīÎ½"
      ],
      [
        "ĠÜĴ",
        "ÜĿÜ¬"
      ],
      [
        "ÜĲ",
        "Ü¦"
      ],
      [
        "Î¿Ïħ",
        "Î½"
      ],
      [
        "á½°",
        "ÏĤ"
      ],
      [
        "ÏĮÎ¼ÎµÎ½",
        "Î¿Î½"
      ],
      [
        "ĠÎ",
        "ĺ"
      ],
      [
        "Î¼",
        "Î¿Î½"
      ],
      [
        "Õ¥",
        "Õ¡Õ¬"
      ],
      [
        "ÏĢ",
        "ÎµÏģ"
      ],
      [
        "ĠÜĲ",
        "ÜļÜª"
      ],
      [
        "ĠÏĥ",
        "Î¿Î¹"
      ],
      [
        "ĠÕ¡Õ",
        "´"
      ],
      [
        "ĠÜ¡",
        "ÜłÜŁ"
      ],
      [
        "Î¿Ïħ",
        "ÏĥÎ¹"
      ],
      [
        "ĠÎ¼",
        "Î·"
      ],
      [
        "ĠÎ±á½",
        "Ĳ"
      ],
      [
        "ĠÏĦÎ±",
        "á¿ĸÏĤ"
      ],
      [
        "Õ",
        "µ"
      ],
      [
        "ÜĿ",
        "ÜĹÜĿ"
      ],
      [
        "Î¹",
        "ÏĤ"
      ],
      [
        "ĠÜĲ",
        "ÜĿÜłÜĿÜ¢"
      ],
      [
        "Î·",
        "ÏĦÎµ"
      ],
      [
        "Î¼ÎµÎ½",
        "Î¿ÏĤ"
      ],
      [
        "ÜĺÜļ",
        "Ü¢Ü¢"
      ],
      [
        "ĠÎ²Î±ÏĥÎ¹",
        "Î»ÎµÎ¯"
      ],
      [
        "Ġ",
        ":"
      ],
      [
        "ÜĴ",
        "Ü¢ÜĲ"
      ],
      [
        "Î¼",
        "Î±Ïģ"
      ],
      [
        "ĠÜĺ",
        "Ü©"
      ],
      [
        "Î´",
        "Î¿"
      ],
      [
        "Î±Î¹",
        "ÏĤ"
      ],
      [
        "ÏĦÎ¹",
        "Îº"
      ],
      [
        "Õ¥",
        "ÖĢ"
      ],
      [
        "Ġá¼Ħ",
        "Î»Î»"
      ],
      [
        "ÏĦ",
        "á½´Î½"
      ],
      [
        "ÏĦ",
        "Î·ÏĤ"
      ],
      [
        "ÏĦ",
        "Î·Î½"
      ],
      [
        "ÏĢ",
        "Î±"
      ],
      [
        "ĠÏĦ",
        "Îµ"
      ],
      [
        "ĠÎº",
        "ÏĮ"
      ],
      [
        "ĠÏĥ",
        "ÏħÎ½"
      ],
      [
        "ÜĽ",
        "Üª"
      ],
      [
        "ĠÜĹÜĺ",
        "Ü¬"
      ],
      [
        "ÜĹÜĺ",
        "Üĺ"
      ],
      [
        "Î¹",
        "Î±"
      ],
      [
        "Ġá¼",
        "ĤÎ½"
      ],
      [
        "ĠÜķÜĲ",
        "Ü¡"
      ],
      [
        "ĠÎºÎ±",
        "Î»"
      ],
      [
        "ĠÏĢÏģÎ¿",
        "ÏĨ"
      ],
      [
        "Üĺ",
        "Ü«"
      ],
      [
        "ĠÜķ",
        "Ü£"
      ],
      [
        "ĠÎº",
        "Îµ"
      ],
      [
        "ĠÎº",
        "Î±Ïģ"
      ],
      [
        "ĠÎ¿á½",
        "Ĺ"
      ],
      [
        "ĠÜ¬",
        "ÜłÜ¡"
      ],
      [
        "ĠÎ±",
        "á¼±"
      ],
      [
        "ĠÜķ",
        "Ü¡Ü¢"
      ],
      [
        "ĠÜĺ",
        "Ü¥"
      ],
      [
        "á¿Ĩ",
        "Î½Î±Î¹"
      ],
      [
        "ĠÏĢÎ±Ïģ",
        "Î±"
      ],
      [
        "Î¿",
        "Ïĥ"
      ],
      [
        "Îº",
        "Î±Î¹"
      ],
      [
        "Õ¡Õ",
        "·"
      ],
      [
        "Î²",
        "Î±"
      ],
      [
        "Ġá¼ĢÎ»Î»",
        "á½°"
      ],
      [
        "ĠÎ",
        "·"
      ],
      [
        "Ïģ",
        "á½¸ÏĤ"
      ],
      [
        "ÜĴ",
        "Ü¬ÜĲ"
      ],
      [
        "ĠÏĥ",
        "Ïĭ"
      ],
      [
        "ĠÜĲÜ¡",
        "ÜĿÜ¢"
      ],
      [
        "Î¯",
        "Î¶"
      ],
      [
        "ĠÎ¼",
        "Î¿Î¹"
      ],
      [
        "ĠÕ",
        "½"
      ],
      [
        "ĠÏĥ",
        "Ïħ"
      ],
      [
        "ÏĮÎ¼ÎµÎ½",
        "Î¿ÏĤ"
      ],
      [
        "Ġá½Ħ",
        "Î½"
      ],
      [
        "Ü¡ÜĺÜ£",
        "ÜĲ"
      ],
      [
        "Ü",
        "ģ"
      ],
      [
        "Î¿",
        "ÏĨ"
      ],
      [
        "Ü¢",
        "Ü¦"
      ],
      [
        "ÜĿ",
        "Üĺ"
      ],
      [
        "Îµ",
        "Ïį"
      ],
      [
        "Ġá¼",
        "¥"
      ],
      [
        "Ïģ",
        "ÎŃ"
      ],
      [
        "Üķ",
        "ÜĿÜĲ"
      ],
      [
        "Î¬",
        "ÏģÎ¹"
      ],
      [
        "ĠÏĥ",
        "á¿¶"
      ],
      [
        "ĠÜ¢",
        "ÜĹÜĺÜĲ"
      ],
      [
        "ÏĮÎ½",
        "ÏĦÎµÏĤ"
      ],
      [
        "Õ¥Õ",
        "²"
      ],
      [
        "Î½",
        "Î·ÏĥÎµ"
      ],
      [
        "Üķ",
        "ÜĹ"
      ],
      [
        "Î»",
        "Ïħ"
      ],
      [
        "ĠÜĲ",
        "Üļ"
      ],
      [
        "ĠÜĹ",
        "Ü¢ÜĺÜ¢"
      ],
      [
        "Ġá¼Ģ",
        "Î³Î±"
      ],
      [
        "ĠÜĴ",
        "ÜŁ"
      ],
      [
        "ĠÎ¿á½",
        "ķ"
      ],
      [
        "ÎµÎ»",
        "ÏĨ"
      ],
      [
        "Õ¸Õ",
        "¾"
      ],
      [
        "Îµ",
        "Î³"
      ],
      [
        "ÏĢ",
        "Î¿Î¹"
      ],
      [
        "Î²",
        "Î¬"
      ],
      [
        "âĢ",
        "¢"
      ],
      [
        "ĠÂ",
        "¹"
      ],
      [
        "ĠÏĩ",
        "Ïģ"
      ],
      [
        "á¼Ĳ",
        "Î½"
      ],
      [
        "Õ©",
        "Õ§"
      ],
      [
        "ĠÎ»ÎŃÎ³",
        "Ïī"
      ],
      [
        "Îĳ",
        "Î¤"
      ],
      [
        "Ü¥",
        "ÜłÜ¡"
      ],
      [
        "ÜĺÜ¢",
        "ÜĲ"
      ],
      [
        "ĠÜĺ",
        "Ü£"
      ],
      [
        "Î¿á½",
        "Ĳ"
      ],
      [
        "Ü¥Üł",
        "Ü¡ÜĲ"
      ],
      [
        "ĠÜĴÜª",
        "ÜĹ"
      ],
      [
        "¼",
        "Õ¶"
      ],
      [
        "Ü¡",
        "ÜłÜł"
      ],
      [
        "Îº",
        "Ïģ"
      ],
      [
        "Î±Ïģ",
        "Î¹"
      ],
      [
        "Î¾",
        "Î±"
      ],
      [
        "Ġá¼µ",
        "Î½Î±"
      ],
      [
        "Î",
        "ł"
      ],
      [
        "Üķ",
        "Ü¢ÜĲ"
      ],
      [
        "ÜĴ",
        "Ü¥"
      ],
      [
        "ĠÜĺ",
        "Üļ"
      ],
      [
        "Î¸",
        "Î±"
      ],
      [
        "ĠÏĢÏģÎ¿",
        "ÏĥÎµ"
      ],
      [
        "¨Õ¶",
        "Õ¤"
      ],
      [
        "Ġ",
        "âĢ¤"
      ],
      [
        "ÜĿ",
        "Ü«ÜĲ"
      ],
      [
        "Îº",
        "Îµ"
      ],
      [
        "ĠÜĹ",
        "ÜĲ"
      ],
      [
        "ĠÜĹ",
        "ÜŁÜ¢ÜĲ"
      ],
      [
        "ĠÎ¼",
        "ÏĮÎ½"
      ],
      [
        "ĠÏĥ",
        "Ïİ"
      ],
      [
        "ĠÜ¥",
        "ÜķÜ¡ÜĲ"
      ],
      [
        "Îµ",
        "á¼°"
      ],
      [
        "Üª",
        "Ü¥"
      ],
      [
        "ÜĴ",
        "Ü¬"
      ],
      [
        "Î¼",
        "Î¿Î¹"
      ],
      [
        "Ġá¼Ģ",
        "ÏģÏĩ"
      ],
      [
        "á¿Ĩ",
        "Î»Î¸"
      ],
      [
        "ĠÜ¥",
        "ÜłÜĿ"
      ],
      [
        "Üĵ",
        "ÜłÜĿ"
      ],
      [
        "ÜĹÜĺ",
        "ÜĺÜ¢"
      ],
      [
        "ĠÎµá¼°",
        "Ïĥ"
      ],
      [
        "ÜªÜĿ",
        "Ü¡"
      ],
      [
        "Üł",
        "ÜĿÜĲ"
      ],
      [
        "Ü¡",
        "ÜĽÜł"
      ],
      [
        "Î¼",
        "Î½"
      ],
      [
        "Ü¥",
        "Ü¬ÜĲ"
      ],
      [
        "ĠÜĴ",
        "Ü¬Üª"
      ],
      [
        "Î®",
        "Î¼"
      ],
      [
        "ĠÎ±á½ĲÏĦ",
        "Î¿á½ºÏĤ"
      ],
      [
        "ĠÜŁ",
        "ÜłÜĹÜĺÜ¢"
      ],
      [
        "ĠÎ»",
        "Î±"
      ],
      [
        "ÜĹ",
        "Üķ"
      ],
      [
        "ĠÜł",
        "Ü¡ÜĲ"
      ],
      [
        "ÜĽ",
        "ÜĲ"
      ],
      [
        "ĠÎ¸",
        "ÎµÏģ"
      ],
      [
        "Õ¸Õ",
        "²"
      ],
      [
        "ÜĴ",
        "ÜĿÜĲ"
      ],
      [
        "ĠÜ¢",
        "Ü¬"
      ],
      [
        "ĠÜĹÜĿ",
        "ÜķÜĿÜ¢"
      ],
      [
        "Ġá¼°Î´",
        "Î¿á½º"
      ],
      [
        "Î±",
        "ÏħÏĦ"
      ],
      [
        "ÏĦ",
        "á½¸"
      ],
      [
        "Ġá¼",
        "ħ"
      ],
      [
        "ĠÏĦ",
        "á¿¶"
      ],
      [
        "Î»",
        "ÎŃÎ³"
      ],
      [
        "ĠÜ¡",
        "ÜĲ"
      ],
      [
        "ĠÎ»ÎŃÎ³",
        "ÎµÎ¹"
      ],
      [
        "ÏĦ",
        "Î±á½¶"
      ],
      [
        "Üķ",
        "ÜŁ"
      ],
      [
        "Î¬",
        "Îº"
      ],
      [
        "Ġá½ħ",
        "ÏĦÎ±Î½"
      ],
      [
        "Ġá¼ĲÎº",
        "Îµá¿ĸ"
      ],
      [
        "á¿¦",
        "ÏĦÎ±"
      ],
      [
        "ÏĦ",
        "ÏĮ"
      ],
      [
        "Ïĩ",
        "Î»"
      ],
      [
        "Ġá¼ĲÎº",
        "ÎµÎ¯Î½"
      ],
      [
        "ĠÎ½",
        "á½°"
      ],
      [
        "ĠÏĢÎ¬Î½",
        "ÏĦÎ±"
      ],
      [
        "Ġá¼ķ",
        "ÏīÏĤ"
      ],
      [
        "ĠÜł",
        "Üļ"
      ],
      [
        "Î³",
        "Î³"
      ],
      [
        "Õ¡Õ",
        "°"
      ],
      [
        "ÜĽ",
        "ÜĺÜ£"
      ],
      [
        "ĠÎ±",
        "á¼"
      ],
      [
        "ÏĨÎ¸",
        "Î±Î»"
      ],
      [
        "Ġá¼ĢÎ´",
        "ÎµÎ»ÏĨ"
      ],
      [
        "á½",
        "ħ"
      ],
      [
        "Î¿",
        "Î¼ÎµÎ½"
      ],
      [
        "ÜĴ",
        "Ü©"
      ],
      [
        "ÜĽ",
        "Ü¢ÜĲ"
      ],
      [
        "ÜķÜĲ",
        "ÜłÜĹÜĲ"
      ],
      [
        "Î»Î·",
        "Î¸"
      ],
      [
        "ĠÎ´Ïį",
        "Î¿"
      ],
      [
        "Î",
        "Ĳ"
      ],
      [
        "Ý",
        "Ģ"
      ],
      [
        "Ïĥ",
        "ÏĦÎ±Î¹"
      ],
      [
        "Î·",
        "Î³"
      ],
      [
        "ĠÏĥ",
        "ÏĢ"
      ],
      [
        "Î¿Ïį",
        "ÏĤ"
      ],
      [
        "ÜªÜĺ",
        "ÜļÜĲ"
      ],
      [
        "Îļ",
        "Î±á½¶"
      ],
      [
        "Ü¢",
        "ÜĿÜĲ"
      ],
      [
        "Üĺ",
        "ÜŁ"
      ],
      [
        "ĠÜĺ",
        "ÜŁ"
      ],
      [
        "ĠÜĴ",
        "Ü¥"
      ],
      [
        "ĠÜ¥",
        "ÜĴÜķ"
      ],
      [
        "Õ«",
        "ÖĤ"
      ],
      [
        "ĠÏĨ",
        "Ïį"
      ],
      [
        "ĠÜķ",
        "Ü¨"
      ],
      [
        "Îº",
        "Î»"
      ],
      [
        "Î¿Î½",
        "ÏĦÎ±"
      ],
      [
        "Î¬",
        "ÏĦÏīÎ½"
      ],
      [
        "ĠÜ¢",
        "Ü£"
      ],
      [
        "ÜĲÜ¢",
        "Ü¬"
      ],
      [
        "ĠÏħá¼±",
        "á½¸ÏĤ"
      ],
      [
        "Ġá¼ĲÎ³ÎŃÎ½",
        "Î½Î·ÏĥÎµ"
      ],
      [
        "Î½",
        "Ïī"
      ],
      [
        "Õ¡Õ",
        "²"
      ],
      [
        "ĠÜķÜĲ",
        "Ü¢"
      ],
      [
        "ÏģÎ¹",
        "ÏĥÏĦ"
      ],
      [
        "Î¸ÏģÏī",
        "ÏĢ"
      ],
      [
        "ÏĦ",
        "á¿ĨÏĤ"
      ],
      [
        "ĠÎ",
        "¹"
      ],
      [
        "Î¹",
        "Î¿Î½"
      ],
      [
        "Üł",
        "ÜĺÜ¬"
      ],
      [
        "ÏĢ",
        "ÏģÎ¿"
      ],
      [
        "ĠÎ¼",
        "Î®"
      ],
      [
        "Õ«",
        "Öģ"
      ],
      [
        "ÏĥÎ¸",
        "ÎµÎ½"
      ],
      [
        "Ïĥ",
        "ÎµÎ½"
      ],
      [
        "Üª",
        "Ü¡"
      ],
      [
        "ĠÜĲ",
        "Ü£"
      ],
      [
        "ĠÜĲ",
        "ÜĻ"
      ],
      [
        "Üĵ",
        "Üł"
      ],
      [
        "ĠÜķÜĲ",
        "Ü¬"
      ],
      [
        "ĠÜ¬",
        "ÜĺÜĴ"
      ],
      [
        "ĠÜª",
        "ÜĺÜļÜĲ"
      ],
      [
        "á½º",
        "ÏĤ"
      ],
      [
        "ĠÎĺ",
        "Îµ"
      ],
      [
        "Î",
        "Ł"
      ],
      [
        "Îµ",
        "Ïħ"
      ],
      [
        "Î¼",
        "á¿¶Î½"
      ],
      [
        "Üļ",
        "ÜķÜĲ"
      ],
      [
        "Ü©",
        "ÜķÜ¡"
      ],
      [
        "ÜĻ",
        "ÜĲ"
      ],
      [
        "Õ¸ÖĤ",
        "Õ¶"
      ],
      [
        "ĠÎ»ÎŃÎ³",
        "Î¿Î½ÏĦÎµÏĤ"
      ],
      [
        "Õ¸ÖĤÕ©",
        "Õ¥"
      ],
      [
        "Ġá¼Ģ",
        "Î¼"
      ],
      [
        "Ü©",
        "ÜĿÜ¡"
      ],
      [
        "ÏĦÎµ",
        "Ïģ"
      ],
      [
        "Üł",
        "Üĵ"
      ],
      [
        "ĠÜĲ",
        "Ü¬ÜĲ"
      ],
      [
        "Ü¥",
        "Üª"
      ],
      [
        "Î¸",
        "Î·ÏĥÎ±Î½"
      ],
      [
        "ÏĮ",
        "ÏĦÎ¹"
      ],
      [
        "ĠÜ¡Ü¢",
        "ÜĹ"
      ],
      [
        "Î¼ÎµÎ½",
        "Î¿Î½"
      ],
      [
        "Ġá¼Ħ",
        "Ïģ"
      ],
      [
        "ĠÎ»ÎŃÎ³",
        "ÏīÎ½"
      ],
      [
        "Õ",
        "·"
      ],
      [
        "ĠÏĦ",
        "ÏĮ"
      ],
      [
        "Ü©",
        "ÜĿ"
      ],
      [
        "ĠÏĨ",
        "Î¹Î»"
      ],
      [
        "ÎµÎ»",
        "Î¸"
      ],
      [
        "Ġá¼¡Î¼",
        "ÎŃÏģ"
      ],
      [
        "ĠÏĢÎµÏģ",
        "á½¶"
      ],
      [
        "Ġá¼ĢÎº",
        "Î¿Ïį"
      ],
      [
        "Ïĥ",
        "Ïĥ"
      ],
      [
        "ÏĢ",
        "ÎµÎ¹"
      ],
      [
        "ĠÏĦ",
        "Î·Î½"
      ],
      [
        "Î»",
        "Î¬"
      ],
      [
        "ÎŃ",
        "Ïĩ"
      ],
      [
        "Ü¦",
        "ÜĿ"
      ],
      [
        "ĠÜļ",
        "ÜĿ"
      ],
      [
        "ĠÕ¡Õ",
        "µ"
      ],
      [
        "Ġ",
        "*"
      ],
      [
        "Ġá¼",
        "´"
      ],
      [
        "ÜĹ",
        "ÜĴ"
      ],
      [
        "ĠÏĢ",
        "Î½Îµ"
      ],
      [
        "ÎµÏģ",
        "á½¶"
      ],
      [
        "Ü«ÜĴ",
        "Ü¬ÜĲ"
      ],
      [
        ":",
        "Â·"
      ],
      [
        "Üĺ",
        "ÜªÜĲ"
      ],
      [
        "Üĺ",
        "ÜķÜĿ"
      ],
      [
        "Ïĥ",
        "á¿ĥ"
      ],
      [
        "Üķ",
        "Ü£"
      ],
      [
        "Î´",
        "Ïī"
      ],
      [
        "ĠÕ",
        "¾"
      ],
      [
        "Î¾",
        "Î¹"
      ],
      [
        "ĠÏĢÏģ",
        "ÏĮ"
      ],
      [
        "Õ½",
        "Õ¶"
      ],
      [
        "Î¿Ïħ",
        "Ïĥ"
      ],
      [
        "Õ¡ÖĢÕ",
        "¿"
      ],
      [
        "ĠÎºÏĮ",
        "ÏĥÎ¼"
      ],
      [
        "Õ¡Õ·",
        "ÕŃ"
      ],
      [
        "ÏĦ",
        "á½¸ÏĤ"
      ],
      [
        "á¼",
        "¸"
      ],
      [
        "ÜĴ",
        "ÜĺÜ¬ÜĲ"
      ],
      [
        "Î»",
        "Î¿Î³"
      ],
      [
        "Î¼",
        "ÏīÎ½"
      ],
      [
        "ĠÜĺ",
        "Ü¡Ü¢"
      ],
      [
        "Ġá½ĳÎ¼",
        "á¾¶ÏĤ"
      ],
      [
        "Ġá¼¡Î¼",
        "á¾¶ÏĤ"
      ],
      [
        "Î®Ïĥ",
        "ÎµÎ¹"
      ],
      [
        "ÏĦ",
        "ÎŃÏģ"
      ],
      [
        "á¼",
        "Ħ"
      ],
      [
        "Îµ",
        "ÏĤ"
      ],
      [
        "ĠÜł",
        "ÜĴÜª"
      ],
      [
        "Î¯",
        "Î½ÎµÏĦÎ±Î¹"
      ],
      [
        "ÎŃ",
        "ÏģÎ±"
      ],
      [
        "ĠÜ¡",
        "Ü«ÜŁÜļ"
      ],
      [
        "ĠÜĹ",
        "Ü«ÜĲ"
      ],
      [
        "ĠÎ´",
        "Î¿"
      ],
      [
        "ÜĲ",
        "Üª"
      ],
      [
        "ÏĦ",
        "Î¿ÏħÏĤ"
      ],
      [
        "ÏĢ",
        "ÏĮ"
      ],
      [
        "Î»",
        "Î¯"
      ],
      [
        "Ġá½",
        "ł"
      ],
      [
        "Î¸",
        "ÎŃÎ½"
      ],
      [
        "Ü£",
        "ÜªÜĲ"
      ],
      [
        "ĠÎ³",
        "á¿Ĩ"
      ],
      [
        "Ġá¼ĢÎ³Î±",
        "Î¸"
      ],
      [
        "Ü¡",
        "Ü¬ÜĲ"
      ],
      [
        "ĠÜķ",
        "ÜĻ"
      ],
      [
        "Ġá¼Ĳ",
        "Î»Î¸"
      ],
      [
        "ÜªÜĲ",
        "ÜĿÜ¬"
      ],
      [
        "ĠÎ¿á½",
        "Ķ"
      ],
      [
        "ĠÕ¡Õ",
        "º"
      ],
      [
        "Ġá¼ģ",
        "Î¼Î±Ïģ"
      ],
      [
        "ÎºÏģÎ¹",
        "Î¸Îµá½¶ÏĤ"
      ],
      [
        "Î±",
        "Ïħ"
      ],
      [
        "Ïģ",
        "Ïİ"
      ],
      [
        "Îº",
        "ÎµÎ½"
      ],
      [
        "ĠÏĢ",
        "Î½"
      ],
      [
        "ĠÎ´",
        "ÏĮ"
      ],
      [
        "Î´",
        "ÏĮ"
      ],
      [
        "Î´",
        "Î¿Ïħ"
      ],
      [
        "Õ¡Õ",
        "¼"
      ],
      [
        "ĠÎºÎ±",
        "ÏĦ"
      ],
      [
        "ĠÎºÎ±",
        "Îº"
      ],
      [
        "ÜĿÜķ",
        "ÜĺÜĹÜĿ"
      ],
      [
        "Ġá½Ħ",
        "ÏĩÎ»"
      ],
      [
        "Ġá¼ĲÏĥÏĦ",
        "á½¶"
      ],
      [
        "Ġ",
        "Î¿Ïħ"
      ],
      [
        "Ïģ",
        "ÏĮ"
      ],
      [
        "ÜĹ",
        "ÜĲ"
      ],
      [
        "Î·",
        "ÏĦÎ±Î¹"
      ],
      [
        "Î¿Ïħ",
        "ÏĥÎ±"
      ],
      [
        "ĠÜ¥",
        "ÜĴ"
      ],
      [
        "Î¾",
        "Îµ"
      ],
      [
        "ÏĥÎ±",
        "ÏĦÎµ"
      ],
      [
        "Õ¸ÖĤÕ©",
        "Õ«"
      ],
      [
        "Õ",
        "ª"
      ],
      [
        "Üł",
        "ÜĴ"
      ],
      [
        "Ïĥ",
        "Î·ÏĤ"
      ],
      [
        "Ïĩ",
        "Îµ"
      ],
      [
        "ĠÏĥ",
        "á½º"
      ],
      [
        "ĠÎ±á½ĲÏĦ",
        "á¿ĨÏĤ"
      ],
      [
        "ĠÎŁ",
        "á½Ĳ"
      ],
      [
        "ĠÏĢÏģÎ¿ÏĨ",
        "Î®"
      ],
      [
        "ĠÎ",
        "¾"
      ],
      [
        "Üł",
        "ÜĺÜ¢"
      ],
      [
        "Ü¡",
        "ÜłÜĲ"
      ],
      [
        "ÏĢ",
        "Î¿Ïħ"
      ],
      [
        "Ġá¼Ĳ",
        "ÏĥÏĦÎ¹"
      ],
      [
        "ĠÎ¼Îµ",
        "ÏĦÎ±"
      ],
      [
        "ÏĥÏĢ",
        "ÎµÏģ"
      ],
      [
        "ÜĲ",
        "Üĺ"
      ],
      [
        "Ü¡",
        "Ü¢ÜĲ"
      ],
      [
        "ĠÏĦ",
        "ÎŃ"
      ],
      [
        "ÜŁ",
        "ÜłÜĲ"
      ],
      [
        "Î¸",
        "ÎŃ"
      ],
      [
        "ÜķÜĿÜ¢",
        "Ü¬ÜĲ"
      ],
      [
        "á¼Ĳ",
        "Îº"
      ],
      [
        "Ġ",
        "á¾"
      ],
      [
        "ĠÎ",
        "¦"
      ],
      [
        "Ü¡",
        "Ü«ÜĿÜļÜĲ"
      ],
      [
        "Üª",
        "ÜĹ"
      ],
      [
        "Üķ",
        "Ü«"
      ],
      [
        "Î»",
        "Î¿ÏĤ"
      ],
      [
        "ĠÜĺ",
        "ÜĿ"
      ],
      [
        "Ġá¼Ĳ",
        "ÏĨ"
      ],
      [
        "ĠÕ",
        "¨Õ¶Õ¤"
      ],
      [
        "ÜĻ",
        "ÜĴÜ¢"
      ],
      [
        "ĠÜĵ",
        "ÜĴÜªÜĲ"
      ],
      [
        "ÏĨÎ¸Î±Î»",
        "Î¼"
      ],
      [
        "Ġ",
        "Î½Îµ"
      ],
      [
        "Üł",
        "Ü¢"
      ],
      [
        "Ü¡",
        "ÜĹ"
      ],
      [
        "Ïģ",
        "Ïħ"
      ],
      [
        "ĠÜķ",
        "Ü¦"
      ],
      [
        "ĠÜĲ",
        "ÜĿ"
      ],
      [
        "ĠÏĢ",
        "Î¿Î½"
      ],
      [
        "ĠÜ¡",
        "Ü£"
      ],
      [
        "Î¬",
        "Î»Î±"
      ],
      [
        "Î´",
        "Î·"
      ],
      [
        "Ü©",
        "ÜĺÜĴ"
      ],
      [
        "Î®",
        "Î»"
      ],
      [
        "ĠÜķÜĲ",
        "Ü¢Ü«ÜĲ"
      ],
      [
        "ÜĿÜł",
        "ÜĽÜĺÜ£"
      ],
      [
        "ĠÜ¬",
        "Ü¡Ü¢"
      ],
      [
        "ĠÎ¿á½Ĳ",
        "Î´á½²"
      ],
      [
        "ÜĺÜª",
        "Ü«ÜłÜ¡"
      ],
      [
        "Ġá¼¸",
        "Ïī"
      ],
      [
        "ÜĺÜł",
        "Üķ"
      ],
      [
        "ĠÎ¶",
        "Ïī"
      ],
      [
        "Õ¸Õµ",
        "Õ¶"
      ],
      [
        "ĠÎ´Ïį",
        "Î½Î±"
      ],
      [
        "Õ",
        "®"
      ],
      [
        "Ü¬",
        "ÜłÜ¡"
      ],
      [
        "ÏĢ",
        "Î¯"
      ],
      [
        "ÏĢ",
        "Î±Ïģ"
      ],
      [
        "ÜĹ",
        "ÜķÜĲ"
      ],
      [
        "ĠÜĲ",
        "ÜĴÜĲ"
      ],
      [
        "á½´",
        "Ïģ"
      ],
      [
        "ĠÜķÜĲ",
        "Ü¦"
      ],
      [
        "Î¾",
        "Î±Î½"
      ],
      [
        "ĠÎ½",
        "ÏĮ"
      ],
      [
        "ÏģÎµ",
        "Ïħ"
      ],
      [
        "ĠÎ¤",
        "ÏĮÏĦÎµ"
      ],
      [
        "ÏįÏģÎ¹",
        "Îµ"
      ],
      [
        "ĠÏĥÏĭ",
        "Î½"
      ],
      [
        "Î",
        "ĺ"
      ],
      [
        "Ġá¼",
        "©"
      ],
      [
        "Ïģ",
        "ÏīÎ½"
      ],
      [
        "Ïģ",
        "Î±ÏĤ"
      ],
      [
        "ÏĢ",
        "ÏĦ"
      ],
      [
        "Üķ",
        "Ü¦"
      ],
      [
        "ĠÏĦ",
        "á¿Ĩ"
      ],
      [
        "ĠÏĢ",
        "Î¯"
      ],
      [
        "Î¸",
        "Î®ÏĥÎµÏĦÎ±Î¹"
      ],
      [
        "ĠÕ",
        "¶"
      ],
      [
        "ĠÏĥ",
        "Ïī"
      ],
      [
        "á½²",
        "Ïģ"
      ],
      [
        "Üĵ",
        "ÜªÜĲ"
      ],
      [
        "ĠÜ¢",
        "ÜĲ"
      ],
      [
        "Î¬Î½",
        "Î½"
      ],
      [
        "ĠÜ¦",
        "Üª"
      ],
      [
        "ĠÏĦÎ±",
        "Ïį"
      ],
      [
        "Ġá¼ĳ",
        "Î±ÏħÏĦ"
      ],
      [
        "Î¬Î»",
        "Î¹Î½"
      ],
      [
        "Î¼Î¬",
        "ÏĦÏīÎ½"
      ],
      [
        "©",
        "Õ§"
      ],
      [
        "Õ",
        "¨"
      ],
      [
        "ÜĲ",
        "ÜłÜĹÜĲ"
      ],
      [
        "ÜĲ",
        "Ü¦ÜĲ"
      ],
      [
        "Î½",
        "Î¿Î½"
      ],
      [
        "Ü¢",
        "ÜĹ"
      ],
      [
        "Üĺ",
        "Ü¦"
      ],
      [
        "ĠÏĦ",
        "ÎµÎ»"
      ],
      [
        "ĠÎ´",
        "Î¯"
      ],
      [
        "Î´",
        "ÎµÎ¹"
      ],
      [
        "ĠÏĨ",
        "Ïħ"
      ],
      [
        "ĠÜ©",
        "Üª"
      ],
      [
        "Ġá¼¡Î¼",
        "á¿ĸÎ½"
      ],
      [
        "Õ",
        "İ"
      ],
      [
        "Ġ",
        "ÖĦ"
      ],
      [
        "Î¿",
        "Î²"
      ],
      [
        "Î¹",
        "ÏĥÏĦ"
      ],
      [
        "Ü¬",
        "ÜĿÜ¢"
      ],
      [
        "Ïģ",
        "Î¿ÏĤ"
      ],
      [
        "ÏĢ",
        "á½¸"
      ],
      [
        "ÜĴ",
        "ÜŁ"
      ],
      [
        "ÜĴ",
        "Üļ"
      ],
      [
        "Î·",
        "ÏĥÎ¹Î½"
      ],
      [
        "Ïī",
        "ÏĥÎ¹Î½"
      ],
      [
        "ĠÜĴ",
        "Ü«"
      ],
      [
        "Ġá¼Ķ",
        "ÏĥÏĦÎ±Î¹"
      ],
      [
        "ĠÜ¬",
        "Üª"
      ],
      [
        "ĠÜĲÜ¢Ü¬",
        "Ü¬ÜĲ"
      ],
      [
        "ÜĴÜĿ",
        "Ü¬ÜĲ"
      ],
      [
        "Ü¬ÜĿ",
        "ÜĴ"
      ],
      [
        "ĠÎµá¼¶",
        "ÏĢÎµ"
      ],
      [
        "ĠÏĥá¿¶",
        "Î¼Î±"
      ],
      [
        "Ïģ",
        "ÏĮÎ½"
      ],
      [
        "Ïħ",
        "Î½Î±"
      ],
      [
        "ĠÜł",
        "Ü¥"
      ],
      [
        "ĠÜł",
        "ÜĿÜ¬"
      ],
      [
        "Îº",
        "Î±Î½"
      ],
      [
        "ĠÜĺ",
        "Üł"
      ],
      [
        "Üļ",
        "Ü¬ÜĲ"
      ],
      [
        "Î³",
        "Îµ"
      ],
      [
        "Ġá½ģ",
        "Î´"
      ],
      [
        "ĠÎ³",
        "á¿ĨÏĤ"
      ],
      [
        "ÎµÎ¯",
        "Î±ÏĤ"
      ],
      [
        "ĠÜ¥Üł",
        "ÜĺÜĹÜĿ"
      ],
      [
        "ĠÏĦÎ±",
        "á¿¦ÏĦÎ±"
      ],
      [
        "á½",
        "ī"
      ],
      [
        "ÏĦ",
        "ÏĮÏĤ"
      ],
      [
        "ÏĢ",
        "ÏīÏĤ"
      ],
      [
        "ÜĹ",
        "ÜŁÜĿÜł"
      ],
      [
        "Üķ",
        "ÜĺÜ¢"
      ],
      [
        "ĠÜķ",
        "Ü¢ÜĲ"
      ],
      [
        "ĠÜķ",
        "Ü«Ü¡"
      ],
      [
        "ĠÜĲ",
        "ÜŁ"
      ],
      [
        "Ü«",
        "Ü©"
      ],
      [
        "ĠÜ¡",
        "ÜłÜ¬ÜĲ"
      ],
      [
        "ĠÕ",
        "¿"
      ],
      [
        "ĠÎµ",
        "Î½"
      ],
      [
        "Îµá¿ĸ",
        "ÏĦÎµ"
      ],
      [
        "ÏģÎ±",
        "Î¼"
      ],
      [
        "ÜªÜĿ",
        "Ü¬ÜĲ"
      ],
      [
        "á¿¦",
        "Î½"
      ],
      [
        ".",
        "ÜĢ"
      ],
      [
        "ª",
        "Õ¡Õ¶"
      ],
      [
        "Õ",
        "±"
      ],
      [
        "ķ",
        "á¼°"
      ],
      [
        "ÜĿ",
        "ÜŁÜĺÜ¢"
      ],
      [
        "ÏĢ",
        "Î±Î½"
      ],
      [
        "Ü¥",
        "Ü£Üª"
      ],
      [
        "Ġá¼Ģ",
        "Ïģ"
      ],
      [
        "ĠÎ¼",
        "Î¹"
      ],
      [
        "ĠÜĹÜĺ",
        "ÜĿÜ¬"
      ],
      [
        "Üĵ",
        "ÜĴÜªÜĲ"
      ],
      [
        "Õ¸",
        "Öģ"
      ],
      [
        "Õ¥",
        "Öģ"
      ],
      [
        "ĠÜļ",
        "Ü¡"
      ],
      [
        "ĠÜļ",
        "Ü¢Ü¢"
      ],
      [
        "á¾¿",
        ","
      ],
      [
        "ĠÜĲÜĿÜ¬",
        "ÜĺÜĹÜĿ"
      ],
      [
        "ĠÜ¥Ü¡",
        "ÜĹ"
      ],
      [
        "ĠÎ¿á¼",
        "¶"
      ],
      [
        "Õ¸ÖĢÕ",
        "¤"
      ],
      [
        "Ġá¼±",
        "ÎµÏģ"
      ],
      [
        "Õ¡Õ·ÕŃ",
        "Õ¡ÖĢ"
      ],
      [
        "·",
        "ÏĤ"
      ],
      [
        "Õ",
        "¾"
      ],
      [
        "ĠÎ",
        "§"
      ],
      [
        "ĠÏĦ",
        "Î¹Î½"
      ],
      [
        "Ü«",
        "Ü¢ÜĲ"
      ],
      [
        "Î¯",
        "á¾³"
      ],
      [
        "ĠÜ¡",
        "ÜªÜĿ"
      ],
      [
        "Î´",
        "Î¬"
      ],
      [
        "ĠÜĴ",
        "ÜłÜļ"
      ],
      [
        "ĠÕ",
        "¢"
      ],
      [
        "ĠÏĥ",
        "Î¿á¿¦"
      ],
      [
        "ĠÏĥ",
        "ÏħÎ¼"
      ],
      [
        "Ġá½ģ",
        "Î¼"
      ],
      [
        "ĠÎ³",
        "ÎŃÎ½"
      ],
      [
        "ĠÎ¸",
        "ÎŃÎ»"
      ],
      [
        "Î·Ïĥ",
        "Î¿Î½"
      ],
      [
        "ÏĮÎ½",
        "ÏĦÏīÎ½"
      ],
      [
        "Î¿Ïį",
        "Î»"
      ],
      [
        "ÏģÎµ",
        "Ïį"
      ],
      [
        "ĠÜłÜĺÜ¬",
        "ÜĹ"
      ],
      [
        "ÜļÜĻ",
        "ÜĲ"
      ],
      [
        "Ġá¼ĶÏĩ",
        "ÎµÎ¹"
      ],
      [
        "Î",
        "¥"
      ],
      [
        "Î½",
        "Î·"
      ],
      [
        "Î½",
        "ÏĮ"
      ],
      [
        "Ü¡",
        "ÜķÜ¡"
      ],
      [
        "Îº",
        "ÎµÎ¹"
      ],
      [
        "ÎŃ",
        "ÏĦÏģ"
      ],
      [
        "Î¿Î½",
        "ÏĦÎ¿ÏĤ"
      ],
      [
        "ĠÎ´",
        "ÏħÎ½"
      ],
      [
        "Õ¡Õ",
        "º"
      ],
      [
        "ĠÕ",
        "£"
      ],
      [
        "ĠÕ",
        "¬"
      ],
      [
        "ĠÜĺÜĲ",
        "Ü¦"
      ],
      [
        "Ü¨",
        "ÜĲ"
      ],
      [
        "ĠÏĨ",
        "Ïī"
      ],
      [
        "Î»Î±",
        "Î²"
      ],
      [
        "ĠÎ»ÏĮÎ³",
        "Î¿Î½"
      ],
      [
        "ĠÎ¼Î±Î¸Î·",
        "ÏĦÎ±á½¶"
      ],
      [
        "ĠÜķÜĿÜł",
        "ÜĿ"
      ],
      [
        "Üĺ",
        "Ü«ÜĲ"
      ],
      [
        "ÏĢ",
        "Î»"
      ],
      [
        "ĠÜķ",
        "ÜłÜ¡ÜĲ"
      ],
      [
        "Î¼",
        "Î²"
      ],
      [
        "Î´",
        "Ïİ"
      ],
      [
        "ĠÜĹÜĿ",
        "Ü¡Ü¢"
      ],
      [
        "ĠÎĶ",
        "Î¹"
      ],
      [
        "Üĺ",
        "ÜĿ"
      ],
      [
        "Îµ",
        "á¼"
      ],
      [
        "ĠÏĦ",
        "ÏĮÏĦÎµ"
      ],
      [
        "Î¼",
        "Î¹"
      ],
      [
        "Îº",
        "Î¬"
      ],
      [
        "ĠÏĢ",
        "Î±Î¹"
      ],
      [
        "Î´",
        "Î¿ÏĤ"
      ],
      [
        "Ġá¼Ģ",
        "Î½Îµ"
      ],
      [
        "Î¾",
        "Ïī"
      ],
      [
        "ÜĹÜĺ",
        "ÜķÜĲ"
      ],
      [
        "Îµá¿ĸ",
        "Î¿Î½"
      ],
      [
        "ĠÜ¬",
        "ÜĲ"
      ],
      [
        "Î»Î»",
        "Î¿Î½"
      ],
      [
        "ÏĥÎ¸",
        "Î·"
      ],
      [
        "ÜĿÜķ",
        "ÜĹ"
      ],
      [
        "ĠÎł",
        "ÎµÏģá½¶"
      ],
      [
        "Î½",
        "Î¿"
      ],
      [
        "Î½",
        "Ïİ"
      ],
      [
        "ĠÎ",
        "ĵ"
      ],
      [
        "Îº",
        "Î¿Ïį"
      ],
      [
        "ĠÎ´",
        "Î¿á¿¦"
      ],
      [
        "ÏĦÎ±",
        "á¿ĸÏĤ"
      ],
      [
        "ĠÜĴ",
        "Üļ"
      ],
      [
        "ÏĨ",
        "Î·"
      ],
      [
        "ÏĦÎµ",
        "Î¹"
      ],
      [
        "Õ«",
        "Õ½"
      ],
      [
        "ĠÎ³",
        "Î¯Î½ÎµÏĦÎ±Î¹"
      ],
      [
        "ĠÜĿ",
        "Üĺ"
      ],
      [
        "ÎµÏģ",
        "Î¿Î½"
      ],
      [
        "ĠÜ«",
        "Üª"
      ],
      [
        "ÜĺÜ£",
        "Ü¦"
      ],
      [
        "ĠÏĢÎ±Ïģ",
        "á½°"
      ],
      [
        "ĠÎµá¼¶",
        "Î½Î±Î¹"
      ],
      [
        "Ïģ",
        "Î·"
      ],
      [
        "Üķ",
        "ÜĿÜł"
      ],
      [
        "ĠÏĦ",
        "Î·ÏĤ"
      ],
      [
        "ĠÜķ",
        "Üª"
      ],
      [
        "ĠÎº",
        "Î¬"
      ],
      [
        "Î´",
        "ÏīÏģ"
      ],
      [
        "ĠÎ»",
        "Î±Î²"
      ],
      [
        "ĠÜļ",
        "ÜķÜĲ"
      ],
      [
        "Î·Ïĥ",
        "Î±"
      ],
      [
        "ĠÜłÜĿ",
        "Ü«ÜĺÜ¥"
      ],
      [
        "ĠÕº",
        "Õ¡Õ¿"
      ],
      [
        "ÏĦ",
        "Î®"
      ],
      [
        "Ü¡",
        "Ü¥"
      ],
      [
        "Ü¡",
        "ÜłÜŁ"
      ],
      [
        "Ïħ",
        "ÏĨ"
      ],
      [
        "ĠÎº",
        "ÏģÎ¯"
      ],
      [
        "Î´",
        "Î±ÏĤ"
      ],
      [
        "ĠÎ¼",
        "ÎŃ"
      ],
      [
        "á¿Ĩ",
        "ÏĥÎ±Î¹"
      ],
      [
        "Õ¸",
        "Õ¶"
      ],
      [
        "ĠÜĺÜĲ",
        "ÜĿÜ¬"
      ],
      [
        "Î±Î»",
        "Î¹"
      ],
      [
        "ÜĺÜª",
        "ÜļÜĲ"
      ],
      [
        "ĠÎ¼Îµ",
        "Î³"
      ],
      [
        "ĠÕ¡Õ",
        "¼"
      ],
      [
        "ÜĿÜ¡",
        "ÜĿÜ¢"
      ],
      [
        "Ġá½Ģ",
        "ÏĨÎ¸Î±Î»Î¼"
      ],
      [
        "Ġá½ĥ",
        "ÏĤ"
      ],
      [
        "ĠÎ¿á½ķ",
        "ÏĦÏīÏĤ"
      ],
      [
        "Ġ",
        "Î±Î½"
      ],
      [
        "ÜĲ",
        "Üļ"
      ],
      [
        "á¼",
        "Ī"
      ],
      [
        "ĠÜķ",
        "Ü¥Üł"
      ],
      [
        "Î¼",
        "ÏĮÎ½"
      ],
      [
        "Î¸",
        "ÎµÏģ"
      ],
      [
        "Î³",
        "Ïī"
      ],
      [
        "Ü¦",
        "ÜĿÜ¢"
      ],
      [
        "ĠÜĴ",
        "Ü£"
      ],
      [
        "ĠÕ",
        "¤"
      ],
      [
        "ÏĦÎµ",
        "ÏģÎ¿Î½"
      ],
      [
        "ĠÎµ",
        "á½"
      ],
      [
        "ĠÎ±á½ĲÏĦ",
        "ÏĮÎ½"
      ],
      [
        "ĠÜ¢",
        "Üļ"
      ],
      [
        "Îµá¿ĸ",
        "ÏĦÎ±Î¹"
      ],
      [
        "ÏĥÏĦ",
        "Î·"
      ],
      [
        "ÏģÎ¹",
        "Î¿Î½"
      ],
      [
        "Ġá½ħ",
        "Î»"
      ],
      [
        "ÏĪ",
        "Îµ"
      ],
      [
        "ĠÎ²",
        "Î¬"
      ],
      [
        "Õ¥Õ",
        "¿"
      ],
      [
        "Ü«Ü¡",
        "Ü¥"
      ],
      [
        "ĠÜķÜĿ",
        "ÜłÜĹ"
      ],
      [
        "Ġá¼¦",
        "Î»Î¸"
      ],
      [
        "Õ¥Õ½",
        "ÖģÕ§"
      ],
      [
        "ÜĲÜĿÜŁ",
        "Ü¢ÜĲ"
      ],
      [
        "ĠÎ¿á½ĲÏģÎ±Î½",
        "á¿¶Î½"
      ],
      [
        "ĠÏĢÎ¿Î½",
        "Î·Ïģ"
      ],
      [
        "Îµ",
        "ÏĦÎ¿"
      ],
      [
        "Ü¡",
        "ÜĿÜ¢"
      ],
      [
        "ÏĢ",
        "Î¿á¿¦"
      ],
      [
        "ĠÏĦ",
        "Ïī"
      ],
      [
        "ÜĴ",
        "Ü«"
      ],
      [
        "Î»",
        "á¿¶Î½"
      ],
      [
        "ÜĺÜ¢",
        "ÜĿÜĹÜĿ"
      ],
      [
        "Ġá½",
        "§"
      ],
      [
        "ĠÏĢ",
        "á¿¶ÏĤ"
      ],
      [
        "Î¸",
        "ÎµÎ¹"
      ],
      [
        "ÏĮ",
        "Ïģ"
      ],
      [
        "Î´",
        "ÎŃ"
      ],
      [
        "Ü¦",
        "ÜªÜĲ"
      ],
      [
        "ĠÎ»",
        "Î¿Î³"
      ],
      [
        "ĠÏĢÏģ",
        "ÎµÏĥ"
      ],
      [
        "ĠÜ¡Ü¢",
        "ÜĹÜĺÜ¢"
      ],
      [
        "ĠÎ´Î¹",
        "Î¬"
      ],
      [
        "ĠÜķÜ¢",
        "Ü¬"
      ],
      [
        "ĠÜ¨",
        "ÜĴÜĿÜ¢"
      ],
      [
        "Ġá½ĥ",
        "Î½"
      ],
      [
        "ĠÎ¿á½Ķ",
        "ÏĦÎµ"
      ],
      [
        "·",
        "Î¿Î½"
      ],
      [
        "Î½",
        "á¿¶Î½"
      ],
      [
        "Üĺ",
        "ÜŁÜķ"
      ],
      [
        "Üł",
        "ÜĿÜł"
      ],
      [
        "Üķ",
        "Ü¬ÜĲ"
      ],
      [
        "Üķ",
        "ÜĺÜĹÜĿ"
      ],
      [
        "Ü«",
        "Üª"
      ],
      [
        "Îº",
        "Î¿Î»"
      ],
      [
        "Ü¥",
        "Ü©ÜĺÜĴ"
      ],
      [
        "Î¸",
        "á¿ĨÎ½Î±Î¹"
      ],
      [
        "Ġá¼Ĳ",
        "Ïģ"
      ],
      [
        "Ġá¼Ĳ",
        "Ïĩ"
      ],
      [
        "Ïĩ",
        "ÎµÎ¹"
      ],
      [
        "á¿ĸ",
        "Î¿Î¹"
      ],
      [
        "ĠÜłÜĲ",
        "ÜĿÜłÜĿÜ¢"
      ],
      [
        "ĠÏĢÏģ",
        "á¿¶"
      ],
      [
        "ĠÜ¡Ü¢",
        "Üĺ"
      ],
      [
        "ÜłÜ¡",
        "ÜķÜ¡"
      ],
      [
        "á¼Ģ",
        "Î½"
      ],
      [
        "ÜĲÜ¡",
        "Üª"
      ],
      [
        "ĠÜ¢Ü¦",
        "Ü«ÜĹ"
      ],
      [
        "ĠÕ´",
        "Õ«"
      ],
      [
        "Ġá¼ĲÏĥÏĦ",
        "á½¶Î½"
      ],
      [
        "Ġá¼ĢÎ½Î¸ÏģÏİÏĢ",
        "Î¿Ïħ"
      ],
      [
        "ÏĮÏĦÎ·",
        "ÏĦÎ±"
      ],
      [
        "ÜĵÜłÜĿ",
        "ÜłÜĲ"
      ],
      [
        "Ġ",
        "á¿"
      ],
      [
        "Î»",
        "Ïį"
      ],
      [
        "Îº",
        "Î¿"
      ],
      [
        "ĠÜĺ",
        "ÜĹÜĺ"
      ],
      [
        "ĠÜ¡",
        "ÜªÜĿÜĲ"
      ],
      [
        "Ì£",
        "Ìĩ"
      ],
      [
        "Ġá¼Ģ",
        "ÏĥÏĦ"
      ],
      [
        "ĠÕ",
        "¨"
      ],
      [
        "ÏĨ",
        "Î±Î»"
      ],
      [
        "ĠÜ¥",
        "Üª"
      ],
      [
        "Üĵ",
        "ÜłÜĲ"
      ],
      [
        "ÜķÜĲ",
        "ÜĿÜ¬"
      ],
      [
        "ĠÎºÎ±",
        "Î¯"
      ],
      [
        "ĠÎ¿á½Ĳ",
        "Ïĩ"
      ],
      [
        "ÜĺÜĲ",
        "Ü¢"
      ],
      [
        "ĠÎ¼Îµ",
        "ÏĦ"
      ],
      [
        "Î±á½ĲÏĦ",
        "Î¿á¿¦"
      ],
      [
        "ĠÎŁ",
        "á¼±"
      ],
      [
        "Îµá¼°",
        "ÏĤ"
      ],
      [
        "Õİ",
        "Õ½"
      ],
      [
        "ĠÎ",
        "Ĵ"
      ],
      [
        "Üł",
        "Ü¥"
      ],
      [
        "Ïĥ",
        "Î¿Ïħ"
      ],
      [
        "ĠÜĲ",
        "ÜĺÜłÜķ"
      ],
      [
        "Îº",
        "Î¿Ïħ"
      ],
      [
        "á¾",
        "º"
      ],
      [
        "ĠÎ³",
        "Î¬Ïģ"
      ],
      [
        "ĠÜķÜĲ",
        "Ü¬ÜĲ"
      ],
      [
        "ĠÎ»",
        "ÎµÎ³"
      ],
      [
        "ĠÎ¸",
        "ÏĤ"
      ],
      [
        "ÜĿÜŁ",
        "ÜĲ"
      ],
      [
        "Ġá¼ĲÎº",
        "Îµá¿ĸÎ½"
      ],
      [
        "ĠÎ±",
        "Ïħ"
      ],
      [
        "ĠÜĲÜĿÜŁ",
        "ÜĲ"
      ],
      [
        "ĠÎļ",
        "ÏįÏģÎ¹Îµ"
      ],
      [
        "ÏĮÎ¼ÎµÎ½",
        "Î¿Î¹"
      ],
      [
        "ÜĺÜķ",
        "Ü«ÜĲ"
      ],
      [
        "ÜĹÜĿÜ¡Ü¢",
        "ÜĺÜ¬ÜĲ"
      ],
      [
        "ĠÎľ",
        "ÎĳÎ¤"
      ],
      [
        "Îĵ",
        "Îĵ"
      ],
      [
        "ĠÎµá¼´",
        "ÏĢ"
      ],
      [
        "ÎĳÎ¤",
        "á¾º"
      ],
      [
        "ĠÎľÎĳÎ¤",
        "Îĺ"
      ],
      [
        "ĠÎ",
        "Ľ"
      ],
      [
        "Ü¡",
        "Üĺ"
      ],
      [
        "Ü¬",
        "ÜŁ"
      ],
      [
        "Ïī",
        "Î¼ÎµÎ½"
      ],
      [
        "ĠÏĢ",
        "Îµ"
      ],
      [
        "ĠÜ¡",
        "Ü«"
      ],
      [
        "Î´",
        "Î¿Î½"
      ],
      [
        "ĠÏĥ",
        "ÏĦ"
      ],
      [
        "á½´",
        "ÏĤ"
      ],
      [
        "ĠÎ³",
        "Îµ"
      ],
      [
        "ĠÜĺÜĲ",
        "ÜĻ"
      ],
      [
        "ĠÜ«",
        "ÜĲ"
      ],
      [
        "Õ¸ÖĤ",
        "Õ´"
      ],
      [
        "Î½Îµ",
        "ÏĤ"
      ],
      [
        "ĠÏĩ",
        "ÎµÎ¹"
      ],
      [
        "Õ¡ÖĢÕ",
        "ªÕ¡Õ¶"
      ],
      [
        "ĠÕ¸",
        "ÖĤ"
      ],
      [
        "Õ¥Õ½",
        "ÖģÕ«"
      ],
      [
        "Î²Î¬",
        "Î»Î»"
      ],
      [
        "Î",
        "£"
      ],
      [
        "Üł",
        "Ü©"
      ],
      [
        "ĠÏĦ",
        "ÏīÎ½"
      ],
      [
        "ĠÜĲ",
        "ÜĴÜĿ"
      ],
      [
        "ĠÎº",
        "Î¹Î½"
      ],
      [
        "ĠÏĢ",
        "Î»Î·"
      ],
      [
        "Î³",
        "ÎµÎ½"
      ],
      [
        "Î´",
        "ÎµÎ½"
      ],
      [
        "ÜłÜĲ",
        "ÜŁÜĲ"
      ],
      [
        "ĠÕ",
        "Ń"
      ],
      [
        "Õ«",
        "ÖĢ"
      ],
      [
        "ĠÜĿ",
        "ÜĺÜļÜ¢Ü¢"
      ],
      [
        "ĠÜ©",
        "ÜķÜĿ"
      ],
      [
        "ÜķÜ¥",
        "ÜĿÜ¢"
      ],
      [
        "ÜĺÜª",
        "ÜĴÜĲ"
      ],
      [
        "Îļ",
        "ÎĳÎ¤á¾º"
      ],
      [
        "Îĳ",
        "ÎĵÎĵ"
      ],
      [
        "ÜĴÜªÜĹ",
        "Ü¡"
      ],
      [
        "ĠÎ¼ÏĮÎ½",
        "Î¿Î½"
      ],
      [
        "Î¥",
        "ÎĳÎĵÎĵ"
      ],
      [
        "Õ",
        "»"
      ],
      [
        "ÜĿ",
        "ÜĺÜĹÜĿ"
      ],
      [
        "ÜĹ",
        "ÜłÜĿÜ¢"
      ],
      [
        "Î»",
        "Î®"
      ],
      [
        "Î¼",
        "Î¿Ïħ"
      ],
      [
        "Îº",
        "ÏĮ"
      ],
      [
        "ĠÏĢ",
        "Î¬Ïĥ"
      ],
      [
        "ĠÜ¡",
        "ÜĽ"
      ],
      [
        "Ü©",
        "ÜĴÜł"
      ],
      [
        "ĠÜĴ",
        "ÜŁÜł"
      ],
      [
        "ĠÜłÜĲ",
        "ÜłÜĹÜĲ"
      ],
      [
        "ĠÜķÜ¡",
        "Ü¬"
      ],
      [
        "Ü«Ü¡",
        "Ü¥ÜĺÜ¢"
      ],
      [
        "ĠÎ½",
        "á¿¦Î½"
      ],
      [
        "ÎºÎ±",
        "ÏĦÎ±"
      ],
      [
        "Ġá½ĳÎ¼",
        "Îµá¿ĸÏĤ"
      ],
      [
        "ÖĦ",
        "Õ¶"
      ],
      [
        "ĠÎ¤",
        "Î¯"
      ],
      [
        "Ġá¼¦",
        "Î½"
      ],
      [
        "Ġá½¥",
        "ÏĥÏĢÎµÏģ"
      ],
      [
        "Ü¬",
        "ÜŁÜĺÜ¢"
      ],
      [
        "Ïģ",
        "Î¿á¿¦"
      ],
      [
        "ĠÜķ",
        "ÜŁÜł"
      ],
      [
        "ÜŁ",
        "ÜĺÜł"
      ],
      [
        "ĠÎº",
        "Ïħ"
      ],
      [
        "Ü¥",
        "ÜĴ"
      ],
      [
        "ĠÏĢ",
        "Î¬"
      ],
      [
        "Î¸",
        "ÏħÎ¼"
      ],
      [
        "ĠÏĥ",
        "Î±"
      ],
      [
        "ĠÎ±á½ĲÏĦ",
        "á½¸ÏĤ"
      ],
      [
        "Î¼ÎµÎ½",
        "Î¿Î¹"
      ],
      [
        "ĠÜ¦",
        "ÜĿÜłÜĽÜĺÜ£"
      ],
      [
        "Î®Ïĥ",
        "Î¿Î½ÏĦÎ±Î¹"
      ],
      [
        "á¾¿",
        "."
      ],
      [
        "ĠÜ«Ü¡",
        "Ü¥ÜĺÜ¢"
      ],
      [
        "ÜŁÜª",
        "ÜĻ"
      ],
      [
        "ĠÏĢÏĮ",
        "Î»"
      ],
      [
        "á¼ĺ",
        "Î¥ÎĳÎĵÎĵ"
      ],
      [
        "ĠÎ¦",
        "Î±ÏģÎ¹"
      ],
      [
        "Ïĥ",
        "Î·"
      ],
      [
        "Ü¬",
        "ÜĿÜª"
      ],
      [
        "Ü¬",
        "ÜĴÜĲ"
      ],
      [
        "Üķ",
        "Ü¨"
      ],
      [
        "ĠÜĲ",
        "Ü«Ü¬"
      ],
      [
        "Î³",
        "ÎµÎ¹"
      ],
      [
        "Ü£",
        "ÜĴ"
      ],
      [
        "ĠÎµ",
        "Î¹"
      ],
      [
        "ĠÎµ",
        "á½ĳ"
      ],
      [
        "ĠÎ±á½ĲÏĦ",
        "á¿¶"
      ],
      [
        "ĠÜ¥",
        "Ü¢"
      ],
      [
        "Üĵ",
        "ÜĲ"
      ],
      [
        "ÜĹÜĿ",
        "ÜŁÜłÜĲ"
      ],
      [
        "ĠÎ»",
        "ÎŃ"
      ],
      [
        "ĠÎ¸",
        "ÎµÎ¯"
      ],
      [
        "Î¼ÎŃÎ½",
        "ÏīÎ½"
      ],
      [
        "ÜĲÜ¢",
        "ÜĺÜ¢"
      ],
      [
        "ĠÎ¿á¼",
        "·Î¿Î½"
      ],
      [
        "ĠÏĦÎ¿Ïį",
        "ÏĦÏīÎ½"
      ],
      [
        "Î®Î¼",
        "ÎµÏģÎ¿Î½"
      ],
      [
        "ĠÏĢÏģÎµÏĥ",
        "Î²"
      ],
      [
        "Î",
        "Ķ"
      ],
      [
        "ÏĦ",
        "Î¿á¿ĸÏĤ"
      ],
      [
        "Î¹",
        "ÎµÏģ"
      ],
      [
        "Ïĥ",
        "Î¯"
      ],
      [
        "ĠÏĦ",
        "Î·"
      ],
      [
        "Ü«",
        "ÜĴÜĺ"
      ],
      [
        "ĠÜł",
        "ÜĴ"
      ],
      [
        "Ü¥",
        "ÜĿÜĲ"
      ],
      [
        "Üļ",
        "ÜĿÜ¢"
      ],
      [
        "Î³",
        "á½¼"
      ],
      [
        "ÏĮ",
        "Î»"
      ],
      [
        "Î´",
        "Ïį"
      ],
      [
        "ĠÜĴ",
        "ÜŁÜĺÜ¢"
      ],
      [
        "ĠÏĥ",
        "Î¿á½¶"
      ],
      [
        "Î±Î¹",
        "Î½"
      ],
      [
        "Õ¥",
        "ÖĢÕ"
      ],
      [
        "ĠÎ³",
        "ÏħÎ½"
      ],
      [
        "ÜķÜĲ",
        "Ü¢"
      ],
      [
        "ĠÜŁ",
        "ÜĲÜ¦ÜĲ"
      ],
      [
        "ĠÎºÎ±",
        "ÏĦÎ¬"
      ],
      [
        "ĠÜ«",
        "ÜªÜĿ"
      ],
      [
        "ÜłÜĿ",
        "ÜļÜĲ"
      ],
      [
        "á¾¶",
        "Î»Î»Î¿Î½"
      ],
      [
        "ÎºÎ±",
        "Î¸"
      ],
      [
        "Ġá¼ĢÎ½",
        "ÎŃ"
      ],
      [
        "Î®Ïĥ",
        "á¿ĥ"
      ],
      [
        "ÏĬ",
        "Î½"
      ],
      [
        "Ü©Üª",
        "ÜĴ"
      ],
      [
        "Î¤",
        "ÏĮÏĦÎµ"
      ],
      [
        "ĠÜ«Ü¡",
        "ÜĿÜĲ"
      ],
      [
        "Ġá½ķ",
        "Î´ÏīÏģ"
      ],
      [
        "ÏħÏĥ",
        "ÎµÎ½"
      ],
      [
        "ĠÎ²Î±ÏĥÎ¹Î»ÎµÎ¯",
        "Î±"
      ],
      [
        "Ġá¼¥",
        "Î»Î¹"
      ],
      [
        "Î¸ÏģÏīÏĢ",
        "Î¿ÏĤ"
      ],
      [
        "Î",
        "ľ"
      ],
      [
        "ÏĦ",
        "Î¿á½ºÏĤ"
      ],
      [
        "ÏĦ",
        "á¿³"
      ],
      [
        "Ïĥ",
        "Î¯Î±Î½"
      ],
      [
        "Ü¡",
        "ÜŁ"
      ],
      [
        "ÜĴ",
        "ÜĺÜĹÜĿ"
      ],
      [
        "Î¼",
        "Î·"
      ],
      [
        "ĠÎº",
        "ÏģÎ±"
      ],
      [
        "ĠÜł",
        "ÜĴÜĿÜ¬"
      ],
      [
        "Îº",
        "Î±Î»"
      ],
      [
        "Ġá½",
        "į"
      ],
      [
        "ĠÏĢ",
        "Î¬Î»Î¹Î½"
      ],
      [
        "ĠÜ¡",
        "Üł"
      ],
      [
        "Î´",
        "Ïģ"
      ],
      [
        "Î¿á¿¦",
        "ÏĤ"
      ],
      [
        "Ü©",
        "Üł"
      ],
      [
        "ĠÎ¼",
        "ÎµÏģ"
      ],
      [
        "ĠÏĥ",
        "ÏĨ"
      ],
      [
        "ĠÏĥ",
        "á½²"
      ],
      [
        "Î®",
        "Ïģ"
      ],
      [
        "ĠÜ¥",
        "Ü¡ÜĲ"
      ],
      [
        "ÏĥÏĦ",
        "Î¬"
      ],
      [
        "ĠÜĲÜ¡",
        "Üª"
      ],
      [
        "á¼Ĳ",
        "ÏĢ"
      ],
      [
        "Ġá¼ĲÎ³",
        "á½¼"
      ],
      [
        "ĠÎ¼Î±",
        "Îº"
      ],
      [
        "Ġá¼ĦÎ½",
        "Î¸ÏģÏī"
      ],
      [
        "ĠÎ³á¿Ĩ",
        "Î½"
      ],
      [
        "Î´Î¬",
        "ÏĥÎº"
      ],
      [
        "Ô",
        "µ"
      ],
      [
        "Ü¬",
        "Üĺ"
      ],
      [
        "ÏĢ",
        "Î¬Î½"
      ],
      [
        "Ü«",
        "Ü¢"
      ],
      [
        "ĠÜĺ",
        "ÜłÜ¡"
      ],
      [
        "ĠÎ´",
        "Ïİ"
      ],
      [
        "Î¿á¿¦",
        "ÏĥÎ¹Î½"
      ],
      [
        "Ü¦",
        "Ü¢ÜĲ"
      ],
      [
        "ĠÜĿ",
        "ÜĺÜ¡"
      ],
      [
        "ÜĹÜĺ",
        "Ü¬"
      ],
      [
        "ĠÜļ",
        "ÜłÜ¦"
      ],
      [
        "Ġá¼Ķ",
        "Î½"
      ],
      [
        "ĠÜ«",
        "ÜĴ"
      ],
      [
        "Ü¨",
        "ÜļÜĲ"
      ],
      [
        "ÏĥÎµ",
        "Î»Î¸"
      ],
      [
        "ĠÂ",
        "²"
      ],
      [
        "á¼Ģ",
        "Î»Î»"
      ],
      [
        "ÏĦá½°",
        "ÏĤ"
      ],
      [
        "ÏĥÏĦÎ¹",
        "ÏĤ"
      ],
      [
        "ĠÜĽ",
        "ÜĴ"
      ],
      [
        "ĠÜĺÜ¢",
        "Ü¦"
      ],
      [
        "Î»ÎŃ",
        "ÏĢ"
      ],
      [
        "ĠÎ±á½ĳ",
        "ÏĦá¿¶Î½"
      ],
      [
        "ĠÎµá¼¶ÏĢ",
        "Î¿Î½"
      ],
      [
        "Ġá¼ĦÎ½",
        "Ïī"
      ],
      [
        "ĠÕ¥",
        "Õ©Õ§"
      ],
      [
        "ĠÎ´Î¹Î±",
        "ÏĨ"
      ],
      [
        "á¿ĨÎ»Î¸",
        "Î¿Î½"
      ],
      [
        "Î³Î³",
        "ÎµÎ»"
      ],
      [
        "ĠÎĺÎµ",
        "Î¿á¿¦"
      ],
      [
        "ĠÜĴÜłÜļ",
        "ÜĺÜķ"
      ],
      [
        "Îµ",
        "Î²"
      ],
      [
        "Ü¬",
        "ÜĺÜĴ"
      ],
      [
        "Ïģ",
        "á½¸Î½"
      ],
      [
        "Î¼",
        "Î¹Î½"
      ],
      [
        "ÜŁ",
        "Ü¢"
      ],
      [
        "ĠÜ¡",
        "ÜªÜ¢"
      ],
      [
        "Î³",
        "Î¿Î½"
      ],
      [
        "ĠÎ¼",
        "á¾¶Î»Î»Î¿Î½"
      ],
      [
        "Üĵ",
        "Ü¡"
      ],
      [
        "ĠÎ³",
        "ÏģÎ±Î¼"
      ],
      [
        "ĠÜŁ",
        "Ü¢"
      ],
      [
        "Î¿Ïį",
        "Î¼ÎµÎ½Î¿ÏĤ"
      ],
      [
        "ĠÜª",
        "ÜĴ"
      ],
      [
        "ĠÜ¦",
        "ÜĲÜª"
      ],
      [
        "Î»Îµ",
        "Ïį"
      ],
      [
        "ĠÜķÜĿ",
        "Ü«ÜĺÜ¥"
      ],
      [
        "Ü¡Üª",
        "Ü¢"
      ],
      [
        "ĠÕ¯",
        "Õ¡Õ´"
      ],
      [
        "ĠÏĦÎ¹",
        "ÏĤ"
      ],
      [
        "ĠÜŁÜłÜĹ",
        "ÜĿÜ¢"
      ],
      [
        "Ġá¼¸Ïī",
        "Î¬Î½Î½"
      ],
      [
        "Ë",
        "ĳ"
      ],
      [
        "Î½",
        "Î®"
      ],
      [
        "ÏĦ",
        "á¿·"
      ],
      [
        "Îµ",
        "á½¶"
      ],
      [
        "Î¹",
        "Î¶"
      ],
      [
        "ĠÏĦ",
        "ÏģÎ¹"
      ],
      [
        "Ü«",
        "ÜĿÜ¢"
      ],
      [
        "ĠÏĢ",
        "Î¹"
      ],
      [
        "ĠÎ´",
        "Î±Î¹"
      ],
      [
        "ĠÎ´",
        "Î¿ÏįÎ»"
      ],
      [
        "Î¿á¿¦",
        "ÏĥÎ±"
      ],
      [
        "Î¿Ïħ",
        "Î´Î±"
      ],
      [
        "Ü©",
        "ÜĿÜ¢"
      ],
      [
        "Ïĩ",
        "Î¸"
      ],
      [
        "Õ¡Õ",
        "¦"
      ],
      [
        "ÏĦÎµ",
        "Ïį"
      ],
      [
        "ĠÜ¥",
        "Üķ"
      ],
      [
        "Õ¡Õ¶",
        "Õ¥Õ¬"
      ],
      [
        "ĠÜķÜ¡",
        "ÜªÜĿÜĲ"
      ],
      [
        "ÜĲÜ¢",
        "Ü«"
      ],
      [
        "Õ¯",
        "Õ¶"
      ],
      [
        "Õ¡ÖĢÕ",
        "¤"
      ],
      [
        "Õ¸ÖĤÕ©",
        "Õ¢"
      ],
      [
        "ĠÏĢÎ¿Î¹",
        "Îµá¿ĸ"
      ],
      [
        "ĠÏĪÏħÏĩ",
        "á¿ĨÏĤ"
      ],
      [
        "ĠÎĽ",
        "ÎŃÎ³"
      ],
      [
        "ĵ",
        "Î½"
      ],
      [
        "Üł",
        "ÜĿÜ¬"
      ],
      [
        "Ïĥ",
        "ÏĢÎ¿"
      ],
      [
        "Üª",
        "ÜŁÜĲ"
      ],
      [
        "ÏĢ",
        "ÎŃ"
      ],
      [
        "ĠÏĦ",
        "ÏģÎ¯"
      ],
      [
        "Î¼",
        "Î¿ÏĤ"
      ],
      [
        "Î¼",
        "á½´Î½"
      ],
      [
        "ĠÜĲ",
        "ÜĿÜ¢ÜĲ"
      ],
      [
        "ĠÜĲ",
        "ÜªÜ¥ÜĲ"
      ],
      [
        "ĠÎº",
        "Î¿"
      ],
      [
        "ĠÜ¡",
        "Üļ"
      ],
      [
        "Î´",
        "ÏģÎ±"
      ],
      [
        "Ü¦",
        "Ü«"
      ],
      [
        "Ïĩ",
        "Î¿ÏĤ"
      ],
      [
        "ĠÎ¼",
        "ÎŃÎ½"
      ],
      [
        "ĠÎ±á½ĲÏĦ",
        "á½´Î½"
      ],
      [
        "Ü«Üĺ",
        "ÜĴ"
      ],
      [
        "ĠÎ¸",
        "Î±Î»"
      ],
      [
        "ĠÜ¡Ü¢",
        "ÜŁÜĺÜ¢"
      ],
      [
        "Ġá¼ĢÏĢ",
        "ÎŃ"
      ],
      [
        "Ġá½ħ",
        "ÏĢÏīÏĤ"
      ],
      [
        "ÜĴÜª",
        "ÜĿÜ¢"
      ],
      [
        "ÜķÜĿÜ¢",
        "ÜĲ"
      ],
      [
        "Õ¥Õ",
        "¯"
      ],
      [
        "ÏĥÎ±",
        "á¿ĸÎ¿Î¹"
      ],
      [
        "ĠÎ½",
        "Î¿"
      ],
      [
        "ÎŃÏģ",
        "Î¿ÏĤ"
      ],
      [
        "ÜļÜª",
        "Ü¢ÜĲ"
      ],
      [
        "ĠÎ¸Îµ",
        "Î¿á¿¦"
      ],
      [
        "Î¼Îµ",
        "Î¸Î±"
      ],
      [
        "Öħ",
        "ÖĢ"
      ],
      [
        "ÏĮÏĦÎ·",
        "ÏĦÎ¿ÏĤ"
      ],
      [
        "ĠÜ¡ÜłÜŁ",
        "ÜĲ"
      ],
      [
        "ĠÜ¡ÜłÜŁ",
        "ÜĺÜ¬ÜĲ"
      ],
      [
        "Ġ",
        "Î½Î±"
      ],
      [
        "ÏĦ",
        "ÏĬ"
      ],
      [
        "Î¹",
        "ÏĥÎ¼"
      ],
      [
        "Ü¡",
        "ÜĿÜĲ"
      ],
      [
        "ÜĹ",
        "ÜĿÜ¢"
      ],
      [
        "ĠÏĦ",
        "Î¬"
      ],
      [
        "ĠÜķ",
        "Ü¡ÜĲ"
      ],
      [
        "Î¼",
        "ÏĨ"
      ],
      [
        "ĠÎº",
        "Î¿Î¹"
      ],
      [
        "Ü¥",
        "ÜłÜĿ"
      ],
      [
        "ĠÜĺ",
        "Üª"
      ],
      [
        "ĠÏĢ",
        "ÎŃ"
      ],
      [
        "Î¸",
        "Î¿ÏĤ"
      ],
      [
        "Ġá¼Ĳ",
        "Î»"
      ],
      [
        "ĠÜ¡",
        "ÜĿÜ¬"
      ],
      [
        "Ü©",
        "ÜĺÜ¡"
      ],
      [
        "Ü£",
        "Ü¬"
      ],
      [
        "ÜĽ",
        "ÜĿÜĲ"
      ],
      [
        "ĠÎ³",
        "Î¹Î½"
      ],
      [
        "ĠÜŁ",
        "ÜĹ"
      ],
      [
        "Ġá¼Ķ",
        "Î¼ÏĢ"
      ],
      [
        "Õ¡Õ¶",
        "Öģ"
      ],
      [
        "Î¶",
        "Î¿Î½"
      ],
      [
        "Î¼ÎŃÎ½",
        "Î¿Î½"
      ],
      [
        "á¼Ģ",
        "ÏĢÎ¿"
      ],
      [
        "Î®Ïĥ",
        "Î±ÏĤ"
      ],
      [
        "ÏĥÎ±Î½",
        "ÏĦÎµÏĤ"
      ],
      [
        "Ġá¼ĢÏĢÎ¿",
        "ÎºÏģÎ¹Î¸Îµá½¶ÏĤ"
      ],
      [
        "ÎŃÎ»",
        "ÎµÎ¹"
      ],
      [
        "ĠÕ¸",
        "ÖĢ"
      ],
      [
        "Î±Î³",
        "Î³"
      ],
      [
        "ĠÎ¿á½ķ",
        "ÏĦÏī"
      ],
      [
        "Ġá¼ĢÏģÏĩ",
        "Î¹ÎµÏģ"
      ],
      [
        "ĠÜłÜļ",
        "Ü¡ÜĲ"
      ],
      [
        "Îµá¼",
        "¶"
      ],
      [
        "ÎºÎ¿Î»",
        "Î¿Ïį"
      ],
      [
        "Ġá¿",
        "¯"
      ],
      [
        "Ôµ",
        "Õ©Õ§"
      ],
      [
        "Ö",
        "ĥ"
      ],
      [
        "Ý",
        "ģ"
      ],
      [
        "ÜĲ",
        "Ü¬ÜĲ"
      ],
      [
        "ĠÎ",
        "ķá¼°"
      ],
      [
        "ĠÜķ",
        "Ü«Ü¡ÜĿÜĲ"
      ],
      [
        "Îº",
        "Î¿Î½"
      ],
      [
        "Î·",
        "Î»"
      ],
      [
        "Ü¦",
        "Ü¢"
      ],
      [
        "ĠÎ¼",
        "Î±Ïģ"
      ],
      [
        "Õ¸",
        "Õ½"
      ],
      [
        "Î¼Î±",
        "ÏĦÎ¯"
      ],
      [
        "ÏģÎ±",
        "ÏĨ"
      ],
      [
        "ĠÜ£",
        "ÜĵÜĿ"
      ],
      [
        "Õ¥Õ",
        "¦"
      ],
      [
        "Î¼ÎŃÎ½",
        "Î·"
      ],
      [
        "á¿¦",
        "Î¼Î±"
      ],
      [
        "Õ´",
        "Õ«"
      ],
      [
        "ĠÜ¥Ü¡",
        "ÜĹÜĺÜ¢"
      ],
      [
        "ĠÕ¦",
        "Õ«"
      ],
      [
        "Î¿Î»",
        "Î¿Î³"
      ],
      [
        "ĠÏĢÎ¬Î½",
        "ÏĦÏīÎ½"
      ],
      [
        "Î¿Î¼ÎŃÎ½",
        "ÏīÎ½"
      ],
      [
        "Î½",
        "Ïħ"
      ],
      [
        "Î±",
        "Î´"
      ],
      [
        "Ü¢",
        "Üļ"
      ],
      [
        "Ġá¼",
        "ĵÎ½"
      ],
      [
        "Ïĥ",
        "Î¼Î±"
      ],
      [
        "Ü¡",
        "Ü«Ü¬"
      ],
      [
        "Ü¬",
        "ÜĹÜĺÜ¢"
      ],
      [
        "ÏĢ",
        "Î½"
      ],
      [
        "ÜĹ",
        "ÜŁÜ¢ÜĲ"
      ],
      [
        "ĠÜķ",
        "Ü¥Ü¡"
      ],
      [
        "ĠÜĲ",
        "Üª"
      ],
      [
        "ĠÜł",
        "Ü£"
      ],
      [
        "Ü¥",
        "ÜĺÜª"
      ],
      [
        "Ġá½",
        "¦"
      ],
      [
        "Î¸",
        "á¿ĩ"
      ],
      [
        "Î´",
        "Ïħ"
      ],
      [
        "ĠÕ",
        "©Õ§"
      ],
      [
        "ĠÏĥ",
        "ÏħÎ³"
      ],
      [
        "ĠÜ¢",
        "Ü¨"
      ],
      [
        "Î±Ïģ",
        "Îº"
      ],
      [
        "ĠÜĿ",
        "ÜĹ"
      ],
      [
        "Ġá½ĳ",
        "Î³"
      ],
      [
        "ĠÎ¸",
        "ÎŃ"
      ],
      [
        "ÏĥÏĦ",
        "Î¿Î½"
      ],
      [
        "Õ¸ÖĤ",
        "Öģ"
      ],
      [
        "Î®Ïĥ",
        "ÎµÎ¹ÏĤ"
      ],
      [
        "ÜŁÜĲ",
        "Ü¦ÜĲ"
      ],
      [
        "ĠÜķÜļ",
        "Üķ"
      ],
      [
        "ÜłÜł",
        "ÜĿÜĲ"
      ],
      [
        "Õ¡Õµ",
        "Õ¶"
      ],
      [
        "ÜĹÜĿÜ¡Ü¢",
        "ÜĿÜ¢"
      ],
      [
        "Õº",
        "Õ¡Õ¶"
      ],
      [
        "Öħ",
        "ÖĦ"
      ],
      [
        "ĠÎºÎµ",
        "ÏĨÎ±Î»"
      ],
      [
        "ĠÎ¿á½Ĺ",
        "ÏĦÎ¿ÏĤ"
      ],
      [
        "Î¿Ïĥ",
        "ÏįÎ½"
      ],
      [
        "á¿ĨÎ»Î¸",
        "ÎµÎ½"
      ],
      [
        "ĠÕ¡Õº",
        "Õ¡Õ·ÕŃÕ¡ÖĢ"
      ],
      [
        "Ġá¼ĶÎ¼ÏĢ",
        "ÏģÎ¿"
      ],
      [
        "ÏĢ",
        "Ïģá½¸ÏĤ"
      ],
      [
        "ĠÏĦ",
        "Î¿Î¹"
      ],
      [
        "ĠÏĦ",
        "ÏħÏĨ"
      ],
      [
        "Î»",
        "ÎµÎ¹"
      ],
      [
        "ĠÜķ",
        "Ü¬Üª"
      ],
      [
        "Î¼",
        "á½¸ÏĤ"
      ],
      [
        "ÜŁ",
        "Üĺ"
      ],
      [
        "ĠÜł",
        "ÜĺÜ©"
      ],
      [
        "ĠÏĢ",
        "ÏħÏģ"
      ],
      [
        "Î¬",
        "Î¼ÎµÎ½Î¿ÏĤ"
      ],
      [
        "Ïĩ",
        "Ïģ"
      ],
      [
        "ĠÏĥ",
        "Ïĩ"
      ],
      [
        "ĠÏĥ",
        "ÏĦÏĮ"
      ],
      [
        "ÜĿÜ¬",
        "ÜĹ"
      ],
      [
        "Õ¸",
        "ÖĦ"
      ],
      [
        "ĠÎ»",
        "Ïį"
      ],
      [
        "ÜĹÜĺ",
        "Üķ"
      ],
      [
        "Õ¡Õ¶",
        "Õ¤"
      ],
      [
        "ĠÜª",
        "ÜĴÜĲ"
      ],
      [
        "ĠÏĢÏģÎ¿",
        "ÏĥÎº"
      ],
      [
        "ĠÏĩ",
        "Îµá¿ĸ"
      ],
      [
        "Î®Ïĥ",
        "Ïī"
      ],
      [
        "ĠÖĩ",
        "Õ¦"
      ],
      [
        "Ġá½ĳÏĢ",
        "á½²Ïģ"
      ],
      [
        "ĠÜĻ",
        "ÜĴÜ¢ÜĲ"
      ],
      [
        "Î´Îµ",
        "ÎºÎ±"
      ],
      [
        "Î¿Î¼",
        "Î±Î¹"
      ],
      [
        "ĠÏħá¼±",
        "á½¸Î½"
      ],
      [
        "ÜĽÜĿ",
        "Ü¬ÜĲ"
      ],
      [
        "ĠÏĦÎ¹",
        "Î¼"
      ],
      [
        "ÏįÏģÎ¹",
        "Î¿ÏĤ"
      ],
      [
        "ĠÜĺÜĹ",
        "ÜĲ"
      ],
      [
        "ĠÏĢÏģÎ¿ÏĨÎ®",
        "ÏĦÎ¿Ïħ"
      ],
      [
        "Õ",
        "¼"
      ],
      [
        "Ö",
        "Ĭ"
      ],
      [
        "á½",
        "Ħ"
      ],
      [
        "á½",
        "į"
      ],
      [
        "ÏĦ",
        "á½¶"
      ],
      [
        "Üĺ",
        "Ü¥"
      ],
      [
        "ÜŁ",
        "ÜĿÜ¢"
      ],
      [
        "Ïħ",
        "Î¸"
      ],
      [
        "Î¯",
        "á¿³"
      ],
      [
        "ĠÜ¡",
        "Ü¨"
      ],
      [
        "Î´",
        "Î¿á½º"
      ],
      [
        "Ü¦",
        "ÜĿÜª"
      ],
      [
        "ĠÎ¼",
        "ÎŃÎ³"
      ],
      [
        "ĠÏĥ",
        "ÏĦÎ±"
      ],
      [
        "ĠÏĥ",
        "Ïį"
      ],
      [
        "ÜĽ",
        "ÜĴ"
      ],
      [
        "ĠÎ±á½ĲÏĦ",
        "á½¸"
      ],
      [
        "ĠÜ¥",
        "ÜĴÜķÜĲ"
      ],
      [
        "ĠÎ³",
        "Î±Ïģ"
      ],
      [
        "ĠÜ¢",
        "Ü¡ÜĺÜ£ÜĲ"
      ],
      [
        "ĠÎ»",
        "Î±Î»"
      ],
      [
        "Î¼Î±",
        "ÏĦÎµ"
      ],
      [
        "Ġá¼Ķ",
        "Î»Îµ"
      ],
      [
        "Ġá¼Ķ",
        "ÏĥÏĦÎ¹"
      ],
      [
        "ĠÎ¸",
        "Î¬Î»Î±"
      ],
      [
        "ĠÜ¬",
        "Ü¬"
      ],
      [
        "ÜªÜĿ",
        "Ü«"
      ],
      [
        "ĠÜ£",
        "ÜĿ"
      ],
      [
        "ĠÜ£",
        "ÜĵÜĿÜĲÜĲ"
      ],
      [
        "Õ¸Õ",
        "¹"
      ],
      [
        "ÏģÎ¿",
        "ÏĨ"
      ],
      [
        "ĠÎ¿á¼",
        "´"
      ],
      [
        "ĠÎ±á¼°",
        "ÏĦ"
      ],
      [
        "ĠÜķÜł",
        "Ü¥ÜłÜ¡"
      ],
      [
        "á½ħ",
        "ÏĦÎ¹"
      ],
      [
        "ĠÏĢÎ½Îµ",
        "Ïį"
      ],
      [
        "¤",
        "á¿¥"
      ],
      [
        "Ü",
        "Ĥ"
      ],
      [
        "ÜĿ",
        "ÜķÜ¥"
      ],
      [
        "Ïĥ",
        "ÏĨ"
      ],
      [
        "Ïĥ",
        "ÎµÎ¹ÏĤ"
      ],
      [
        "Ü¡",
        "Üł"
      ],
      [
        "Ïģ",
        "á¿¶Î½"
      ],
      [
        "ÏĢ",
        "ÎµÎ½"
      ],
      [
        "ÏĢ",
        "ÏĦÎ¹"
      ],
      [
        "ĠÜķ",
        "Ü¥ÜłÜ¡ÜĲ"
      ],
      [
        "ÜŁ",
        "ÜłÜĹÜĺÜ¢"
      ],
      [
        "ĠÎº",
        "Ïį"
      ],
      [
        "Ïī",
        "Ïĥ"
      ],
      [
        "Ġá¼Ĳ",
        "Î»Î±"
      ],
      [
        "ĠÜ¡",
        "ÜłÜ¦"
      ],
      [
        "Õ¡",
        "ÖĦ"
      ],
      [
        "Î¬",
        "ÏģÏĩ"
      ],
      [
        "Ü©",
        "Ü¢"
      ],
      [
        "ĠÜĴ",
        "Ü¬"
      ],
      [
        "ÏĨ",
        "ÏīÎ½"
      ],
      [
        "ÏĦÎµ",
        "Î¹Î½"
      ],
      [
        "Î±Î½",
        "ÏĦÎ±"
      ],
      [
        "ĠÎµá¼",
        "·ÏĤ"
      ],
      [
        "Õ«",
        "Õ¯"
      ],
      [
        "Õ«",
        "ÖģÕ«"
      ],
      [
        "ÜĻ",
        "ÜĿÜ¢"
      ],
      [
        "ĠÜŁ",
        "Ü¢Ü«ÜĲ"
      ],
      [
        "Ġá¼Ķ",
        "Î¾Ïī"
      ],
      [
        "ÎµÎ¯",
        "Î±Î½"
      ],
      [
        "ÜłÜĿ",
        "ÜĽ"
      ],
      [
        "ÏĪ",
        "Î±ÏĤ"
      ],
      [
        "ÜłÜŁ",
        "ÜĺÜ¬ÜĲ"
      ],
      [
        "á¿¦",
        "ÏĥÎ±Î¹"
      ],
      [
        "Î±á½ĲÏĦ",
        "á½¸Î½"
      ],
      [
        "ĠÕ¸",
        "Õ¹"
      ],
      [
        "ĠÜķÜł",
        "ÜĿÜ¬"
      ],
      [
        "ĠÏĢá¾¶",
        "ÏĥÎ±Î½"
      ],
      [
        "ĠÎºÎ±Ïģ",
        "ÏĢ"
      ],
      [
        "ĠÎ±á¼",
        "´"
      ],
      [
        "Ġá¼¡Î¼ÎŃÏģ",
        "Î±ÏĤ"
      ],
      [
        "ĠÕ¡Õµ",
        "Õ¬"
      ],
      [
        "ÜĲ",
        "ÜĿ"
      ],
      [
        "ÜĲ",
        "ÜĿÜłÜĿÜ¢"
      ],
      [
        "á½",
        "ķ"
      ],
      [
        "Îµ",
        "Îº"
      ],
      [
        "ĠÏĦ",
        "Î¿Î½"
      ],
      [
        "Î¼",
        "á¿ĸÎ½"
      ],
      [
        "ĠÜĲ",
        "Ü«"
      ],
      [
        "ÜŁ",
        "ÜłÜĹ"
      ],
      [
        "Ġá¼Ĳ",
        "Î»Îµ"
      ],
      [
        "Ġá¼Ĳ",
        "Î¼ÏĢ"
      ],
      [
        "ĠÜ¡",
        "Ü«Ü¬"
      ],
      [
        "ĠÜ¡",
        "Ü¡ÜłÜł"
      ],
      [
        "ĠÜĴ",
        "Ü¨"
      ],
      [
        "ĠÎ¼",
        "Î¬"
      ],
      [
        "ÜĹÜĿ",
        "ÜķÜĿÜ¢"
      ],
      [
        "Ġá½ģ",
        "ÏĢÎ¿á¿¦"
      ],
      [
        "ĠÜĿ",
        "Ü¬ÜĿ"
      ],
      [
        "Î¾",
        "ÎµÎ½"
      ],
      [
        "ĠÎµá¼°",
        "Ïģ"
      ],
      [
        "Ġá¼Ķ",
        "Î½Î±Î¹"
      ],
      [
        "Ġá¼Ķ",
        "ÏģÏĩ"
      ],
      [
        "Õ¡Õ¶",
        "Õ¶"
      ],
      [
        "ÖĢÕ",
        "¤"
      ],
      [
        "ĠÎ±",
        "ÏħÏĦ"
      ],
      [
        "ĠÜ£",
        "Üĵ"
      ],
      [
        "ĠÂ",
        "³"
      ],
      [
        "Ü«Ü¡",
        "ÜĹ"
      ],
      [
        "Î¼ÎŃÎ½",
        "Î¿Î¹"
      ],
      [
        "á¼Ĳ",
        "Î¾"
      ],
      [
        "ÏĢÎ¿",
        "ÏĦÎµ"
      ],
      [
        "Õ¯",
        "Õ¡Õ´"
      ],
      [
        "á¿ĥ",
        "ÏĤ"
      ],
      [
        "Ġá½ĳÏĢ",
        "ÎµÏģ"
      ],
      [
        "ÜĿÜ¡",
        "Ü¬ÜĲ"
      ],
      [
        "ĠÜĽ",
        "ÜĿ"
      ],
      [
        "ÏĮÏĦÎµ",
        "ÏģÎ¿Î½"
      ],
      [
        "ÜļÜĻ",
        "ÜĿ"
      ],
      [
        "Ġá¼ĦÎ½",
        "Î¸ÏģÏīÏĢÎ¿ÏĤ"
      ],
      [
        "ĠÏĢá¾¶",
        "ÏĥÎ±"
      ],
      [
        "ĠÜĿÜķÜ¥",
        "ÜĿÜ¢"
      ],
      [
        "ÏħÏģÎ¯",
        "Î¿Ïħ"
      ],
      [
        "ĠÜĲÜļÜª",
        "Ü¢ÜĲ"
      ],
      [
        "ĠÏĢÏģÎ¿ÏĥÎµ",
        "Î»Î¸"
      ],
      [
        "ÎŁ",
        "á½Ĳ"
      ],
      [
        "á½",
        "¡"
      ],
      [
        "ÏĦ",
        "ÏĮÎ½"
      ],
      [
        "Î¿",
        "Î¼Î±"
      ],
      [
        "Î¿",
        "á¼±"
      ],
      [
        "Üĺ",
        "ÜĴÜĲ"
      ],
      [
        "Ü¡",
        "Ü«"
      ],
      [
        "Ïģ",
        "Î¼"
      ],
      [
        "ÏĢ",
        "Î±Î³"
      ],
      [
        "ÜĴ",
        "ÜĺÜ¢"
      ],
      [
        "Î»",
        "ÏĮÎ³"
      ],
      [
        "Î¼",
        "ÎŃ"
      ],
      [
        "Ïħ",
        "ÏĢ"
      ],
      [
        "ĠÜł",
        "Üĺ"
      ],
      [
        "Îº",
        "Îµá¿ĸ"
      ],
      [
        "Îº",
        "ÏģÎ±"
      ],
      [
        "Ü¥",
        "ÜķÜ¡ÜĲ"
      ],
      [
        "ĠÜ¡",
        "Ü«ÜŁ"
      ],
      [
        "Î´",
        "Î±Î»"
      ],
      [
        "Ü¦",
        "Üł"
      ],
      [
        "ÏĦÎ±",
        "Î¯"
      ],
      [
        "ĠÜĴ",
        "ÜªÜĲ"
      ],
      [
        "Ü£",
        "ÜĴÜª"
      ],
      [
        "ĠÏĥ",
        "Î®Î¼ÎµÏģÎ¿Î½"
      ],
      [
        "ÎµÎ¹",
        "Î´"
      ],
      [
        "ÜĿÜĲ",
        "ÜĲ"
      ],
      [
        "ĠÜ¥",
        "Ü¢ÜĲ"
      ],
      [
        "ÜłÜĹ",
        "Ü¢ÜĲ"
      ],
      [
        "ÜĻ",
        "ÜĿ"
      ],
      [
        "ĠÜ¬",
        "ÜĹÜĺÜĲ"
      ],
      [
        "ĠÎ´Î¹",
        "ÏĮÏĦÎ¹"
      ],
      [
        "ÏģÎ±",
        "ÏĢ"
      ],
      [
        "Ġá¼Ħ",
        "Î³Î³ÎµÎ»"
      ],
      [
        "Î¼ÎŃÎ½",
        "Î·Î½"
      ],
      [
        "Ü¬ÜĿ",
        "Üķ"
      ],
      [
        "ĠÜĲÜĿÜ¬",
        "ÜĿÜĹ"
      ],
      [
        "ĠÜĴÜª",
        "Ü¢Ü«ÜĲ"
      ],
      [
        "Ü¥Ü¡",
        "Üķ"
      ],
      [
        "ĠÜłÜĺÜ¬",
        "ÜŁÜĺÜ¢"
      ],
      [
        "ĠÏĢÎ¬Î½",
        "ÏĦÎµÏĤ"
      ],
      [
        "ĠÏĢÎ¬Î½",
        "ÏĦÎ±ÏĤ"
      ],
      [
        "ÜļÜĻ",
        "ÜĺÜ¢"
      ],
      [
        "Î¿á¿¦Î½",
        "ÏĦÎµÏĤ"
      ],
      [
        "Ġá½ķ",
        "Î´Î±"
      ],
      [
        "Ġá¼ĲÎ¼",
        "Î¿á¿¦"
      ],
      [
        "Ġá½¥",
        "ÏĥÏĦÎµ"
      ],
      [
        "Ġá¼ĢÎ³",
        "Î³"
      ],
      [
        "ÜķÜĺ",
        "ÜĿÜķ"
      ],
      [
        "ĠÏĦÎŃ",
        "Îº"
      ],
      [
        "Î¼Î²",
        "Î¬Î½"
      ],
      [
        "Î½",
        "Î¿ÏĤ"
      ],
      [
        "ÏĦ",
        "Î¿Î¹ÏĤ"
      ],
      [
        "ÜĿ",
        "ÜªÜĲ"
      ],
      [
        "Üĺ",
        "ÜķÜĲ"
      ],
      [
        "ĠÜķ",
        "ÜĹÜĺ"
      ],
      [
        "Ü¥",
        "Ü¢"
      ],
      [
        "ĠÜĺ",
        "Ü¥Üł"
      ],
      [
        "Üļ",
        "ÜĹ"
      ],
      [
        "ĠÜ¡",
        "Üª"
      ],
      [
        "Î´",
        "á½²Î½"
      ],
      [
        "Î¿á¿¦",
        "ÏĥÎ¹"
      ],
      [
        "ĠÎ¼",
        "Î¿Î½"
      ],
      [
        "Ü£",
        "ÜĿÜ¢"
      ],
      [
        "ĠÏĥ",
        "ÏĦÎ¿Î¹"
      ],
      [
        "ĠÎµ",
        "ÏĢÎ¹"
      ],
      [
        "ĠÜķÜĲ",
        "Ü¢ÜĲ"
      ],
      [
        "Ïİ",
        "Ïģ"
      ],
      [
        "ĠÎµá¼°",
        "ÏĢ"
      ],
      [
        "ĠÎºÎ±",
        "ÏĦÎµ"
      ],
      [
        "Î»Î»",
        "Î±"
      ],
      [
        "Öģ",
        "Õ¥Õ¶"
      ],
      [
        "ÜĺÜ¬",
        "ÜŁÜĺÜ¢"
      ],
      [
        "Ġá½ħ",
        "ÏĥÏĦÎ¹ÏĤ"
      ],
      [
        "Ġá¼ĲÏĢ",
        "Î¯"
      ],
      [
        "Õ¡Õ¶",
        "Õ¸Õ¶"
      ],
      [
        "ÜĺÜĲ",
        "Ü¬"
      ],
      [
        "ÏĪ",
        "Î±"
      ],
      [
        "ĠÜĲÜ¬",
        "Ü¬"
      ],
      [
        "ĠÜĻ",
        "ÜĴ"
      ],
      [
        "ĠÜłÜĺÜ¬",
        "ÜĿ"
      ],
      [
        "ĠÕ«",
        "Õ¶"
      ],
      [
        "ĠÏħá¼±",
        "Î¿á¿¦"
      ],
      [
        "ÜĲÜĿÜ¬",
        "ÜĺÜĹÜĿ"
      ],
      [
        "ĠÂ¹",
        "Â"
      ],
      [
        "Ġá¼ĲÏĩ",
        "Î¸Ïģ"
      ],
      [
        "Ġá¼ĶÎ¼ÏĢÏģÎ¿",
        "ÏĥÎ¸ÎµÎ½"
      ],
      [
        "ĠÎ¸Î¬Î»Î±",
        "Ïĥ"
      ],
      [
        "Ġ",
        "Õ¡Õ¶"
      ],
      [
        "Îµ",
        "ÏĥÎ¸Î±Î¹"
      ],
      [
        "Ïĥ",
        "Î¯Î±"
      ],
      [
        "Ü¡",
        "Ü«ÜĲ"
      ],
      [
        "Üļ",
        "Ü¬"
      ],
      [
        "ĠÎ´",
        "ÎŃÎ½"
      ],
      [
        "Ġá¼Ģ",
        "Ïĥ"
      ],
      [
        "Î¿Ïħ",
        "ÏģÎ³"
      ],
      [
        "Ïĩ",
        "ÎµÏĦÎ±Î¹"
      ],
      [
        "ÏĨ",
        "Î±Î½"
      ],
      [
        "ĠÏĥ",
        "Î·Î¼"
      ],
      [
        "Î®",
        "ÏĥÎ±"
      ],
      [
        "ÜĻ",
        "Üª"
      ],
      [
        "ĠÜ¢",
        "Ü«Ü¬"
      ],
      [
        "Î²",
        "Î¿Î»"
      ],
      [
        "ĠÎ»",
        "Îµ"
      ],
      [
        "Ġá¼Ķ",
        "Ïģ"
      ],
      [
        "ĠÎ¸",
        "Ïħ"
      ],
      [
        "ĠÏĨ",
        "Î¸"
      ],
      [
        "Î¶",
        "ÏīÎ½"
      ],
      [
        "ÏģÎ¯",
        "Î±Î½"
      ],
      [
        "Õ¯",
        "Õ«Õ¶"
      ],
      [
        "ÏĦÎ·",
        "Ïģ"
      ],
      [
        "Ü©Üª",
        "ÜĴÜĺ"
      ],
      [
        "ÏĦÎŃ",
        "ÏģÎ±"
      ],
      [
        "ĠÜķÜ©",
        "ÜĺÜķÜ«ÜĲ"
      ],
      [
        "ĠÕ¾",
        "Õ½"
      ],
      [
        "ĠÏĢÎ±Î¹",
        "Î´Î¯"
      ],
      [
        "Ïģ",
        "á¿¶"
      ],
      [
        "Ïģ",
        "ÏĮÏĤ"
      ],
      [
        "ÜĹ",
        "Ü¢ÜĺÜ¢"
      ],
      [
        "ÜĴ",
        "Ü¡"
      ],
      [
        "Î¼",
        "á½´"
      ],
      [
        "Ïħ",
        "Îº"
      ],
      [
        "ĠÜł",
        "Ü¥ÜłÜ¡"
      ],
      [
        "ĠÜĺ",
        "Ü¢ÜĲ"
      ],
      [
        "Î¸",
        "á¿Ĩ"
      ],
      [
        "Ġá¼Ĳ",
        "Î»ÎŃ"
      ],
      [
        "ĠÜ¡",
        "ÜĹ"
      ],
      [
        "Î¬",
        "ÏĦ"
      ],
      [
        "ĠÜĴ",
        "Üł"
      ],
      [
        "ĠÜĴ",
        "Ü©"
      ],
      [
        "ĠÜĴ",
        "ÜĿÜķ"
      ],
      [
        "Ü£",
        "Üĵ"
      ],
      [
        "ĠÏĥ",
        "ÎµÎ»"
      ],
      [
        "ÜĿÜ¬",
        "ÜĿÜª"
      ],
      [
        "ĠÎ±á½ĲÏĦ",
        "Î®Î½"
      ],
      [
        "ĠÜĹÜĺ",
        "ÜĿÜ¬ÜĺÜ¢"
      ],
      [
        "ĠÜĿ",
        "Ü¬ÜĿÜª"
      ],
      [
        "Î¾",
        "Î±ÏĤ"
      ],
      [
        "ĠÜļ",
        "ÜĽ"
      ],
      [
        "ĠÎ¸",
        "á¿¦"
      ],
      [
        "Î·Ïĥ",
        "Î±ÏĤ"
      ],
      [
        "ĠÜ«",
        "ÜķÜª"
      ],
      [
        "ĠÜ«",
        "Ü¥Ü¬ÜĲ"
      ],
      [
        "ĠÜĲÜ¡",
        "Ü¬ÜĿ"
      ],
      [
        "ĠÎ´Î¹",
        "ÎºÎ±"
      ],
      [
        "ĠÎ´Î¹",
        "Î´Î¬ÏĥÎº"
      ],
      [
        "Õ½",
        "Õ¯"
      ],
      [
        "ÜªÜĿ",
        "Üĺ"
      ],
      [
        "ÖĢÕ",
        "¢"
      ],
      [
        "ÖĢÕ",
        "¿"
      ],
      [
        "ĠÜ£",
        "Ü¡"
      ],
      [
        "á¾¶",
        "Î½"
      ],
      [
        "ĠÜķÜ¢",
        "Ü¦"
      ],
      [
        "ÎµÎ»",
        "á¿¶Î½"
      ],
      [
        "ÏģÎ¯",
        "Î±ÏĤ"
      ],
      [
        "ĠÏĢÎ±Ïģ",
        "ÎŃ"
      ],
      [
        "á¼Ģ",
        "ÏĢá½¸"
      ],
      [
        "Ġá½ĳÏĢ",
        "ÏĮ"
      ],
      [
        "ĠÎ´Îµ",
        "Î¾Î¹"
      ],
      [
        "Î±á½ĲÏĦ",
        "á¿·"
      ],
      [
        "ÜĽÜĿ",
        "ÜĴ"
      ],
      [
        "ĠÜŁÜł",
        "Ü¢Ü«"
      ],
      [
        "Ġâģ",
        "´"
      ],
      [
        "Î¿Ïĥ",
        "ÏĮ"
      ],
      [
        "Ô",
        "¿"
      ],
      [
        "ÏĦ",
        "á¿Ĩ"
      ],
      [
        "ÏĦ",
        "á¿ĩ"
      ],
      [
        "Ïĥ",
        "Î¯Î±ÏĤ"
      ],
      [
        "Üª",
        "ÜĺÜ¢"
      ],
      [
        "ĠÏĦ",
        "ÏĮÎ½"
      ],
      [
        "ĠÜķ",
        "Ü«ÜĴÜ¬ÜĲ"
      ],
      [
        "Î¼",
        "ÎµÏģ"
      ],
      [
        "ÜŁ",
        "Ü£"
      ],
      [
        "ĠÎº",
        "Ïģ"
      ],
      [
        "Î¯",
        "Î¿ÏħÏĤ"
      ],
      [
        "Î¸",
        "Î¿Î½"
      ],
      [
        "Î´",
        "Î·ÏĤ"
      ],
      [
        "Î¿Ïħ",
        "Î¸"
      ],
      [
        "Ü£",
        "ÜĿÜª"
      ],
      [
        "Õ¡Õ",
        "£"
      ],
      [
        "á½²",
        "ÏĤ"
      ],
      [
        "ĠÎ±á½ĲÏĦ",
        "Î¿ÏįÏĤ"
      ],
      [
        "ĠÜĿ",
        "Üķ"
      ],
      [
        "Î¾",
        "Î¹Î½"
      ],
      [
        "Ü«Üĺ",
        "ÜŁÜĲ"
      ],
      [
        "ÜķÜ¡",
        "Ü¢"
      ],
      [
        "ÜĿÜŁ",
        "Ü¢ÜĲ"
      ],
      [
        "Ġá½ħ",
        "ÏĦÎµ"
      ],
      [
        "Ġá¼ĲÏĢ",
        "Î¿Î¯"
      ],
      [
        "Ġá¼Ħ",
        "Î½Îµ"
      ],
      [
        "ĠÏĢÎ±Ïģ",
        "Î±Î²"
      ],
      [
        "ĠÜĻ",
        "ÜĴÜ¢"
      ],
      [
        "ĠÎµá½Ĳ",
        "Î»Î¿Î³"
      ],
      [
        "Ġá¼ķ",
        "Î½Î±"
      ],
      [
        "Î®ÏĥÎµ",
        "ÏīÏĤ"
      ],
      [
        "Î·Î¸",
        "á½²Î½"
      ],
      [
        "ĠÎºÎ±Î¸",
        "Î±Ïģ"
      ],
      [
        "ÜªÜĴ",
        "Ü¬ÜĲ"
      ],
      [
        "ĠÏĢÎ±ÏĦ",
        "Ïģá½¸ÏĤ"
      ],
      [
        "Ġá¼ĢÎ½Î¸ÏģÏİÏĢ",
        "ÏīÎ½"
      ],
      [
        "ĠÏĥÏĢ",
        "ÎŃÏģ"
      ],
      [
        "Õ«ÖĤ",
        "ÖĢ"
      ],
      [
        "Ġá¼ģÎ¼Î±Ïģ",
        "ÏĦ"
      ],
      [
        "ĠÎ´ÏħÎ½",
        "Î¬Î¼"
      ],
      [
        "Ġ",
        "Õ¡ÖĢ"
      ],
      [
        "Ġ",
        "Õ¡ÖĤ"
      ],
      [
        "ķ",
        "ÏĦÎ·"
      ],
      [
        "ÜĲ",
        "ÜĻ"
      ],
      [
        "á½",
        "Ģ"
      ],
      [
        "Î±",
        "ÏĥÏĦ"
      ],
      [
        "ÜĿ",
        "ÜłÜĲ"
      ],
      [
        "á¼",
        "´"
      ],
      [
        "á¼",
        "ģ"
      ],
      [
        "Îµ",
        "á½¸"
      ],
      [
        "Ü¡",
        "ÜĿ"
      ],
      [
        "Ü¡",
        "Ü«ÜŁÜļ"
      ],
      [
        "Ïģ",
        "á½¶"
      ],
      [
        "Üķ",
        "Üł"
      ],
      [
        "ĠÜķ",
        "Üĵ"
      ],
      [
        "Î¼",
        "ÏĮ"
      ],
      [
        "Î¼",
        "á¾¶ÏĤ"
      ],
      [
        "Îº",
        "Î±Ïģ"
      ],
      [
        "ÜĿÜ¢",
        "Ü«ÜĲ"
      ],
      [
        "Ü¥",
        "Ü¬"
      ],
      [
        "Ü¥",
        "ÜĴÜª"
      ],
      [
        "ĠÜĺ",
        "ÜĴÜª"
      ],
      [
        "ĠÜĺ",
        "ÜŁÜł"
      ],
      [
        "Üļ",
        "ÜłÜ¦"
      ],
      [
        "ĠÎ´",
        "Ïħ"
      ],
      [
        "Î¬",
        "Î²"
      ],
      [
        "Ġá¼Ģ",
        "Î»Î·Î¸"
      ],
      [
        "Ü©",
        "Üķ"
      ],
      [
        "ĠÜĴ",
        "Ü¦"
      ],
      [
        "Ïĩ",
        "Î¿Î½"
      ],
      [
        "Ïį",
        "Î»"
      ],
      [
        "ÜĿÜ¬",
        "ÜĿ"
      ],
      [
        "ÜĻ",
        "ÜĴÜ¢ÜĲ"
      ],
      [
        "ĠÎ³",
        "ÎŃÎ³"
      ],
      [
        "ĠÜŁ",
        "Ü¡ÜĲ"
      ],
      [
        "ĠÜ«",
        "ÜłÜ¡"
      ],
      [
        "ĠÜ¬",
        "Üļ"
      ],
      [
        "Ü¡Ü¢",
        "Üĺ"
      ],
      [
        "Ġá½ħ",
        "Î»Î¿Î½"
      ],
      [
        "ĠÜ©",
        "Ü¡"
      ],
      [
        "ĠÜ©",
        "ÜªÜĴ"
      ],
      [
        "Õ¡Õ¶",
        "Õ§"
      ],
      [
        "Õ¸ÖĤ",
        "ÖĢ"
      ],
      [
        "ĠÎ²",
        "Î¿"
      ],
      [
        "Î±Î»",
        "Î±"
      ],
      [
        "á¼Ĳ",
        "Î³"
      ],
      [
        "ÜĺÜ¡",
        "Üª"
      ],
      [
        "ÏĢÎ¿",
        "ÎºÏģÎ¹Î¸Îµá½¶ÏĤ"
      ],
      [
        "ĠÕ¡Õ",
        "¼Õ¶"
      ],
      [
        "Õ«Õ¶",
        "Õ¹"
      ],
      [
        "ĠÏĢÎ¿",
        "Î»"
      ],
      [
        "Ü¥ÜĿÜ¢",
        "ÜĲ"
      ],
      [
        "ĠÜĴÜĿ",
        "ÜĺÜ¡ÜĲ"
      ],
      [
        "Î·Î¼",
        "Î¹"
      ],
      [
        "ĠÏĢá¾¶",
        "Î½"
      ],
      [
        "Ġá¼ģÎ³",
        "Î¯Î¿Ïħ"
      ],
      [
        "ĠÂ¹",
        "âģ"
      ],
      [
        "ÎµÎ»Î¸",
        "á½¼Î½"
      ],
      [
        "ĠÏĢÎ½Îµ",
        "á¿¦Î¼Î±"
      ],
      [
        "Ü£ÜªÜĲ",
        "ÜĿÜł"
      ],
      [
        "ĠÏĦÎ±Ïį",
        "ÏĦÎ·Î½"
      ],
      [
        "Ġá½§",
        "Î´Îµ"
      ],
      [
        "Î¼Î±ÏĦÎµ",
        "á¿ĸÏĤ"
      ],
      [
        "Î½",
        "ÎµÎ¹"
      ],
      [
        "Î½",
        "ÏīÎ½"
      ],
      [
        "á¼",
        "¢"
      ],
      [
        "á¿",
        "¤á¿¥"
      ],
      [
        "Ü¬",
        "Üł"
      ],
      [
        "Ïģ",
        "á¿·"
      ],
      [
        "ÏĢ",
        "Î·"
      ],
      [
        "ĠÏĦ",
        "Î¿ÏħÏĤ"
      ],
      [
        "ÜĴ",
        "Ü¬Üª"
      ],
      [
        "ĠÜķ",
        "ÜĴÜĿ"
      ],
      [
        "Î¼",
        "Î·Î½"
      ],
      [
        "ÜŁ",
        "ÜĹ"
      ],
      [
        "ĠÜł",
        "Ü©"
      ],
      [
        "Ü¥",
        "Ü¢ÜĲ"
      ],
      [
        "ĠÜĺ",
        "Ü¡ÜĲ"
      ],
      [
        "Î³",
        "ÏīÎ½"
      ],
      [
        "ÏĦÎ±",
        "ÏĦÎ¿Î½"
      ],
      [
        "ĠÎ¼",
        "Î¯Î±Î½"
      ],
      [
        "Ü£",
        "ÜĹÜķ"
      ],
      [
        "ĠÕ",
        "ª"
      ],
      [
        "ÏĨ",
        "ÎŃÏģ"
      ],
      [
        "Üĵ",
        "Üĺ"
      ],
      [
        "ĠÎ³",
        "ÎµÎ³"
      ],
      [
        "ÜķÜĲ",
        "Ü¡"
      ],
      [
        "ĠÎ´á½²",
        "Î½"
      ],
      [
        "ĠÜĺÜĲ",
        "Üļ"
      ],
      [
        "ĠÜ¢",
        "ÜĹ"
      ],
      [
        "ĠÜ¢",
        "ÜĴÜĿÜĲ"
      ],
      [
        "Î²",
        "Î±Î»"
      ],
      [
        "Î¾",
        "Î¿Î½"
      ],
      [
        "ĠÎ¸",
        "Î½"
      ],
      [
        "ĠÏĨ",
        "á¿¶ÏĤ"
      ],
      [
        "ÖĢÕ",
        "¯"
      ],
      [
        "ĠÜķÜ¡",
        "ÜªÜ¢"
      ],
      [
        "Õ¥Õ",
        "¼"
      ],
      [
        "ĠÜ¦",
        "ÜĺÜ©"
      ],
      [
        "ĠÜłÜ¡",
        "Ü¢ÜĲ"
      ],
      [
        "Ġá¼°",
        "ÏĥÏĩ"
      ],
      [
        "Õ¡ÖĢÕ",
        "±"
      ],
      [
        "ÜķÜª",
        "Ü¢ÜĿ"
      ],
      [
        "Î¿Ïģ",
        "Î´"
      ],
      [
        "ĠÎł",
        "ÎŃÏĦÏģ"
      ],
      [
        "ĠÜ¢Ü¦",
        "Ü©"
      ],
      [
        "ÜĵÜĿÜĲ",
        "Ü¬ÜĲ"
      ],
      [
        "Õ¡Öģ",
        "Õ¶"
      ],
      [
        "ĠÎ±á¼°",
        "á¿¶Î½"
      ],
      [
        "ĠÏĦÎ¯",
        "ÏĤ"
      ],
      [
        "ĠÎ¿á½ĲÏģÎ±Î½",
        "Î¿á¿ĸÏĤ"
      ],
      [
        "ÜĺÜĹ",
        "ÜªÜĲ"
      ],
      [
        "ĠÎ¼Î±Î¸Î·",
        "ÏĦÎ±á¿ĸÏĤ"
      ],
      [
        "ĠÏĢÏģÏĮ",
        "ÏĥÏī"
      ],
      [
        "ĠÎºÏĮÏĥÎ¼",
        "Î¿Ïħ"
      ],
      [
        "Î¸ÎŃ",
        "ÏīÏĤ"
      ],
      [
        "ĠÏĢÏģá¿¶",
        "ÏĦÎ¿Î½"
      ],
      [
        "Ê",
        "¼"
      ],
      [
        "Î",
        "Ŀ"
      ],
      [
        "ÏĦ",
        "á¿ĥ"
      ],
      [
        "ĠÎ",
        "Ŀ"
      ],
      [
        "Ġá¼",
        "£"
      ],
      [
        "Ïģ",
        "ÎµÎ¹"
      ],
      [
        "ÏĢ",
        "á½²Ïģ"
      ],
      [
        "Üķ",
        "ÜĴÜª"
      ],
      [
        "ĠÏĦ",
        "Î¿Î¹ÏĤ"
      ],
      [
        "ĠÜĲ",
        "ÜĿÜķÜĲ"
      ],
      [
        "Ü«",
        "ÜªÜĲ"
      ],
      [
        "ĠÜł",
        "Ü¬"
      ],
      [
        "Îº",
        "ÏĮÎ½"
      ],
      [
        "ĠÜĺ",
        "Ü¨"
      ],
      [
        "ĠÏĢ",
        "ÎµÎ¹"
      ],
      [
        "ÎŃ",
        "ÏĨ"
      ],
      [
        "Î´",
        "ÎµÎ¯"
      ],
      [
        "Ü¦",
        "Ü¢ÜĿ"
      ],
      [
        "á¿¶",
        "ÏĥÎ¹Î½"
      ],
      [
        "Ü©",
        "ÜĴ"
      ],
      [
        "ĠÜĴ",
        "ÜĹÜĺÜ¢"
      ],
      [
        "Ü£",
        "ÜĹ"
      ],
      [
        "Õ¡Õ",
        "®"
      ],
      [
        "ĠÕ",
        "¹"
      ],
      [
        "ĠÏĥ",
        "ÏĦÏģ"
      ],
      [
        "ĠÏĥ",
        "Î¿ÏĨ"
      ],
      [
        "ÜĿÜ¬",
        "Üĺ"
      ],
      [
        "ĠÎ±á½ĲÏĦ",
        "á¿ĩ"
      ],
      [
        "ĠÜŁ",
        "Üª"
      ],
      [
        "Ü«ÜĲ",
        "Üł"
      ],
      [
        "Ġá½ĳ",
        "ÏĪ"
      ],
      [
        "ĠÎ¸",
        "Î±Î½"
      ],
      [
        "ĠÜ«",
        "ÜĺÜĴ"
      ],
      [
        "ÏĥÏĦ",
        "Ïī"
      ],
      [
        "Öģ",
        "Õ«Õ¶"
      ],
      [
        "ĠÎ´Î¹",
        "ÎºÎ±Î¹"
      ],
      [
        "ĠÏĨ",
        "Î±"
      ],
      [
        "ĠÏĨ",
        "Î¿Î²"
      ],
      [
        "Ġá½ħ",
        "ÏĢÎ¿Ïħ"
      ],
      [
        "Õ§",
        "Õ½"
      ],
      [
        "ĠÜª",
        "ÜĿ"
      ],
      [
        "ĠÜ¦",
        "Ü¢ÜĿ"
      ],
      [
        "ĠÜ¦",
        "Ü¨ÜļÜĲ"
      ],
      [
        "Ü«Ü¡",
        "Ü«Ü¢ÜĲ"
      ],
      [
        "ÜĲÜ¢",
        "ÜĺÜ¬ÜĲ"
      ],
      [
        "ÎŃÏģ",
        "ÏīÎ½"
      ],
      [
        "á¿¦",
        "Ïģ"
      ],
      [
        "Ġá¼°",
        "ÏĤ"
      ],
      [
        "á½¼",
        "ÏĤ"
      ],
      [
        "ĠÜķÜĴ",
        "Ü¬Üª"
      ],
      [
        "Î±ÏĦ",
        "Î¯"
      ],
      [
        "ĠÜĽ",
        "ÜĴÜĲ"
      ],
      [
        "ĠÎµá½Ĳ",
        "Î¸"
      ],
      [
        "ÜĽÜĿ",
        "ÜĴÜĺÜ¬ÜĲ"
      ],
      [
        "ÏĥÏĦÎ±",
        "ÏĥÎ¹Î½"
      ],
      [
        "ĠÎ³ÎµÎ½",
        "ÎŃ"
      ],
      [
        "ĠÜ©ÜķÜ¡",
        "ÜĿÜĲ"
      ],
      [
        "Õ¸ÖĢÕ",
        "´"
      ],
      [
        "ĠÏĥÎº",
        "Î¿"
      ],
      [
        "ĠÏĥÎº",
        "Î±Î½"
      ],
      [
        "Ġâģ",
        "µ"
      ],
      [
        "ÜĽÜª",
        "ÜĺÜ£"
      ],
      [
        "ĠÜĴÜ¬Üª",
        "ÜĹ"
      ],
      [
        "Ġá¼ĲÎºÎµá¿ĸ",
        "Î¸ÎµÎ½"
      ],
      [
        "ĠÎ±á¼",
        "µ"
      ],
      [
        "Ġá½ĦÏĩÎ»",
        "Î¿Î¹"
      ],
      [
        "ĠÎ½Îµ",
        "ÎºÏģ"
      ],
      [
        "ÏħÎ½Î±",
        "á¿ĸ"
      ],
      [
        "Î±Î»Î¹",
        "Î»Î±"
      ],
      [
        "ĠÎ¦Î±ÏģÎ¹",
        "ÏĥÎ±á¿ĸÎ¿Î¹"
      ],
      [
        ".",
        "."
      ],
      [
        "Ô",
        "±"
      ],
      [
        "Õ",
        "Ī"
      ],
      [
        "ÜĲ",
        "Üł"
      ],
      [
        "ÜĲ",
        "ÜķÜĲ"
      ],
      [
        "Î±",
        "Ïĩ"
      ],
      [
        "ÜĿ",
        "Ü¦"
      ],
      [
        "Ïĥ",
        "Î·Î¼"
      ],
      [
        "Ü¡",
        "Ü¥ÜĿÜ¢"
      ],
      [
        "ĠÜķ",
        "Ü¬ÜĲ"
      ],
      [
        "ĠÎº",
        "Î»"
      ],
      [
        "ĠÎº",
        "ÏģÎ¬"
      ],
      [
        "ĠÎº",
        "ÏįÏģÎ¹Î¿ÏĤ"
      ],
      [
        "ĠÜł",
        "ÜļÜķ"
      ],
      [
        "ĠÜĺ",
        "ÜĿÜĹ"
      ],
      [
        "Î¸",
        "á¿¶Î½"
      ],
      [
        "Î¸",
        "Î®"
      ],
      [
        "Î³",
        "á½°Ïģ"
      ],
      [
        "Ìĩ",
        "ÜĨ"
      ],
      [
        "Ü©",
        "Ü¦"
      ],
      [
        "Õ¡Õ",
        "»"
      ],
      [
        "Õ«",
        "ÖģÕ§"
      ],
      [
        "ÜĻ",
        "ÜĴ"
      ],
      [
        "ÜĻ",
        "ÜķÜ©"
      ],
      [
        "Î²",
        "Î·"
      ],
      [
        "ÎµÏģ",
        "Ïĩ"
      ],
      [
        "ÖĤ",
        "ÖĢ"
      ],
      [
        "ĠÜ¬",
        "ÜªÜĿÜ¢"
      ],
      [
        "ĠÎ´Î¹",
        "Îµ"
      ],
      [
        "ÜĺÜ¬",
        "ÜĹÜĺÜ¢"
      ],
      [
        "ĠÏĨ",
        "Î·Ïĥ"
      ],
      [
        "ĠÜ©",
        "ÜłÜĿÜł"
      ],
      [
        "Ġá¼ĲÎº",
        "Î²Î¬Î»Î»"
      ],
      [
        "ĠÎ²",
        "Î»ÎŃÏĢ"
      ],
      [
        "ÜĽÜł",
        "ÜĿÜĲ"
      ],
      [
        "ĠÜ¥Üł",
        "Ü¡ÜĲ"
      ],
      [
        "Î¸Î·",
        "ÏĦÎµ"
      ],
      [
        "Î»Îµ",
        "á½ºÏĤ"
      ],
      [
        "á¼Ģ",
        "Î½Î±"
      ],
      [
        "Î®Ïĥ",
        "Î±Î½"
      ],
      [
        "ĠÜķÜļ",
        "ÜĻ"
      ],
      [
        "Õ¡ÖĢÕ",
        "£"
      ],
      [
        "Ġá½Ģ",
        "Î½ÏĮ"
      ],
      [
        "ÏĥÏĦÎµ",
        "ÏģÎ¿Î½"
      ],
      [
        "Î¯Î½",
        "Î¿Î½ÏĦÎ±Î¹"
      ],
      [
        "Î®Î½",
        "Î·"
      ],
      [
        "ÏĥÏĢ",
        "ÏĮ"
      ],
      [
        "ÏĥÎ¿Î½",
        "ÏĦÎ±Î¹"
      ],
      [
        "ĠÏĢÎ¿Î»Î»",
        "Î¿á½¶"
      ],
      [
        "Ġá¼ĲÎ³ÎŃÎ½",
        "ÎµÏĦÎ¿"
      ],
      [
        "ĠÜļÜĻ",
        "ÜĲ"
      ],
      [
        "ĠÏĥÏħ",
        "Î½Îµ"
      ],
      [
        "ĠÜĴÜŁ",
        "ÜłÜĹ"
      ],
      [
        "ĠÜ¥ÜłÜĿ",
        "ÜŁÜĺÜ¢"
      ],
      [
        "Õ¡Õ²",
        "Õ¸ÖĢÕ¤"
      ],
      [
        "Ġá¼ĢÎ¼",
        "á½´Î½"
      ],
      [
        "Õ",
        "Ŀ"
      ],
      [
        "Õ",
        "¨Õ¶Õ¤"
      ],
      [
        "Î½",
        "á½°"
      ],
      [
        "ÏĦ",
        "Ïį"
      ],
      [
        "ĠÎ",
        "ĳ"
      ],
      [
        "á¼",
        "ķ"
      ],
      [
        "Ü¬",
        "Ü¢ÜĲ"
      ],
      [
        "Ïģ",
        "Î±Î¹"
      ],
      [
        "Üķ",
        "ÜļÜķ"
      ],
      [
        "ĠÜķ",
        "Ü¥ÜĴÜķ"
      ],
      [
        "ĠÜĲ",
        "ÜĻÜł"
      ],
      [
        "ÜŁ",
        "Ü¬ÜĲ"
      ],
      [
        "ÜŁ",
        "Ü¦"
      ],
      [
        "Ü«",
        "Üł"
      ],
      [
        "ĠÎº",
        "ÏģÎ¹"
      ],
      [
        "ĠÜł",
        "Ü¦"
      ],
      [
        "ĠÜł",
        "Ü¥ÜłÜ¡ÜĲ"
      ],
      [
        "ĠÏĢ",
        "á¿¦Ïģ"
      ],
      [
        "ĠÜ¡",
        "ÜŁ"
      ],
      [
        "ĠÜĹ",
        "Ü¢Üĺ"
      ],
      [
        "Î´",
        "Î¿Î¼"
      ],
      [
        "Ġá¼Ģ",
        "ÏĥÎº"
      ],
      [
        "Ü©",
        "ÜĽÜł"
      ],
      [
        "ĠÜĴ",
        "Ü¢ÜĿ"
      ],
      [
        "Ïĩ",
        "Î±"
      ],
      [
        "Ü£",
        "Üĺ"
      ],
      [
        "ÏĨ",
        "Î±"
      ],
      [
        "ÏĦÎ¹",
        "Î¿Î½"
      ],
      [
        "ÜķÜĲ",
        "Ü¬"
      ],
      [
        "ĠÎ»",
        "Î¹"
      ],
      [
        "Îµá¿ĸ",
        "Î±"
      ],
      [
        "ÜĿÜł",
        "Üķ"
      ],
      [
        "Ġá¼Ķ",
        "ÏĥÏĦÎ¹Î½"
      ],
      [
        "ĠÜ¬",
        "ÜķÜļ"
      ],
      [
        "Ġá¼ĢÏĢ",
        "ÏĮ"
      ],
      [
        "ÏģÎ¹",
        "Î±"
      ],
      [
        "ĠÏĨ",
        "Î±Î½"
      ],
      [
        "ÜłÜĿ",
        "Ü¬ÜĲ"
      ],
      [
        "ÜªÜĿ",
        "ÜĹ"
      ],
      [
        "ÏĪ",
        "Î±Î¹"
      ],
      [
        "ÏĦÎ¿",
        "Î»"
      ],
      [
        "ĠÏĩ",
        "Ïī"
      ],
      [
        "Î¼ÎŃÎ½",
        "Î±"
      ],
      [
        "Î¼ÎŃÎ½",
        "Î¿Ïħ"
      ],
      [
        "Î¼ÎŃÎ½",
        "Î¿ÏħÏĤ"
      ],
      [
        "ÜªÜĿÜ¢",
        "ÜĲ"
      ],
      [
        "Î»Î±",
        "Îº"
      ],
      [
        "Ü¬ÜĿ",
        "ÜĹÜĴ"
      ],
      [
        "Ü¥Üł",
        "ÜķÜĴ"
      ],
      [
        "ÜłÜŁ",
        "ÜĲ"
      ],
      [
        "Ü¢ÜĿ",
        "Ü¬ÜĲ"
      ],
      [
        "Ġá¼ĳ",
        "Î±Ïħ"
      ],
      [
        "ĠÜĴÜĿ",
        "Ü«ÜĲ"
      ],
      [
        "Ġá¼ĶÏĩ",
        "ÏīÎ½"
      ],
      [
        "ĠÏĪÏħÏĩ",
        "á½´Î½"
      ],
      [
        "ĠÕ°",
        "ÖĢ"
      ],
      [
        "ĠÎ³ÎµÎ½",
        "Îµ"
      ],
      [
        "Öħ",
        "Õ©"
      ],
      [
        "Ġâģ",
        "¶"
      ],
      [
        "ĠÎ¿á¼°Îº",
        "Î¿"
      ],
      [
        "ĠÏĥÏĭ",
        "Î½Î±"
      ],
      [
        "Ġá½ĦÎ½",
        "Î¿Î¼Î±"
      ],
      [
        "ĠÎµá¼°Ïĥ",
        "á½¶"
      ],
      [
        "ĠÎ»Î±",
        "Î¼ÏĢ"
      ],
      [
        "Ġá¼ħ",
        "Î³"
      ],
      [
        "Ġá¼ĲÎ»Î¸",
        "á½¼Î½"
      ],
      [
        "ĠÎ³ÎŃÎ½",
        "Î·ÏĦÎ±Î¹"
      ],
      [
        "Ü¦ÜĿÜ¢",
        "Ü¬ÜĲ"
      ],
      [
        "Ġá¼¥Î»Î¹",
        "Î¿ÏĤ"
      ],
      [
        "ĠÎ´ÎŃÎ½",
        "Î´"
      ],
      [
        "Î¿ÏģÎ´",
        "Î¬Î½"
      ],
      [
        "ÏĦ",
        "Î¿Ïį"
      ],
      [
        "ÜĿ",
        "Ü¡Ü¢"
      ],
      [
        "á¼",
        "ĤÎ½"
      ],
      [
        "Îµ",
        "á½Ĳ"
      ],
      [
        "Ġá¼",
        "Į"
      ],
      [
        "Î»",
        "Ïī"
      ],
      [
        "Î»",
        "Î±Î½"
      ],
      [
        "ĠÜķ",
        "Üķ"
      ],
      [
        "Î¼",
        "ÎµÎ»"
      ],
      [
        "ĠÎº",
        "ÏħÏģÎ¯"
      ],
      [
        "ĠÜł",
        "Ü¬ÜłÜ¡"
      ],
      [
        "Îº",
        "ÏģÎ¯"
      ],
      [
        "ĠÜĺ",
        "Ü¦"
      ],
      [
        "ĠÜĺ",
        "ÜłÜĿ"
      ],
      [
        "ĠÜ¡",
        "Üĺ"
      ],
      [
        "ĠÜ¡",
        "ÜĺÜ«ÜĲ"
      ],
      [
        "Î¬",
        "ÏĦÎ¿Ïħ"
      ],
      [
        "Î¿á¿¦",
        "Î¼ÎµÎ½"
      ],
      [
        "Ġá¼Ģ",
        "ÏģÎµ"
      ],
      [
        "Ü¦",
        "ÜŁ"
      ],
      [
        "á¿¶",
        "Î¼ÎµÎ½"
      ],
      [
        "ĠÜĴ",
        "ÜªÜĺÜļÜĲ"
      ],
      [
        "ĠÎ¼",
        "Î¯Î±"
      ],
      [
        "Ü£",
        "ÜĿÜ¡"
      ],
      [
        "Õ¡Õ",
        "¼Õ¶"
      ],
      [
        "ÏĨ",
        "ÎµÎ¹"
      ],
      [
        "ĠÎ±á½",
        "ķÏĦÎ·"
      ],
      [
        "Õ¶",
        "Õ¡"
      ],
      [
        "ÜĽ",
        "ÜĺÜªÜĲ"
      ],
      [
        "Î®",
        "Î½Îµ"
      ],
      [
        "ĠÎ±á½ĲÏĦ",
        "Î¿á½¶"
      ],
      [
        "Üĵ",
        "Ü¢"
      ],
      [
        "ÏĥÎ¹",
        "Î±"
      ],
      [
        "ĠÏĦÎ¿á¿¦",
        "ÏĦÎ¿Î½"
      ],
      [
        "ĠÎ»",
        "Î¿Î¹"
      ],
      [
        "Ġá¼Ķ",
        "Î¸"
      ]
    ]
  }
}