{
  "version": "1.0",
  "truncation": null,
  "padding": null,
  "added_tokens": [
    {
      "id": 0,
      "content": "<|endoftext|>",
      "single_word": false,
      "lstrip": false,
      "rstrip": false,
      "normalized": false,
      "special": true
    },
    {
      "id": 1,
      "content": "<|pad|>",
      "single_word": false,
      "lstrip": false,
      "rstrip": false,
      "normalized": false,
      "special": true
    },
    {
      "id": 2,
      "content": "<|unk|>",
      "single_word": false,
      "lstrip": false,
      "rstrip": false,
      "normalized": false,
      "special": true
    }
  ],
  "normalizer": null,
  "pre_tokenizer": {
    "type": "ByteLevel",
    "add_prefix_space": false,
    "trim_offsets": true,
    "use_regex": true
  },
  "post_processor": {
    "type": "ByteLevel",
    "add_prefix_space": true,
    "trim_offsets": false,
    "use_regex": true
  },
  "decoder": {
    "type": "ByteLevel",
    "add_prefix_space": true,
    "trim_offsets": true,
    "use_regex": true
  },
  "model": {
    "type": "BPE",
    "dropout": null,
    "unk_token": null,
    "continuing_subword_prefix": "",
    "end_of_word_suffix": "",
    "fuse_unk": false,
    "byte_fallback": false,
    "ignore_merges": false,
    "vocab": {
      "<|endoftext|>": 0,
      "<|pad|>": 1,
      "<|unk|>": 2,
      "!": 3,
      "\"": 4,
      "#": 5,
      "$": 6,
      "%": 7,
      "&": 8,
      "'": 9,
      "(": 10,
      ")": 11,
      "*": 12,
      "+": 13,
      ",": 14,
      "-": 15,
      ".": 16,
      "/": 17,
      "0": 18,
      "1": 19,
      "2": 20,
      "3": 21,
      "4": 22,
      "5": 23,
      "6": 24,
      "7": 25,
      "8": 26,
      "9": 27,
      ":": 28,
      ";": 29,
      "<": 30,
      "=": 31,
      ">": 32,
      "?": 33,
      "@": 34,
      "A": 35,
      "B": 36,
      "C": 37,
      "D": 38,
      "E": 39,
      "F": 40,
      "G": 41,
      "H": 42,
      "I": 43,
      "J": 44,
      "K": 45,
      "L": 46,
      "M": 47,
      "N": 48,
      "O": 49,
      "P": 50,
      "Q": 51,
      "R": 52,
      "S": 53,
      "T": 54,
      "U": 55,
      "V": 56,
      "W": 57,
      "X": 58,
      "Y": 59,
      "Z": 60,
      "[": 61,
      "\\": 62,
      "]": 63,
      "^": 64,
      "_": 65,
      "`": 66,
      "a": 67,
      "b": 68,
      "c": 69,
      "d": 70,
      "e": 71,
      "f": 72,
      "g": 73,
      "h": 74,
      "i": 75,
      "j": 76,
      "k": 77,
      "l": 78,
      "m": 79,
      "n": 80,
      "o": 81,
      "p": 82,
      "q": 83,
      "r": 84,
      "s": 85,
      "t": 86,
      "u": 87,
      "v": 88,
      "w": 89,
      "x": 90,
      "y": 91,
      "z": 92,
      "{": 93,
      "|": 94,
      "}": 95,
      "~": 96,
      "¡": 97,
      "¢": 98,
      "£": 99,
      "¤": 100,
      "¥": 101,
      "¦": 102,
      "§": 103,
      "¨": 104,
      "©": 105,
      "ª": 106,
      "«": 107,
      "¬": 108,
      "®": 109,
      "¯": 110,
      "°": 111,
      "±": 112,
      "²": 113,
      "³": 114,
      "´": 115,
      "µ": 116,
      "¶": 117,
      "·": 118,
      "¸": 119,
      "¹": 120,
      "º": 121,
      "»": 122,
      "¼": 123,
      "½": 124,
      "¾": 125,
      "¿": 126,
      "À": 127,
      "Á": 128,
      "Â": 129,
      "Ã": 130,
      "Ä": 131,
      "Å": 132,
      "Æ": 133,
      "Ç": 134,
      "È": 135,
      "É": 136,
      "Ê": 137,
      "Ë": 138,
      "Ì": 139,
      "Í": 140,
      "Î": 141,
      "Ï": 142,
      "Ð": 143,
      "Ñ": 144,
      "Ò": 145,
      "Ó": 146,
      "Ô": 147,
      "Õ": 148,
      "Ö": 149,
      "×": 150,
      "Ø": 151,
      "Ù": 152,
      "Ú": 153,
      "Û": 154,
      "Ü": 155,
      "Ý": 156,
      "Þ": 157,
      "ß": 158,
      "à": 159,
      "á": 160,
      "â": 161,
      "ã": 162,
      "ä": 163,
      "å": 164,
      "æ": 165,
      "ç": 166,
      "è": 167,
      "é": 168,
      "ê": 169,
      "ë": 170,
      "ì": 171,
      "í": 172,
      "î": 173,
      "ï": 174,
      "ð": 175,
      "ñ": 176,
      "ò": 177,
      "ó": 178,
      "ô": 179,
      "õ": 180,
      "ö": 181,
      "÷": 182,
      "ø": 183,
      "ù": 184,
      "ú": 185,
      "û": 186,
      "ü": 187,
      "ý": 188,
      "þ": 189,
      "ÿ": 190,
      "Ā": 191,
      "ā": 192,
      "Ă": 193,
      "ă": 194,
      "Ą": 195,
      "ą": 196,
      "Ć": 197,
      "ć": 198,
      "Ĉ": 199,
      "ĉ": 200,
      "Ċ": 201,
      "ċ": 202,
      "Č": 203,
      "č": 204,
      "Ď": 205,
      "ď": 206,
      "Đ": 207,
      "đ": 208,
      "Ē": 209,
      "ē": 210,
      "Ĕ": 211,
      "ĕ": 212,
      "Ė": 213,
      "ė": 214,
      "Ę": 215,
      "ę": 216,
      "Ě": 217,
      "ě": 218,
      "Ĝ": 219,
      "ĝ": 220,
      "Ğ": 221,
      "ğ": 222,
      "Ġ": 223,
      "ġ": 224,
      "Ģ": 225,
      "ģ": 226,
      "Ĥ": 227,
      "ĥ": 228,
      "Ħ": 229,
      "ħ": 230,
      "Ĩ": 231,
      "ĩ": 232,
      "Ī": 233,
      "ī": 234,
      "Ĭ": 235,
      "ĭ": 236,
      "Į": 237,
      "į": 238,
      "İ": 239,
      "ı": 240,
      "Ĳ": 241,
      "ĳ": 242,
      "Ĵ": 243,
      "ĵ": 244,
      "Ķ": 245,
      "ķ": 246,
      "ĸ": 247,
      "Ĺ": 248,
      "ĺ": 249,
      "Ļ": 250,
      "ļ": 251,
      "Ľ": 252,
      "ľ": 253,
      "Ŀ": 254,
      "ŀ": 255,
      "Ł": 256,
      "ł": 257,
      "Ń": 258,
      "ĠÜ": 259,
      "ÜĲ": 260,
      "Ü¢": 261,
      "ÜĿ": 262,
      "Üĺ": 263,
      "Üł": 264,
      "Ü¡": 265,
      "Ü¬": 266,
      "Üª": 267,
      "ÜĹ": 268,
      "Üķ": 269,
      "ÜĴ": 270,
      "ĠÜķ": 271,
      "ĠÜĲ": 272,
      "ÜŁ": 273,
      "Ü«": 274,
      "ĠÜł": 275,
      "ÜĿÜ¢": 276,
      "Ü¥": 277,
      "ÜĺÜ¢": 278,
      "ĠÜĺ": 279,
      "ÌĪ": 280,
      "Üļ": 281,
      "Ìĩ": 282,
      "ĠÜ¡": 283,
      "ĠÜĹ": 284,
      "Ì£": 285,
      "Ü¬ÜĲ": 286,
      "Ü¦": 287,
      "Ü¢ÜĲ": 288,
      "Õ¡": 289,
      "Ü©": 290,
      "ĠÜĴ": 291,
      "Î½": 292,
      "Ü£": 293,
      "ÜłÜĲ": 294,
      "Î±": 295,
      "ÏĦ": 296,
      "Î¿": 297,
      "á½": 298,
      "Õ¶": 299,
      "ĠÕ": 300,
      "ÜĿÜĲ": 301,
      "ÜĿÜ¬": 302,
      "ÜĽ": 303,
      "ÜĨ": 304,
      "ĠÜĹÜĺ": 305,
      "ĠÎ": 306,
      "ĠÜ¥": 307,
      "Üĵ": 308,
      "ĠÜłÜĹ": 309,
      "ÜłÜĹ": 310,
      "á¼": 311,
      "Ïĥ": 312,
      "Ü¡ÜĲ": 313,
      "ÜĹÜĿ": 314,
      "Õ¡Õ": 315,
      "Îµ": 316,
      "ÜĻ": 317,
      "ĠÜĲÜ¢": 318,
      "á¿": 319,
      "ĠÜĺÜĲ": 320,
      "ÏĤ": 321,
      "ÜªÜĲ": 322,
      "ÜķÜĲ": 323,
      "ĠÜĿ": 324,
      "ÖĢ": 325,
      "ĠÜŁ": 326,
      "ĠÜ¢": 327,
      "Î¹": 328,
      "Õ¸": 329,
      "ĠÜķÜĲ": 330,
      "Ïģ": 331,
      "ĠÜłÜĲ": 332,
      "Ġá¼": 333,
      "Õ«": 334,
      "Õ¥": 335,
      "ĠÜķÜĿÜ¢": 336,
      "Ü«ÜĲ": 337,
      "ÜĹÜĺ": 338,
      "ÏĢ": 339,
      "ĠÜļ": 340,
      "ÜĿÜł": 341,
      "Ü«Üĺ": 342,
      "ÜŁÜĺÜ¢": 343,
      "ĠÜ«": 344,
      "ĠÜ¬": 345,
      "ĠÜ¡Ü¢": 346,
      "ÜķÜ¡": 347,
      "ĠÏĦ": 348,
      "ĠÜĲÜ¡": 349,
      "ÜĺÜĹÜĿ": 350,
      "ÜłÜ¡": 351,
      "ÜĿÜª": 352,
      "Ü¡Ü¢": 353,
      "ÜĿÜŁ": 354,
      "ÜĴÜĲ": 355,
      "Ü«ÜĺÜ¥": 356,
      "Î¼": 357,
      "Ïħ": 358,
      "ÜĺÜ¬": 359,
      "ÜĢ": 360,
      "ÖĤ": 361,
      "Â·": 362,
      "âĢ": 363,
      "Ü¨": 364,
      "âĢ¤": 365,
      "ÜļÜĲ": 366,
      "ĠÜ©": 367,
      "ĠÜĲÜ¢Ü¬": 368,
      "ÜªÜĿ": 369,
      "ÜłÜĿ": 370,
      "Öģ": 371,
      "Î»": 372,
      "ĠÜĵ": 373,
      "ÜķÜĿÜ¢": 374,
      "ÜĺÜĲ": 375,
      "Õ½": 376,
      "ÜĴÜª": 377,
      "ĠÜĹÜĺÜĲ": 378,
      "ĠÎº": 379,
      "ĠÜª": 380,
      "ĠÜ£": 381,
      "ÜĹÜĺÜ¢": 382,
      "Î±á½": 383,
      "ĠÜĲÜ¢ÜĲ": 384,
      "ÜĺÜª": 385,
      "ĠÜķÜ¡": 386,
      "ĠÜĺÜĲÜ¡": 387,
      "ÜķÜ¥": 388,
      "ÜĺÜ¬ÜĲ": 389,
      "Î¯": 390,
      "Õ¡Õ¶": 391,
      "Ïī": 392,
      "Üĩ": 393,
      "Ü«Ü¡": 394,
      "ĠÜ¦": 395,
      "ĠÜķÜ¢": 396,
      "ÜłÜĹÜĲ": 397,
      "ÖĢÕ": 398,
      "ĠÜĿÜ«ÜĺÜ¥": 399,
      "ÜĴÜĿ": 400,
      "ÜĴÜķ": 401,
      "ÜĽÜł": 402,
      "Ü¿": 403,
      "ÜłÜĿÜ¢": 404,
      "ÜªÜĿÜ¢": 405,
      "Õ¸ÖĤ": 406,
      "ĠÏĥ": 407,
      "ÜĺÜ¡": 408,
      "Î±á½¶": 409,
      "ĠÜłÜ¡": 410,
      "Îº": 411,
      "Õ§": 412,
      "ÜĲÜ¢": 413,
      "Î¿Ïħ": 414,
      "ĠÜ¥Üł": 415,
      "Õ¥Õ": 416,
      "ĠÏĢ": 417,
      "Î·": 418,
      "ÜķÜĿ": 419,
      "Î¬": 420,
      "Ü¼": 421,
      "ĠÜĵÜĿÜª": 422,
      "Ü¥Üł": 423,
      "Î³": 424,
      "ÜĺÜ£": 425,
      "ĠÜłÜĹÜĺÜ¢": 426,
      "ÜłÜŁ": 427,
      "Ü¬Üª": 428,
      "Ü¢ÜĿ": 429,
      "ÜĺÜĴ": 430,
      "Ü¬ÜĿ": 431,
      "Ü¥ÜĲ": 432,
      "á½¸": 433,
      "ĠÜĢ": 434,
      "ĠÜĲÜĿÜŁ": 435,
      "ĠÎºÎ±á½¶": 436,
      "ÜĲÜ¡": 437,
      "ĠÜĺÜłÜĲ": 438,
      "Î¿á¿": 439,
      "Öĩ": 440,
      "ĠÜĺÜ¡": 441,
      "Ġá¼Ĳ": 442,
      "Î¿Î½": 443,
      "ÜĹÜĺÜĲ": 444,
      "Õ¸Õ": 445,
      "ĠÜĴÜª": 446,
      "ĠÜŁÜķ": 447,
      "Î¸": 448,
      "ĠÜĲÜ¬": 449,
      "Â¬": 450,
      "ĠÜłÜĿ": 451,
      "á¿¶": 452,
      "ÜĺÜł": 453,
      "ĠÜłÜŁÜĺÜ¢": 454,
      "Ü«ÜĿ": 455,
      "ÜŁÜķ": 456,
      "Ü¢ÜĺÜ¢": 457,
      "ĠÜĲÜĿÜ¬": 458,
      "ÎŃ": 459,
      "Î¿á¿¦": 460,
      "ÖĦ": 461,
      "ÜªÜĺ": 462,
      "ĠÜĲÜ¢Ü¬ÜĺÜ¢": 463,
      "Õ©": 464,
      "Ü«ÜŁ": 465,
      "ĠÜĻ": 466,
      "ÜŁÜĲ": 467,
      "ĠÜķÜłÜĲ": 468,
      "ÜĿÜķ": 469,
      "ĠÜķÜĿ": 470,
      "ĠÜĹÜĺÜĺ": 471,
      "ÏĮ": 472,
      "ÜŁÜł": 473,
      "ĠÎ´": 474,
      "ÜłÜĹÜĺÜ¢": 475,
      "Õ¯": 476,
      "ĠÜĲÜłÜĲ": 477,
      "Õ«Õ¶": 478,
      "Ü¬ÜĺÜ¢": 479,
      "ÜĴÜĺ": 480,
      "ĠÜĲÜ¦": 481,
      "ĠÜ¥Ü¡": 482,
      "Ġá½": 483,
      "ĠÕ¡Õ": 484,
      "Ïį": 485,
      "ĠÜķÜļ": 486,
      "ĠÖĩ": 487,
      "ÜĿÜ¡": 488,
      "ÜłÜĺ": 489,
      "Ü¬ÜĹ": 490,
      "ĠÜķÜĴ": 491,
      "Üı": 492,
      "Ü¦ÜĲ": 493,
      "ÜŁÜĿÜł": 494,
      "ĠÜĽ": 495,
      "Ü«Ü¬": 496,
      "Ïĩ": 497,
      "ÜķÜ¢": 498,
      "á¿¶Î½": 499,
      "Ġá¼Ģ": 500,
      "Ü¥Ü¡": 501,
      "ĠÜłÜĺÜ¬": 502,
      "Õ´": 503,
      "Ü¥ÜĿÜ¢": 504,
      "Ü¢Ü«ÜĲ": 505,
      "Î´": 506,
      "ĠÜłÜŁ": 507,
      "ÜĺÜļ": 508,
      "ĠÜ¡ÜĽÜł": 509,
      "Õ¡ÖĢ": 510,
      "ÏĦÎ±": 511,
      "ĠÜĺÜ¢": 512,
      "ÜĿÜłÜĿÜ¢": 513,
      "ĠÜĹÜĿ": 514,
      "ÜļÜª": 515,
      "ÜķÜª": 516,
      "ÜĴÜªÜĲ": 517,
      "ÜĿÜĹ": 518,
      "Õ¿": 519,
      "ÜĺÜķ": 520,
      "ÏĨ": 521,
      "Ü¡Üª": 522,
      "ÜłÜ¬ÜĲ": 523,
      "ĠÜĴÜĿ": 524,
      "ĠÜĴÜĹ": 525,
      "Ü¢Ü¢": 526,
      "Ü©Üª": 527,
      "ÏīÎ½": 528,
      "Ü«ÜĴ": 529,
      "Ü«ÜłÜ¡": 530,
      "Ü¦Üª": 531,
      "ĠÕ¦": 532,
      "ÜĺÜ¡ÜĲ": 533,
      "ÜļÜĻ": 534,
      "ĠÜĺÜĴ": 535,
      "ĠÜĹÜ¢ÜĲ": 536,
      "ĠÜļÜķ": 537,
      "Üī": 538,
      "Öī": 539,
      "á½°": 540,
      "ĠÜ«Ü¡": 541,
      "Ü¢Üĺ": 542,
      "Õ¡ÖĢÕ": 543,
      "ÜłÜ¦": 544,
      "á½´": 545,
      "ÜļÜķ": 546,
      "ĠÜ¢Ü¦": 547,
      "ĠÜ¨": 548,
      "á¿Ĩ": 549,
      "ÜłÜ¡ÜĲ": 550,
      "Õ¤": 551,
      "ÜłÜł": 552,
      "ÜĴÜĿÜ¢": 553,
      "Õ¥Õ¬": 554,
      "ĠÕ«": 555,
      "Î±Î½": 556,
      "ĠÎµ": 557,
      "Î¼Îµ": 558,
      "ÜĴÜ¢": 559,
      "Ü¥ÜĴÜķ": 560,
      "ÜĽÜĿ": 561,
      "Ü«ÜŁÜļ": 562,
      "ĠÜķÜĲÜłÜĹÜĲ": 563,
      "ĠÜĹÜłÜĿÜ¢": 564,
      "Ü¬Ü¬": 565,
      "Ü«ÜĿÜļÜĲ": 566,
      "ĠÜĺÜŁÜķ": 567,
      "ĠÏĦÎ¿á¿¦": 568,
      "ÜłÜļ": 569,
      "ÜķÜ¡ÜĲ": 570,
      "ÜĹÜĿÜ¡Ü¢": 571,
      "Î±Î¹": 572,
      "Î®": 573,
      "ĠÜĴÜĲ": 574,
      "ÜĺÜ©": 575,
      "ÜªÜĿÜĲ": 576,
      "ĠÜķÜ©": 577,
      "Î¿ÏĤ": 578,
      "ĠÜĲÜĺ": 579,
      "ÜĺÜĲÜ¡": 580,
      "Õ¸ÖĤÕ©": 581,
      "ÜķÜĴ": 582,
      "Ü£Üª": 583,
      "ĠÜĲÜ¢Ü«": 584,
      "ÜĵÜĿÜĲ": 585,
      "Ġ.": 586,
      "ÜªÜ¥ÜĲ": 587,
      "ÜŁÜ¢ÜĲ": 588,
      "ÜļÜĿ": 589,
      "ĠÏĥÎ¿Ïħ": 590,
      "Ü¦Ü©": 591,
      "Î±ÏĤ": 592,
      "ĠÕ´": 593,
      "ĠÜŁÜł": 594,
      "ÜĹÜ¢ÜĲ": 595,
      "ĠÜĲÜ¢ÜĺÜ¢": 596,
      "ĠÜķÜ¥": 597,
      "Ü«Ü¬ÜĲ": 598,
      "ÜĿÜ¢ÜĲ": 599,
      "Õ¢": 600,
      "ĠÜ¡ÜķÜ¡": 601,
      "ÜĺÜ¬ÜĹ": 602,
      "ĠÜĲÜĿÜŁÜ¢ÜĲ": 603,
      "ĠÜķÜ¬": 604,
      "ĠÜĹÜŁÜĿÜł": 605,
      "á¿ĨÏĤ": 606,
      "Ü¢Ü«": 607,
      "ĠÎ¼": 608,
      "Õ¡Õ´": 609,
      "Õ¡Õµ": 610,
      "ĠÜłÜ¢": 611,
      "ÜĲÜĿÜ¬": 612,
      "ÜĵÜĿÜª": 613,
      "ĠÏĦá½¸": 614,
      "ÎµÎ¹": 615,
      "Ìĩ.": 616,
      "Ü£ÜĲ": 617,
      "Î±ÏĦ": 618,
      "Î¾": 619,
      "ÜªÜĴ": 620,
      "Õ¸Õµ": 621,
      "Ü¬ÜĴ": 622,
      "ĠÜ©ÜķÜ¡": 623,
      "ÜĲÜ¢ÜĲ": 624,
      "ĠÜĺÜĹ": 625,
      "ĠÕ¸": 626,
      "Ġá¼¡": 627,
      "ÜĿÜ«ÜĺÜ¥": 628,
      "ÜŁÜª": 629,
      "ĠÜĹÜķÜĲ": 630,
      "ÜĻÜł": 631,
      "Õ¡Öģ": 632,
      "Ü©Üĺ": 633,
      "ÜĴÜªÜĹ": 634,
      "á½´Î½": 635,
      "ÜĺÜłÜĲ": 636,
      "Ü£ÜĿ": 637,
      "ĠÕ¯": 638,
      "ÜĲÜĿÜŁ": 639,
      "ÜĴÜĹ": 640,
      "ĠÜķÜĹ": 641,
      "Ü«Ü¡ÜĿÜĲ": 642,
      "Õ¦": 643,
      "Ü©ÜĲ": 644,
      "ĠÜĲÜłÜĹÜĲ": 645,
      "Ü¥ÜĺÜ¢": 646,
      "ÜļÜ¡": 647,
      "ÕŃ": 648,
      "ĠÜķÜł": 649,
      "ÏģÎ¹": 650,
      "ÜĺÜļÜĲ": 651,
      "ÜĴÜĿÜ¬": 652,
      "ĠÎ¸": 653,
      "ºÕ¡Õ": 654,
      "ĠÜı": 655,
      "ÜĲÜ¬": 656,
      "ÜķÜĺ": 657,
      "Ü«ÜĹ": 658,
      "ÏĥÎ¹": 659,
      "ĠÜĺÜĲÜ¢": 660,
      "ÜĿÜ¬ÜĲ": 661,
      "Î¿Î¹": 662,
      "ÜĵÜĿÜĲÜĲ": 663,
      "Õ¡ÖĤ": 664,
      "ÜķÜłÜĲ": 665,
      "ĠÜĺÜĲÜ¬": 666,
      "ĠÜķÜ«": 667,
      "Ü¥Üĺ": 668,
      "á¼°": 669,
      "á¿·": 670,
      "ĠÜ¡Ü¢ÜĲ": 671,
      "ĠÜĴÜ¡": 672,
      "ĠÜ¡Ü¬": 673,
      "ÜĺÜĹ": 674,
      "ÜķÜļ": 675,
      "Î±Ïģ": 676,
      "ĠÜķÜĲÜĿÜ¬": 677,
      "Î±á½Ĳ": 678,
      "ĠÜļÜĻ": 679,
      "Öħ": 680,
      "ÜķÜ©": 681,
      "ĠÜĴÜ¢": 682,
      "ÏĥÏĦ": 683,
      "Õ¥Õ½": 684,
      "ÜªÜ¢": 685,
      "ĠÜķÜĿÜł": 686,
      "ĠÜĺÜ¬": 687,
      "ĠÜŁÜłÜĹ": 688,
      "ÜŁÜĿ": 689,
      "ÜĲÜ¢Ü¬ÜĺÜ¢": 690,
      "ÜªÜ¬": 691,
      "ÜļÜĺ": 692,
      "ÜłÜ¬": 693,
      "Õ²": 694,
      "ĠÜĺÜ«": 695,
      "Õ£": 696,
      "ÜĵÜĿ": 697,
      "Õ¥Õ¶": 698,
      "Ü©ÜªÜĲ": 699,
      "Î¿á½": 700,
      "ĠÕ¥": 701,
      "Î²": 702,
      "ÜķÜ¬": 703,
      "ĠÕ°": 704,
      "Î±á½ĲÏĦ": 705,
      "ĠÜķÜŁ": 706,
      "ĠÜĴÜĿÜ¬": 707,
      "ĠÜĿÜķÜ¥": 708,
      "Ġá¼ĲÎ½": 709,
      "Ġá½ģ": 710,
      "ÜĺÜļÜ¢Ü¢": 711,
      "Õ°": 712,
      "á¾": 713,
      "Ü¢ÜĿÜ¢": 714,
      "ĠÜ¡ÜłÜŁ": 715,
      "ÜĿÜ¬ÜĺÜ¢": 716,
      "ÖģÕ§": 717,
      "Î¬Î½": 718,
      "¨Õ¶": 719,
      "Ü¡Ü¬": 720,
      "ĠÜ¬ÜłÜ¡": 721,
      "ĠÜĺÜ©": 722,
      "Õ¡Õ¬": 723,
      "ÜĿÜķÜĲ": 724,
      "ĠÜĲÜļÜª": 725,
      "Õº": 726,
      "ÜĿÜĹÜĿ": 727,
      "ÜĹÜĺÜĺ": 728,
      "ĠÜĺÜ¥": 729,
      "ĠÜĹÜĺÜ¬": 730,
      "ÎµÎ¯": 731,
      "ĠÜķÜĲÜ¡": 732,
      "Üģ": 733,
      "ÜĴÜķÜĲ": 734,
      "ĠÏĢÏģ": 735,
      "Õ¸ÖĢÕ": 736,
      "Î¼ÎµÎ½": 737,
      "Ġá¼¡Î¼": 738,
      "ĠÎ±á½ĲÏĦ": 739,
      "Ü¢Ü¬": 740,
      "ÜĿÜĹÜĺÜ¢": 741,
      "ÜĴÜ¢ÜĲ": 742,
      "Ġá¼ģ": 743,
      "ĠÜĲÜ¡ÜĿÜ¢": 744,
      "ÜĿÜĺ": 745,
      "ÜķÜĿÜĲ": 746,
      "ĠÕµ": 747,
      "ÜĽÜª": 748,
      "á¿ĸ": 749,
      "ÜĲÜłÜĲ": 750,
      "Î³Î¯": 751,
      "ÜłÜŁÜĺÜ¢": 752,
      "ĠÜĲÜĿÜłÜĿÜ¢": 753,
      "ĠÜ¡Ü«ÜĿÜļÜĲ": 754,
      "ĠÜĴÜªÜĹ": 755,
      "ÜĺÜ«": 756,
      "Ü¥ÜłÜ¡ÜĲ": 757,
      "Õ³": 758,
      "ÜĺÜ¢ÜĲ": 759,
      "á½¸ÏĤ": 760,
      "ÜĴÜł": 761,
      "ĠÜĺÜ£": 762,
      "Ü¡ÜĺÜ£": 763,
      "ÜĴÜ¬ÜĲ": 764,
      "Ü¥ÜłÜ¡": 765,
      "ĠÜĹÜĲ": 766,
      "Õ¬": 767,
      "Ü¥Ü¬ÜĲ": 768,
      "ĠÜĹÜ¢ÜĺÜ¢": 769,
      "ĠÜĴÜŁ": 770,
      "ÏĥÎ¿Î½": 771,
      "ĠÏĦá¿ĨÏĤ": 772,
      "ÕĽ": 773,
      "ÜĿÜ«ÜĲ": 774,
      "ÜķÜĹ": 775,
      "ĠÜķÜ£": 776,
      "ÜĵÜª": 777,
      "ÜĵÜłÜĿ": 778,
      "Ü¢Ü¦": 779,
      "ÜķÜ¢ÜĲ": 780,
      "ÜĴÜ¬": 781,
      "á½²": 782,
      "ĠÜ¢ÜĹÜĺÜĲ": 783,
      "ÜªÜĿÜ¡": 784,
      "ÖģÕ«": 785,
      "Ġá¼ĲÏĢ": 786,
      "ÜĲÜ¦": 787,
      "ÜĹÜķ": 788,
      "ĠÜķÜ¡Ü¢": 789,
      "ĠÜ¥ÜķÜ¡ÜĲ": 790,
      "Ïİ": 791,
      "ÜĴÜĿÜĲ": 792,
      "ĠÜĺÜļ": 793,
      "ĠÜĹÜĿÜķÜĿÜ¢": 794,
      "Õ¹": 795,
      "ÝĢ": 796,
      "ÜłÜĿÜĲ": 797,
      "ĠÜĴÜ¬Üª": 798,
      "ĠÏĦá¿¶Î½": 799,
      "ĠÎ´Î¹": 800,
      "ĠÜ¥ÜĴÜķ": 801,
      "ĠÜ¢Ü¬": 802,
      "ÜĲÜ¢Ü¬": 803,
      "Ü¡ÜĽÜł": 804,
      "ÜĴÜ¥": 805,
      "ÜĴÜ©": 806,
      "ĠÜĲÜļ": 807,
      "Õ¡Õ½": 808,
      "ÜĹÜĺÜĺÜ¢": 809,
      "ÜĽÜĲ": 810,
      "ÜķÜŁ": 811,
      "ĠÜłÜ¡ÜĲ": 812,
      "ÜĿÜ¢Ü¢": 813,
      "ÜªÜ¥": 814,
      "ĠÜĲÜĻ": 815,
      "ĠÜ¥ÜłÜĿ": 816,
      "Õ¡Õ¯": 817,
      "ĠÜŁÜłÜĹÜĺÜ¢": 818,
      "ĠÜ¢Ü£": 819,
      "ĠÏĦá½´Î½": 820,
      "Î·ÏĤ": 821,
      "ĠÜ¡ÜĲ": 822,
      "ÜĽÜ¢ÜĲ": 823,
      "ÎŃÎ½": 824,
      "ĠÜķÜ¨": 825,
      "ĠÜłÜļ": 826,
      "ĠÕ¡Õ´": 827,
      "Õµ": 828,
      "ĠÜĲÜ£": 829,
      "ĠÜĹÜŁÜ¢ÜĲ": 830,
      "ÏĦÎ¹": 831,
      "Õ¸ÖĢ": 832,
      "ĠÜķÜĲÜ¢": 833,
      "ĠÎµá¼°": 834,
      "Ü¡ÜĺÜ£ÜĲ": 835,
      "ÜĺÜŁ": 836,
      "ÜĽÜĺÜ£": 837,
      "Ü¡ÜłÜł": 838,
      "ĠÜĺÜŁ": 839,
      "ĠÕ½": 840,
      "Õ¥ÖĢ": 841,
      "ÜļÜķÜĲ": 842,
      "Õ¡Õ¼": 843,
      "ĠÏĨ": 844,
      "Ü¢ÜĿÜĲ": 845,
      "ÜĻÜĲ": 846,
      "ĠÜ¬ÜĺÜĴ": 847,
      "ĠÜªÜĺÜļÜĲ": 848,
      "Õ¥Õ²": 849,
      "ÜłÜĵ": 850,
      "ÜªÜ¡": 851,
      "ĠÜĴÜ¥": 852,
      "ÜĵÜł": 853,
      "ÎµÏģ": 854,
      "ÜķÜĲÜłÜĹÜĲ": 855,
      "ĠÜ¡Ü¢ÜĹ": 856,
      "ÎµÎ½": 857,
      "ĠÜķÜĲÜ¬": 858,
      "ÜłÜĺÜ¬": 859,
      "ĠÜĲÜ¬ÜĲ": 860,
      "Ü©ÜķÜ¡": 861,
      "á½Ĳ": 862,
      "ÏīÏĤ": 863,
      "Ü«ÜĴÜ¬ÜĲ": 864,
      "ĠÎ½": 865,
      "ÜĿÜ£": 866,
      "Ü¥Üª": 867,
      "ĠÜ¡Ü«ÜŁÜļ": 868,
      "ÏĦÏīÎ½": 869,
      "á½¶": 870,
      "Õ¥Õ¡Õ¬": 871,
      "Õ¸Õ²": 872,
      "ÜĺÜķÜĿ": 873,
      "Ü¡Ü¬ÜĲ": 874,
      "Ü©ÜĿ": 875,
      "Ü©ÜĿÜ¡": 876,
      "á¿³": 877,
      "ÜĿÜķÜĺÜĹÜĿ": 878,
      "ĠâĢ¤": 879,
      "ÜĲÜª": 880,
      "Ġá¼ĢÎ½": 881,
      "á¾¶": 882,
      "ÜķÜ£": 883,
      "¨Õ¶Õ¤": 884,
      "·ÕŃ": 885,
      "ÜĺÜªÜĲ": 886,
      "ĠÜłÜĴÜª": 887,
      "ĠÜĺÜ¡Ü¢": 888,
      "ĠÜļÜĿ": 889,
      "Õ¡Õ¿": 890,
      "á½¸Î½": 891,
      "Ġá½ĳ": 892,
      "ĠÜĺÜł": 893,
      "ĠÜķÜĲÜ¢Ü«ÜĲ": 894,
      "ÜĿÜłÜĽÜĺÜ£": 895,
      "ĠÜ¬Ü¡Ü¢": 896,
      "ÜķÜĿÜ¢Ü¬ÜĲ": 897,
      "ÜĺÜłÜķ": 898,
      "ÜłÜĺÜ¢": 899,
      "Ü¬ÜłÜ¡": 900,
      "Î¿Ïį": 901,
      "ĠÕº": 902,
      "ÏģÎ¯": 903,
      "ĠÏĦá¿·": 904,
      "Õ¸Õ¾": 905,
      "Ü¡ÜłÜĲ": 906,
      "ĠÜĹÜ«ÜĲ": 907,
      "ĠÜ¥ÜĴ": 908,
      "ÎµÏĥ": 909,
      "ĠÜĵÜĴÜªÜĲ": 910,
      "Ü¬ÜĿÜĴ": 911,
      "ºÏĤ": 912,
      "ÜªÜĹ": 913,
      "ĠÜķÜĻ": 914,
      "ÜŁÜłÜĲ": 915,
      "ĠÏĦá½°": 916,
      "ÜĺÜªÜ«ÜłÜ¡": 917,
      "Õ©Õ§": 918,
      "Ü¡ÜĹ": 919,
      "ÜĹÜĴ": 920,
      "ÜķÜ«": 921,
      "ĠÜĺÜĿ": 922,
      "ĠÎ³": 923,
      "ÎµÏį": 924,
      "ĠÜ¦Üª": 925,
      "ÏĪ": 926,
      "Ü¡Ü¢ÜĲ": 927,
      "ĠÜĲÜĴÜĲ": 928,
      "ÜļÜ¬": 929,
      "Ü©ÜĺÜĴ": 930,
      "á¿ĩ": 931,
      "ÏģÎ±": 932,
      "ĠÜĲÜ¢Ü¬Ü¬ÜĲ": 933,
      "ÜĴÜĿÜ¬ÜĲ": 934,
      "Õ¸ÖĤÕ¶": 935,
      "ĠÜ¥ÜłÜĺÜĹÜĿ": 936,
      "ĠÏĦá½¸Î½": 937,
      "ÜĹÜĲ": 938,
      "ĠÜĴÜ£": 939,
      "Õ«ÖĤ": 940,
      "ĠÜ©Üª": 941,
      "ÜªÜĿÜ¬ÜĲ": 942,
      "ÏĥÎ¹Î½": 943,
      "ÜĲÜ¦ÜĲ": 944,
      "Ü¦ÜĿÜ¢": 945,
      "Õ¡Õ²": 946,
      "Îµá¿ĸ": 947,
      "ÜªÜĲÜĿÜ¬": 948,
      "Î»Î±": 949,
      "Õ½Õ¶": 950,
      "ÎºÎ±á½¶": 951,
      "ÏĮÎ½": 952,
      "Ġá¼ĢÏĢ": 953,
      "Ġá¼¡Î¼á¿¶Î½": 954,
      ".ÜĢ": 955,
      "ĠÜķÜ«Ü¡": 956,
      "ĠÎ»": 957,
      "ÜĵÜĴÜªÜĲ": 958,
      "ĠÜ¬Üª": 959,
      "ÜĺÜ¦": 960,
      "ÜĴÜŁ": 961,
      "ĠÜķÜ¢ÜĲ": 962,
      "ÜĺÜ¢ÜĿÜĹÜĿ": 963,
      "ÜĻÜĴÜ¢": 964,
      "ĠÜ¢ÜĲ": 965,
      "ĠÜļÜ¡": 966,
      "ĠÜķÜ¦": 967,
      "Ü¥Ü£Üª": 968,
      "ĠÕ¡Õ¼": 969,
      "ĠÜłÜĺÜ¬ÜĹ": 970,
      "ĠÜķÜĿÜłÜĿ": 971,
      "ĠÎµá¼°ÏĤ": 972,
      "Ü¢ÜĹ": 973,
      "ĠÜłÜ¥": 974,
      "ĠÜłÜĿÜ¬": 975,
      "ÜļÜ¬ÜĲ": 976,
      "ĠÜķÜĲÜ¦": 977,
      "ÜĹÜĺÜķÜĲ": 978,
      "ĠÜ¬ÜĲ": 979,
      "Ġá¼ĲÎº": 980,
      "ĠÜĲÜĿÜ¬ÜĺÜĹÜĿ": 981,
      "ĠÜ¥Ü¡ÜĹ": 982,
      "Õª": 983,
      "ÜĹÜķÜĲ": 984,
      "ÜĹÜŁÜĿÜł": 985,
      "Ü«Ü©": 986,
      "ĠÜ¡ÜªÜĿ": 987,
      "Ü¨ÜĲ": 988,
      "Ü«Ü¡Ü«": 989,
      "ÜĿÜķÜĹ": 990,
      "ÜļÜĻÜĲ": 991,
      "ĠÜ¡ÜłÜ¬ÜĲ": 992,
      "ĠÜłÜĿÜ«ÜĺÜ¥": 993,
      "ĠÎµá½Ĳ": 994,
      "ÜĲÜĺ": 995,
      "ÜĺÜ«ÜĲ": 996,
      "ÜłÜ¢": 997,
      "ĠÜĲÜŁ": 998,
      "ĠÜ¡Ü£": 999,
      "ĠÜĴÜ«": 1000,
      "Õ¡Õ°": 1001,
      "ĠÎºÎ±": 1002,
      "ÜĺÜ£Ü¦": 1003,
      "Õ¡ÖĢÕ¿": 1004,
      "ÜĺÜĿ": 1005,
      "Ü¬ÜĿÜ¢": 1006,
      "ĠÜĴÜłÜļ": 1007,
      "Î¿ÏħÏĤ": 1008,
      "Ü¬Üļ": 1009,
      "ĠÜĺÜĲÜ¦": 1010,
      "ĠÜĿÜĺ": 1011,
      "Õ«Öģ": 1012,
      "Î¼Î±ÏĦ": 1013,
      "ÜĺÜªÜļÜĲ": 1014,
      "ĠÜķÜĿÜłÜĹ": 1015,
      "Õ¸ÕµÕ¶": 1016,
      "ºÕ¡Õ·ÕŃ": 1017,
      "Ġá¼ģÎ³Î¯": 1018,
      "ÜĿÜĺÜĹÜĿ": 1019,
      "ÜłÜĴ": 1020,
      "Ü¡Ü¥": 1021,
      "ÏĦÎ·": 1022,
      "á¿¦": 1023,
      "ĠÜĺÜĲÜĿÜ¬": 1024,
      "ĠÜ«Üª": 1025,
      "ĠÜķÜ¢Ü¬": 1026,
      "ĠÜĹÜĿÜ¡Ü¢": 1027,
      "Õ¸ÖĤÕ©Õ«": 1028,
      "ÜĵÜłÜĿÜłÜĲ": 1029,
      "Õ®": 1030,
      "ÜĺÜŁÜķ": 1031,
      "Ü¡ÜĿÜ¢": 1032,
      "Ü¡ÜłÜŁ": 1033,
      "ÜķÜĺÜĹÜĿ": 1034,
      "Ì£Ìĩ": 1035,
      "ÜĵÜķ": 1036,
      "Ġá¼Ķ": 1037,
      "Ü«Ü¡Ü¥": 1038,
      "ĠÕ¶": 1039,
      "ĠÜĲÜĺÜłÜķ": 1040,
      "Ü¦ÜªÜĲ": 1041,
      "ÏĦÎµ": 1042,
      "ĠÕ¿": 1043,
      "ĠÎ²": 1044,
      "ÏĥÎ¼": 1045,
      "ÜªÜĺÜļÜĲ": 1046,
      "ºÕ¡Õ¿": 1047,
      "Î¿á½ºÏĤ": 1048,
      "ÜĴÜļ": 1049,
      "ĠÜķÜª": 1050,
      "ĠÜĺÜĹÜĺ": 1051,
      "ĠÜ¥Üª": 1052,
      "ĠÜļÜķÜĲ": 1053,
      "Î³Î¹": 1054,
      "ÏĦÎ±Î¹": 1055,
      "ÜĺÜķÜ«ÜĲ": 1056,
      "ĠÜ¨ÜĴÜĿÜ¢": 1057,
      "Õ·": 1058,
      "ĸÏĤ": 1059,
      "ĠÜĲÜĴÜĿ": 1060,
      "Ü¥Ü©ÜĺÜĴ": 1061,
      "Ü©Üł": 1062,
      "ĠÜĴÜļ": 1063,
      "ĠÜĿÜĺÜļÜ¢Ü¢": 1064,
      "ĠÜ«ÜĲ": 1065,
      "ĠÜ¡Ü¢ÜĹÜĺÜ¢": 1066,
      "ÜĿÜŁÜĲ": 1067,
      "Î»Îµ": 1068,
      "Î¿á¿ĸÏĤ": 1069,
      "ĠÕ¡Õµ": 1070,
      "ÜĿÜ¡ÜĿÜ¢": 1071,
      "ĠÏĩ": 1072,
      "ĠÜķÜ¥Üł": 1073,
      "ĠÜķÜłÜ¡ÜĲ": 1074,
      "ĠÕ¾": 1075,
      "á¼Ĳ": 1076,
      "ĠÜĺÜĲÜĻ": 1077,
      "ĠÜķÜĲÜ¬ÜĲ": 1078,
      "ÜĿÜłÜĿ": 1079,
      "ĠÜ¡Ü¢Üĺ": 1080,
      "ĠÜĲÜĿÜŁÜĲ": 1081,
      "ÜĲÜĿÜŁÜ¢ÜĲ": 1082,
      "ÜĲÜłÜĹÜĲ": 1083,
      "ÜĿÜŁÜĺÜ¢": 1084,
      "ÜłÜ©": 1085,
      "Ü¡ÜķÜ¡": 1086,
      "ĠÜĲÜĿ": 1087,
      "Î¿Ïĥ": 1088,
      "ĠÕ¨Õ¶Õ¤": 1089,
      "ĠÜĹÜĺÜĿÜ¬": 1090,
      "Ü«Ü¡Ü¥ÜĺÜ¢": 1091,
      "ĠÜ¦ÜĿÜłÜĽÜĺÜ£": 1092,
      "ĠÜ«Ü¡Ü¥ÜĺÜ¢": 1093,
      "ĠÜ¢Ü¦Ü«ÜĹ": 1094,
      "ÜłÜ¥": 1095,
      "ÜªÜĺÜ¢": 1096,
      "ÜĴÜĺÜ¬ÜĲ": 1097,
      "ĠÜ¡ÜªÜĿÜĲ": 1098,
      "ÜłÜĲÜŁÜĲ": 1099,
      "ÜĹÜĿÜŁÜłÜĲ": 1100,
      "ĠÜłÜĲÜĿÜłÜĿÜ¢": 1101,
      "Õ¥Öģ": 1102,
      "Î»ÎŃ": 1103,
      "Õ¸ÖĤÕ©Õ¥": 1104,
      "Ġá½ĳÏĢ": 1105,
      "Ü¡Ü«ÜĿÜļÜĲ": 1106,
      "ÜĹÜłÜĿÜ¢": 1107,
      "ÜŁÜĺÜł": 1108,
      "Ü«Ü¥": 1109,
      "ĠÜ¥Ü¢": 1110,
      "ÜĵÜłÜĲ": 1111,
      "Õ«Õ½": 1112,
      "ĠÜ«ÜªÜĿ": 1113,
      "Î»Î·": 1114,
      "ĠÜķÜ¡Ü¬": 1115,
      "Î³Î±": 1116,
      "Î¸Ïģ": 1117,
      "Õ±": 1118,
      "ĠÖĦ": 1119,
      "Ü¡Üĺ": 1120,
      "ĠÜłÜĴÜĿÜ¬": 1121,
      "ĠÜŁÜĲÜ¦ÜĲ": 1122,
      "Î¼ÎŃÎ½": 1123,
      "ÜĺÜªÜĴÜĲ": 1124,
      "Õ¨": 1125,
      "Õİ": 1126,
      "ÜĿÜªÜĲ": 1127,
      "ĠÜķÜŁÜł": 1128,
      "ÏĥÎ±ÏĤ": 1129,
      "Î¼Î±": 1130,
      "Ü¨ÜļÜĲ": 1131,
      "Ü©ÜªÜĴ": 1132,
      "©Õ§": 1133,
      "ÜĿÜķÜ¥": 1134,
      "Ü¬ÜŁ": 1135,
      "ÜªÜŁÜĲ": 1136,
      "ÜļÜĿÜ¢": 1137,
      "ĠÜ¡Üł": 1138,
      "Ü©ÜĴÜł": 1139,
      "ĠÕ£": 1140,
      "ĠÜ¥Ü¡ÜĲ": 1141,
      "ÏĢÎ¿": 1142,
      "ĠÜ«ÜĴ": 1143,
      "ĠÜ©ÜķÜĿ": 1144,
      "ĠÜĺÜ¢Ü¦": 1145,
      "ĠÜ«Ü¡ÜĿÜĲ": 1146,
      "ÜĴÜªÜĹÜ¡": 1147,
      "ºÕ¡Õ·ÕŃÕ¡ÖĢ": 1148,
      "ÜķÜ¨": 1149,
      "Ü«ÜĴÜĺ": 1150,
      "ĠÜłÜĴ": 1151,
      "ÜĵÜ¡": 1152,
      "á¼±": 1153,
      "á¼Ģ": 1154,
      "ÏĥÎµ": 1155,
      "ĠÜŁÜ¢": 1156,
      "ÏģÎ¿Î½": 1157,
      "ĠÜļÜ¢Ü¢": 1158,
      "ĠÜ¦ÜĲÜª": 1159,
      "ĠÜĽÜĴ": 1160,
      "Ü¬ÜĴÜĲ": 1161,
      "ÜĴÜĺÜĹÜĿ": 1162,
      "ĠÜĲÜªÜ¥ÜĲ": 1163,
      "ĠÜ¡Ü«": 1164,
      "ĠÜ¡ÜĽ": 1165,
      "ĠÕºÕ¡Õ¿": 1166,
      "ĠÜ¥Üķ": 1167,
      "ÜĵÜªÜĲ": 1168,
      "ÏĥÎ±Î¹": 1169,
      "ĠÜĿÜĺÜ¡": 1170,
      "Õ¸Öģ": 1171,
      "ÜłÜ¡ÜķÜ¡": 1172,
      "ÜķÜĿÜ¢ÜĲ": 1173,
      "ĠÏĢÎ¬Î½": 1174,
      "ÜŁÜªÜĻ": 1175,
      "Î¶": 1176,
      "ĠÎ¿": 1177,
      "ÜĲÜļ": 1178,
      "Ü¡ÜŁ": 1179,
      "ÜĴÜ«": 1180,
      "Ü¥ÜĴ": 1181,
      "Ü£ÜĴ": 1182,
      "ÏĥÎ¸": 1183,
      "ĠÜŁÜĹ": 1184,
      "ĠÜ«ÜłÜĿ": 1185,
      "ÏħÎ½": 1186,
      "Î»Î¿": 1187,
      "ĠÜªÜĴ": 1188,
      "ĠÕ¸ÖĤ": 1189,
      "ĠÜŁÜłÜĹÜĿÜ¢": 1190,
      "ĠÜ¡ÜłÜŁÜĲ": 1191,
      "Ýģ": 1192,
      "Ü¡ÜĿÜĲ": 1193,
      "Ü¬ÜŁÜĺÜ¢": 1194,
      "Ü¬ÜĺÜĴ": 1195,
      "ĠÜĲÜ«Ü¬": 1196,
      "ĠÜĺÜłÜ¡": 1197,
      "ĠÜ¡ÜªÜ¢": 1198,
      "Ü¦Ü«": 1199,
      "ĠÕ¨": 1200,
      "ĠÕ¬": 1201,
      "ÜĵÜĲ": 1202,
      "ÏĥÎ±": 1203,
      "ÜķÜĲÜĿÜ¬": 1204,
      "Õ¸Õ¶": 1205,
      "ÜĹÜĺÜ¬": 1206,
      "ÜĺÜĲÜ¢": 1207,
      "ĠÜ¡ÜłÜŁÜĺÜ¬ÜĲ": 1208,
      "ÜłÜĿÜł": 1209,
      "ĠÜķÜ«Ü¡ÜĿÜĲ": 1210,
      "Ü¦Ü¢ÜĲ": 1211,
      "Ü©ÜĺÜ¡": 1212,
      "ĠÜ¢Üļ": 1213,
      "ĠÜłÜĲÜłÜĹÜĲ": 1214,
      "ĠÜļÜłÜ¦": 1215,
      "Õ¥Õ¿": 1216,
      "ĠÜķÜĿÜ«ÜĺÜ¥": 1217,
      "ĠÜ¥Ü¡ÜĹÜĺÜ¢": 1218,
      "ÏįÏģÎ¹": 1219,
      "Õ¥Õ½ÖģÕ§": 1220,
      "Õ¸ÖĢÕ¤": 1221,
      "ĠÜĴÜłÜļÜĺÜķ": 1222,
      "ªÕ¡Õ¶": 1223,
      "ĠÜĺÜª": 1224,
      "ĠÜĴÜ¬": 1225,
      "ĠÜĴÜŁÜł": 1226,
      "ĠÕ¢": 1227,
      "ÜķÜĲÜ¢": 1228,
      "ĠÜĿÜĹ": 1229,
      "ĠÜ¢Ü¨": 1230,
      "Ġá¼Ħ": 1231,
      "Õ¥ÖĢÕ": 1232,
      "ĠÜķÜ¡ÜªÜĿÜĲ": 1233,
      "ÜĲÜ¢ÜĺÜ¢": 1234,
      "ĠÏĢÎ±Ïģ": 1235,
      "Ü¥Ü¡Üķ": 1236,
      "ÜłÜłÜĿÜĲ": 1237,
      "ĠÎ¼Îµ": 1238,
      "ĠÜłÜļÜ¡ÜĲ": 1239,
      "ĠÎ±": 1240,
      "ÜĹÜĿÜ¢": 1241,
      "ĠÜķÜ¡ÜĲ": 1242,
      "Ü«ÜĿÜ¢": 1243,
      "ĠÜłÜ£": 1244,
      "ÏĦÎ¯": 1245,
      "ĠÕŃ": 1246,
      "ÜĽÜĴ": 1247,
      "Õ«ÖĢ": 1248,
      "ĠÏĢÎ±Î½": 1249,
      "ĠÎ´Îµ": 1250,
      "Õ¼": 1251,
      "Õ¾": 1252,
      "ÜĤ": 1253,
      "ÜĺÜ¥": 1254,
      "Ü¬ÜĿÜª": 1255,
      "ÜķÜ¦": 1256,
      "ĠÜķÜ¬Üª": 1257,
      "ÜŁÜ¢": 1258,
      "ÜŁÜĺ": 1259,
      "ĠÜ¡Üļ": 1260,
      "ĠÜ¡ÜłÜ¦": 1261,
      "Õ¶Õ¥Õ¬": 1262,
      "ĠÕ¤": 1263,
      "ĠÜŁÜ¢Ü«ÜĲ": 1264,
      "ÜĹÜĺÜķ": 1265,
      "ĠÜļÜĽ": 1266,
      "ĠÜĲÜ¡Üª": 1267,
      "ĠÜ£ÜĿ": 1268,
      "ĠÜ£ÜĵÜĿ": 1269,
      "ÜłÜŁÜĺÜ¬ÜĲ": 1270,
      "ÜĲÜ¡Üª": 1271,
      "ĠÜĻÜĴÜ¢ÜĲ": 1272,
      "ĠÜĺÜĹÜĲ": 1273,
      "ÜĲÜ¬ÜĲ": 1274,
      "ĠÜķÜ¥ÜłÜ¡ÜĲ": 1275,
      "ĠÜĲÜª": 1276,
      "Ü£Ü¬": 1277,
      "ÏĦÎ¿": 1278,
      "á½º": 1279,
      "ÜĻÜĿÜ¢": 1280,
      "ĠÜ¡Ü¢ÜŁÜĺÜ¢": 1281,
      "ÜªÜĿÜ«": 1282,
      "Ü«Ü¡ÜĹ": 1283,
      "Ü¡ÜªÜ¢": 1284,
      "ÜĹÜĿÜ¡Ü¢ÜĺÜ¬ÜĲ": 1285,
      "ĠÜķÜłÜ¥ÜłÜ¡": 1286,
      "á½²Ïģ": 1287,
      "Ü¬ÜĹÜĺÜ¢": 1288,
      "ÜķÜł": 1289,
      "ÜķÜ¬ÜĲ": 1290,
      "ĠÜķÜ¥Ü¡": 1291,
      "ĠÜĲÜĿÜ¢ÜĲ": 1292,
      "ÜŁÜĿÜ¢": 1293,
      "Ü¥ÜĺÜª": 1294,
      "Ü¦Ü¢": 1295,
      "Ü©ÜĿÜ¢": 1296,
      "Î½Î·": 1297,
      "ĠÜ¥Ü¢ÜĲ": 1298,
      "ÎµÎ¿": 1299,
      "ĠÜ¬Ü¬": 1300,
      "ĠÏĦá¿ĩ": 1301,
      "ÜĺÜĲÜ¬": 1302,
      "ÜĴÜªÜĿÜ¢": 1303,
      "ĠÜªÜĴÜĲ": 1304,
      "ÜĲÜ¢Ü«": 1305,
      "ĠÜĲÜĿÜ¬ÜĿÜĹ": 1306,
      "ÜŁÜĲÜ¦ÜĲ": 1307,
      "ÜļÜĻÜĺÜ¢": 1308,
      "ĠÕ´Õ«": 1309,
      "ÜķÜĺÜĿÜķ": 1310,
      "ĠÜĿÜķÜ¥ÜĿÜ¢": 1311,
      "Ü«Üª": 1312,
      "ĠÜłÜĺÜ©": 1313,
      "Ü¥ÜłÜĿ": 1314,
      "ĠÜ¡Ü¨": 1315,
      "ĠÜ¡Ü«ÜŁ": 1316,
      "Ü¦Üł": 1317,
      "Ü¦ÜĿÜª": 1318,
      "Õ¡ÖĦ": 1319,
      "ĠÜĴÜªÜĲ": 1320,
      "ĠÜ¥ÜĴÜķÜĲ": 1321,
      "ÏĥÎ¯": 1322,
      "ĠÜ£ÜĵÜĿÜĲÜĲ": 1323,
      "Õ¸ÖĤÖģ": 1324,
      "Î·ÏĥÎ¿Î½": 1325,
      "ĠÎµá¼": 1326,
      "ÜĽÜĿÜ¬ÜĲ": 1327,
      "ÜĹÜĿÜ¡Ü¢ÜĿÜ¢": 1328,
      "ĠÜĲÜļÜªÜ¢ÜĲ": 1329,
      "á¾¶ÏĤ": 1330,
      "Ü¢Üļ": 1331,
      "Ü¡Ü«": 1332,
      "ĠÜ¡Üª": 1333,
      "ĠÜ¡Ü¡ÜłÜł": 1334,
      "Î½Î±": 1335,
      "Ü£ÜªÜĲ": 1336,
      "ÜĵÜĺ": 1337,
      "ÜĻÜĿ": 1338,
      "Î¼Î¬": 1339,
      "ÜķÜ¥ÜĿÜ¢": 1340,
      "Õ¸ÖĤÕ´": 1341,
      "Õ¥Õ¯": 1342,
      "ÏĮÎ¾": 1343,
      "ÜļÜªÜ¢ÜĲ": 1344,
      "Ü©ÜªÜĴÜĺ": 1345,
      "Õ¡ÖĢÕ¤": 1346,
      "ÜĲÜĿÜ¬ÜĺÜĹÜĿ": 1347,
      "ĠÜķÜłÜĿÜ¬": 1348,
      "ÖħÖĢ": 1349,
      "Õ¥Õ½ÖģÕ«": 1350,
      "ÕİÕ½": 1351,
      ":-": 1352,
      "Ü¡Üł": 1353,
      "Ü¬Üł": 1354,
      "ĠÜĺÜ¥Üł": 1355,
      "ĠÜĴÜŁÜĺÜ¢": 1356,
      "ÜĿÜ¬ÜĹ": 1357,
      "ÜĹÜĿÜķÜĿÜ¢": 1358,
      "ÜĻÜª": 1359,
      "ĠÜķÜĲÜ¢ÜĲ": 1360,
      "ĠÜ«Ü¥Ü¬ÜĲ": 1361,
      "ÜªÜĿÜĺ": 1362,
      "Õ¡Õ¶Öģ": 1363,
      "Ü¬ÜĿÜķ": 1364,
      "ĠÜĲÜ¬Ü¬": 1365,
      "Õ¯Õ¶": 1366,
      "ÏĦÎ±ÏĤ": 1367,
      "ÜķÜªÜ¢ÜĿ": 1368,
      "ÜļÜĻÜĿ": 1369,
      "ĠÜķÜ©ÜĺÜķÜ«ÜĲ": 1370,
      "á¾³": 1371,
      "ÜĺÜĴÜĿ": 1372,
      "ÜĴÜĺÜ¢": 1373,
      "ĠÜłÜ¥ÜłÜ¡": 1374,
      "Ü¥ÜķÜ¡ÜĲ": 1375,
      "ĠÜĺÜ¢ÜĲ": 1376,
      "ĠÜĴÜ©": 1377,
      "Ġá¼±": 1378,
      "ĠÜ©ÜªÜĴ": 1379,
      "Õ½Õ¿": 1380,
      "ĠÜ£Ü¡": 1381,
      "ÖĢÕ¤": 1382,
      "ÎºÎ±": 1383,
      "ÎŃÏĥ": 1384,
      "ÖĦÕ¶": 1385,
      "ĠÖĩÕ¦": 1386,
      "ĠÜłÜĺÜ¬ÜĿ": 1387,
      "Õ´Õ«": 1388,
      "ĠÕ¦Õ«": 1389,
      "ÜªÜĴÜ¬ÜĲ": 1390,
      "ĠÕ¯Õ¡Õ´": 1391,
      "Î¿Î¹ÏĤ": 1392,
      "ÕºÕ¡Õ¶": 1393,
      "Õ»": 1394,
      "ĠÎ¿á½": 1395,
      "ÜĲÜĿÜłÜĿÜ¢": 1396,
      "ĠÜķÜĹÜĺ": 1397,
      "Ü«ÜªÜĲ": 1398,
      "ĠÜĺÜĴÜª": 1399,
      "ĠÜ¡ÜĿÜ¬": 1400,
      "Õ¡Õ¦": 1401,
      "Îµá½¸": 1402,
      "ĠÜĿÜķ": 1403,
      "ĠÜ£Üĵ": 1404,
      "Õ¡Õ¶Õ¥Õ¬": 1405,
      "ÜĺÜ¡Üª": 1406,
      "Ġá½ħ": 1407,
      "Ġá½ķ": 1408,
      "ĠÜĴÜĿÜĺÜ¡ÜĲ": 1409,
      "Õ¸ÖĤÕ©Õ¢": 1410,
      "ÏĥÎµÏīÏĤ": 1411,
      "ÖĬ": 1412,
      "ÜĲÜĻ": 1413,
      "Ü¬Üĺ": 1414,
      "ÜĹÜ¢ÜĺÜ¢": 1415,
      "ĠÜłÜ©": 1416,
      "ĠÜ¡ÜĹ": 1417,
      "Ü©Ü¦": 1418,
      "ÏĦÎ¿ÏĤ": 1419,
      "Õ¡Õº": 1420,
      "ÜķÜĲÜ¡": 1421,
      "ĠÜ¢Ü«Ü¬": 1422,
      "ĠÜ¢ÜĴÜĿÜĲ": 1423,
      "Î¹Îº": 1424,
      "Ü«ÜĺÜŁÜĲ": 1425,
      "Ü¡Ü¢Üĺ": 1426,
      "Õ¡Õ¶Õ¶": 1427,
      "Õ¡Õ¶Õ¤": 1428,
      "ÏīÏĢ": 1429,
      "ÏīÎ¸": 1430,
      "ÎºÎµ": 1431,
      "Õ¥Õ¦": 1432,
      "Õ¥Õ¼": 1433,
      "ĠÏĢá¾¶": 1434,
      "ĠÕ¡ÕºÕ¡Õ·ÕŃÕ¡ÖĢ": 1435,
      "ĠÜķÜļÜķ": 1436,
      "ÜĿÜ¡Ü¬ÜĲ": 1437,
      "Î´Îµ": 1438,
      "Õ¡ÖĢÕªÕ¡Õ¶": 1439,
      "ĠÕ¸ÖĢ": 1440,
      "ÖħÖĦ": 1441,
      "ĠÕ¥Õ©Õ§": 1442,
      "Ü¡Ü«Ü¬": 1443,
      "ÜĹÜŁÜ¢ÜĲ": 1444,
      "ÜŁÜ£": 1445,
      "ÜŁÜłÜĹ": 1446,
      "ÜŁÜłÜĹÜĺÜ¢": 1447,
      "Ü«ÜłÜĿ": 1448,
      "Ü¥Ü¢": 1449,
      "ÜļÜĹ": 1450,
      "Ü¦Ü¢ÜĿ": 1451,
      "ĠÜĴÜ¨": 1452,
      "Î½Î±Î¹": 1453,
      "Õ¶Õ¡": 1454,
      "ÜĿÜĲÜĲ": 1455,
      "ÜĽÜĿÜĲ": 1456,
      "ĠÜŁÜ¡ÜĲ": 1457,
      "Î¹Î½": 1458,
      "Ü«ÜĲÜł": 1459,
      "ĠÏĦÎ¿á½ºÏĤ": 1460,
      "Ü¨Üĺ": 1461,
      "ĠÜ¦Ü¢ÜĿ": 1462,
      "ĠÜ¦ÜĺÜ©": 1463,
      "ĠÜ¦Ü¨ÜļÜĲ": 1464,
      "ĠÜłÜ¡Ü¢ÜĲ": 1465,
      "ÜĲÜ¢ÜĺÜ¬ÜĲ": 1466,
      "Î¬Ïģ": 1467,
      "Ġá¼ĲÎ»ÎŃ": 1468,
      "ĠÜĴÜªÜ¢Ü«ÜĲ": 1469,
      "ĠÜĻÜĴÜ¢": 1470,
      "Õ¯Õ¡Õ¶": 1471,
      "ĠÜĽÜĴÜĲ": 1472,
      "ĠÜ¢Ü¦Ü©": 1473,
      "Î¼ÎµÏģÎ¿Î½": 1474,
      "ÜĽÜªÜĺÜ£": 1475,
      "ĠÜĴÜ¬ÜªÜĹ": 1476,
      "ĠÎ´Î¹á½°": 1477,
      "Öĥ": 1478,
      "ÜĿÜłÜĲ": 1479,
      "ÜĺÜĴÜĲ": 1480,
      "Ü¡Ü«ÜĲ": 1481,
      "Ü¡Ü«ÜŁÜļ": 1482,
      "ĠÜķÜĴÜĿ": 1483,
      "ĠÜķÜ«ÜĴÜ¬ÜĲ": 1484,
      "ÜŁÜĹ": 1485,
      "ĠÜłÜĺ": 1486,
      "ĠÜĺÜ¡ÜĲ": 1487,
      "ĠÜĺÜ¨": 1488,
      "ÌĩÜĨ": 1489,
      "Î±Î»": 1490,
      "Î¿Î»": 1491,
      "ÜĿÜ¬Üĺ": 1492,
      "á¿ĥ": 1493,
      "ĠÜĿÜ¬ÜĿ": 1494,
      "ĠÜŁÜª": 1495,
      "ÜĿÜłÜķ": 1496,
      "ĠÜ«ÜłÜ¡": 1497,
      "ĠÜ¬ÜªÜĿÜ¢": 1498,
      "ĠÏĦÎ±": 1499,
      "ÜĽÜłÜĿÜĲ": 1500,
      "Î¬Ïĥ": 1501,
      "Î®Î¼ÎµÏģÎ¿Î½": 1502,
      "ĠÜŁÜłÜ¢Ü«": 1503,
      "ÜĺÜĹÜªÜĲ": 1504,
      "ÎµÏįÎ¼Î±ÏĦ": 1505,
      "..": 1506,
      "Ê¼": 1507,
      "Ôµ": 1508,
      "ÜĲÜķÜĲ": 1509,
      "Ü¡Ü¥ÜĿÜ¢": 1510,
      "Ü¬Ü¢ÜĲ": 1511,
      "Ü¬Ü¡Ü¢": 1512,
      "ÜŁÜ¦": 1513,
      "Ü«Üł": 1514,
      "ĠÜłÜļÜķ": 1515,
      "ĠÜĺÜŁÜł": 1516,
      "Ü¦Ü¬": 1517,
      "Ü©ÜĴ": 1518,
      "Ü©ÜĽÜł": 1519,
      "ÏĦÎ¿Ïħ": 1520,
      "ÜĿÜ¬ÜĿÜª": 1521,
      "ÜĻÜĺ": 1522,
      "ÜĻÜĴ": 1523,
      "ĠÜ¢ÜĹ": 1524,
      "Õ«Õ¯": 1525,
      "Õ«ÖģÕ«": 1526,
      "Ü«ÜĺÜĴ": 1527,
      "ĠÜ¬ÜĹÜĺÜĲ": 1528,
      "ĠÜ¬ÜķÜļ": 1529,
      "ÜªÜĿÜĹ": 1530,
      "ĠÎºÎ±ÏĦ": 1531,
      "ĠÜ¥ÜłÜ¡ÜĲ": 1532,
      "ĠÏĢÎ½": 1533,
      "ÜłÜŁÜĲ": 1534,
      "Ü¢ÜĺÜªÜĲ": 1535,
      "ĠÜ©ÜķÜ¡ÜĿÜĲ": 1536,
      "ĠÜļÜĻÜĲ": 1537,
      "Î¿á½¶": 1538,
      "ĠÜĴÜŁÜłÜĹ": 1539,
      "Ġá¼ĲÏĢá½¶": 1540,
      "ĠÕ¡Õ¶": 1541,
      "ÜĺÜĴÜķ": 1542,
      "Ü¡ÜĿ": 1543,
      "ÜĴÜ¬Üª": 1544,
      "ĠÜĲÜĻÜł": 1545,
      "ĠÜłÜ¥ÜłÜ¡ÜĲ": 1546,
      "ĠÜłÜ¬ÜłÜ¡": 1547,
      "ÜĿÜ¢ÜŁ": 1548,
      "ÜĿÜ¢Ü«ÜĲ": 1549,
      "Ü¥Ü¬": 1550,
      "ĠÜĺÜłÜĿ": 1551,
      "ÜļÜĴ": 1552,
      "Ü¦ÜĿ": 1553,
      "Ü©Ü¢": 1554,
      "Ü£ÜĹÜķ": 1555,
      "ÏĦÏĮ": 1556,
      "Î¿Ïģ": 1557,
      "á½ĳ": 1558,
      "ÜĵÜ¢": 1559,
      "ÜłÜĹÜ¢ÜĲ": 1560,
      "ÏĥÎ±Î½": 1561,
      "ĠÜĿÜ¬ÜĿÜª": 1562,
      "ÜķÜ¡Ü¢": 1563,
      "ĠÏĦÎ¿á¿ĸÏĤ": 1564,
      "ÜĿÜŁÜ¢ÜĲ": 1565,
      "ĠÜ©Ü¡": 1566,
      "ÜªÜĿÜ«ÜĲ": 1567,
      "ĠÜªÜĿ": 1568,
      "ĠÜĻÜł": 1569,
      "ÜĴÜĺÜŁÜĺÜ¢": 1570,
      "ĠÜķÜĴÜ¬Üª": 1571,
      "ĠÜĴÜĿÜ«ÜĲ": 1572,
      "ĠÜķÜ¥ÜĴ": 1573,
      "ĠÜ¬ÜłÜ¡ÜĿ": 1574,
      "ĠÏĢÏģÎ¿": 1575,
      "Ġá¼¡Î¼á¾¶ÏĤ": 1576,
      "Ü¦ÜĿÜ¢Ü¬ÜĲ": 1577,
      "ĠÎºÎ±ÏĦÎ±": 1578,
      "Ô¿": 1579,
      "ÜĲÜĿ": 1580,
      "ÜĲÜł": 1581,
      "ÜĿÜ¡Ü¢": 1582,
      "ÜĴÜ¡": 1583,
      "ÜĴÜ£": 1584,
      "ĠÜķÜ¬ÜĲ": 1585,
      "ĠÜķÜ¥ÜĴÜķ": 1586,
      "ĠÜĺÜķ": 1587,
      "ĠÜĺÜĿÜĹ": 1588,
      "ĠÜ¡Ü«Ü¬": 1589,
      "ĠÜ¡ÜªÜĿÜ¡": 1590,
      "ĠÜĹÜ¢Üĺ": 1591,
      "Ü¦ÜŁ": 1592,
      "Ü¦Ü£": 1593,
      "Ü¦ÜĺÜ£": 1594,
      "Ü©Üķ": 1595,
      "ĠÜĴÜĹÜĺÜ¢": 1596,
      "ĠÜĴÜ¢ÜĿ": 1597,
      "ĠÜĴÜĿÜķ": 1598,
      "Ü£ÜĹ": 1599,
      "ÏĦá½°": 1600,
      "ÜĽÜĺÜªÜĲ": 1601,
      "ĠÜĹÜĺÜĿÜ¬ÜĺÜ¢": 1602,
      "ÜĻÜķÜ©": 1603,
      "ÜĻÜĴÜ¢ÜĲ": 1604,
      "ĠÜĺÜĲÜļ": 1605,
      "ĠÜ¢Ü«": 1606,
      "ĠÜ¢Ü¡ÜĺÜ£ÜĲ": 1607,
      "Õ¸ÖĦ": 1608,
      "ĠÜ«ÜķÜª": 1609,
      "ĠÜĲÜ¡Ü¬ÜĿ": 1610,
      "ÜĿÜŁÜłÜĲ": 1611,
      "ÜĿÜŁÜĹÜ¢ÜĲ": 1612,
      "ÜłÜĿÜ¬ÜĲ": 1613,
      "ĠÜ¦Ü¬": 1614,
      "ĠÜķÜ¢Ü¦": 1615,
      "Ü¥ÜłÜĺÜĹÜĿ": 1616,
      "Ü¥ÜłÜķÜĴ": 1617,
      "ÜĲÜ¡ÜĿÜ¢": 1618,
      "Ġá¼ĲÎ¾": 1619,
      "Õ¸Õ¹": 1620,
      "ĠÜ¥Ü¡ÜĿ": 1621,
      "ÜķÜ¢Ü¢": 1622,
      "Ü«ÜĴÜ¥": 1623,
      "Ü¢ÜĺÜ«Ü¬ÜĲ": 1624,
      "Õ¡ÕµÕ¶": 1625,
      "ÏģÎ¹ÏĥÏĦ": 1626,
      "¨Õ¶Õ¯": 1627,
      "Ġá¼ĲÏĢÎ¹": 1628,
      "ÜĿÜ£ÜªÜĲ": 1629,
      "ÔµÕ©Õ§": 1630,
      "ÜĿÜĴ": 1631,
      "ÜłÜ¦ÜĲ": 1632,
      "ÜķÜĿÜłÜĿ": 1633,
      "ĠÜłÜ¦": 1634,
      "ÜļÜłÜ¦": 1635,
      "ĠÜ¡ÜŁ": 1636,
      "ĠÜ¡ÜĺÜ«ÜĲ": 1637,
      "ĠÜ¡ÜłÜĲÜŁÜĲ": 1638,
      "Ü¦Üĺ": 1639,
      "Ü©ÜªÜĿ": 1640,
      "ÏĦÎ¿á¿¦": 1641,
      "ĠÕ©Õ§": 1642,
      "ĠÎ¶": 1643,
      "Õ¡Õ£": 1644,
      "ÜķÜĲÜ¬": 1645,
      "ÏĢá½²Ïģ": 1646,
      "ĠÜļÜª": 1647,
      "ĠÜ«ÜĺÜł": 1648,
      "Ü¡Ü¢ÜĹ": 1649,
      "ĠÜ©ÜłÜĿÜł": 1650,
      "ĠÜĺÜĲÜ¡Üª": 1651,
      "ÜĺÜ¡ÜĹ": 1652,
      "ĠÜłÜ¡ÜķÜĿÜ¢Ü¬ÜĲ": 1653,
      "Õ§Õ½": 1654,
      "Î·Î¸": 1655,
      "Ü¢ÜĿÜ¬ÜĲ": 1656,
      "Ü¬ÜĿÜĹÜĴ": 1657,
      "ĠÜĲÜ¬Üĺ": 1658,
      "ÎŃÏģ": 1659,
      "ĠÜĻÜłÜĺ": 1660,
      "ĠÎ´Î¿Ïį": 1661,
      "ĠÜķÜĴÜĿÜ¬": 1662,
      "Ü«Ü¡Ü«Ü¢ÜĲ": 1663,
      "ĠÎµá¼¶": 1664,
      "ÜĿÜ£ÜªÜĲÜĿÜł": 1665,
      "Ü¤": 1666,
      "ĠÕ¡ÖĢ": 1667,
      "ĠÜķÜŁÜķ": 1668,
      "ĠÜĲÜ¬Üª": 1669,
      "ÜŁÜ¡Ü¬ÜĲ": 1670,
      "Ü¥Ü¢ÜĲ": 1671,
      "Ü¥ÜĿÜĲ": 1672,
      "Ü¥ÜĴÜª": 1673,
      "ĠÜĴÜł": 1674,
      "ÏĦÎ¿Î½": 1675,
      "ÜĵÜĺÜª": 1676,
      "Õ¡Õ®": 1677,
      "ÎµÎ»": 1678,
      "ĠÜĺÜĲÜ¢ÜĲ": 1679,
      "ĠÜŁÜłÜ¡ÜķÜ¡": 1680,
      "ĠÜ«Üĺ": 1681,
      "ĠÜ¬Üļ": 1682,
      "Î¼Î±Ïģ": 1683,
      "ÜĺÜ¬ÜĹÜĺÜ¢": 1684,
      "ÜłÜĿÜłÜĲ": 1685,
      "ÖģÕ¥Õ¶": 1686,
      "Õ½Õ¯": 1687,
      "ÖĢÕ¿": 1688,
      "ÜªÜĿÜ¢ÜĲ": 1689,
      "ĠÏĥá½º": 1690,
      "ÜĺÜ¡Ü¢ÜĲ": 1691,
      "Õ§Õ¶": 1692,
      "ÜŁÜłÜĺÜ¢": 1693,
      "ĠÎ´ÏĮÎ¾": 1694,
      "Õ¯Õ¡Õ´": 1695,
      "ÜĿÜ¡ÜŁÜĲ": 1696,
      "ĠÜķÜĴÜĹ": 1697,
      "Ü¦ÜĲÜª": 1698,
      "Ü¥Ü¡ÜĹ": 1699,
      "ĠÜ¨ÜĴÜĲ": 1700,
      "ĠÕ«Õ¶": 1701,
      "ÜĽÜĿÜĴ": 1702,
      "ÜłÜļÜ¡ÜĲ": 1703,
      "Î±Î¹ÏĤ": 1704,
      "ĠÜĴÜĲÜªÜ¥ÜĲ": 1705,
      "Ü£ÜªÜĿÜł": 1706,
      "ÜļÜĿÜĴ": 1707,
      "ĠÜļÜĻÜĺ": 1708,
      "ĠÏĢÏģá½¸ÏĤ": 1709,
      "ĠÜĲÜ£ÜĿÜª": 1710,
      "ĠÜ©ÜªÜĴÜĺ": 1711,
      "Î¸ÏģÏīÏĢ": 1712,
      "ÕĪ": 1713,
      "ÝĤ": 1714,
      "ÜĺÜķÜĲ": 1715,
      "ÜķÜĿÜł": 1716,
      "ĠÜĲÜĴ": 1717,
      "ĠÜĲÜĿÜķÜĲ": 1718,
      "ĠÜĲÜĿÜķÜĹ": 1719,
      "ÜŁÜ¬ÜĲ": 1720,
      "ÜŁÜªÜĿÜĲ": 1721,
      "ĠÜłÜ¬": 1722,
      "ĠÜłÜĵÜĴÜªÜĲ": 1723,
      "ĠÜ¡ÜĿ": 1724,
      "ĠÜ¡ÜªÜĹ": 1725,
      "Ü¦ÜłÜĵ": 1726,
      "Ü©ÜĺÜ¢": 1727,
      "Ü©ÜĽ": 1728,
      "ĠÜĴÜĿÜ¢": 1729,
      "Ü£ÜĴÜª": 1730,
      "ÏĦÏģ": 1731,
      "Õ¡Õ»": 1732,
      "ÎµÏĦÎ±Î¹": 1733,
      "ĠÜĿÜĺÜ¡ÜĲ": 1734,
      "ĠÜ«Ü©": 1735,
      "Î¼ÏĢ": 1736,
      "ÏħÎ³": 1737,
      "ÜĴÜªÜ¢Ü«ÜĲ": 1738,
      "ĠÜªÜĴÜĿ": 1739,
      "ÜĺÜªÜ©": 1740,
      "ÖĢÕ¢": 1741,
      "ĠÏĥÎ¿á½¶": 1742,
      "Î¬ÏģÎ¹": 1743,
      "ĠÜ¥Ü¡ÜŁÜĺÜ¢": 1744,
      "ĠÜ«Ü¡Ü¥": 1745,
      "ÜĽÜĿÜĴÜĺÜ¬ÜĲ": 1746,
      "ÖħÕ©": 1747,
      "á¿ĸÏĤ": 1748,
      "Ü¢Ü¦Ü«ÜĹ": 1749,
      "ÜĵÜłÜĺÜĹÜĿ": 1750,
      "Ġá¼ĢÎ½Î±": 1751,
      ".Üı": 1752,
      "Ġ:": 1753,
      "ĠÏĪ": 1754,
      "ÜĲÜĲ": 1755,
      "Ü¬ÜªÜĲ": 1756,
      "ÜķÜļÜķ": 1757,
      "ÜĴÜ¥ÜĲ": 1758,
      "ĠÜķÜĺ": 1759,
      "ĠÜķÜķ": 1760,
      "ĠÜĲÜłÜĺ": 1761,
      "ÜŁÜ¬ÜĴ": 1762,
      "Ü«Ü¢": 1763,
      "Ü«Ü¥Ü¬ÜĲ": 1764,
      "Ü¥ÜĿÜª": 1765,
      "Ü¥ÜĺÜł": 1766,
      "Ü¦Ü¬ÜĲ": 1767,
      "ĠÜĴÜ«Ü¡ÜĿÜĲ": 1768,
      "Ü£Ü¦ÜĲ": 1769,
      "ĠÜĹÜĺÜĿ": 1770,
      "ĠÜĺÜĲÜ«Ü¬": 1771,
      "ĠÜŁÜ¬ÜĿÜĴ": 1772,
      "ÏģÎ®": 1773,
      "ÏĢÎ¹": 1774,
      "ĠÜļÜ£": 1775,
      "ÜķÜ¡Üª": 1776,
      "ĠÜ©ÜĺÜª": 1777,
      "ÖģÕ«Õ¶": 1778,
      "ĠÜ£ÜĴÜª": 1779,
      "ĠÜ£ÜĹÜķ": 1780,
      "ÜķÜ¥ÜłÜ¡ÜĲ": 1781,
      "ĠÜķÜ¢Ü£": 1782,
      "ÖĢÕ¯": 1783,
      "Õ¸ÖĤÖĢ": 1784,
      "Ü¥ÜłÜĺÜ¢": 1785,
      "ĠÜĺÜ¡ÜļÜķÜĲ": 1786,
      "Õ¸Õ¼": 1787,
      "ĠÜĴÜªÜĺÜļÜĲ": 1788,
      "Ü«ÜĿÜ«ÜĲ": 1789,
      "ĠÜĲÜĿÜ¬ÜĿ": 1790,
      "ĠÜĻÜ¥ÜĺÜª": 1791,
      "ĠÜĽÜłÜĿÜĲ": 1792,
      "Ü¥ÜĿÜ¢ÜĲ": 1793,
      "ĠÜĴÜĲÜĺÜªÜļÜĲ": 1794,
      "ÜĵÜĿÜĲÜ¬ÜĲ": 1795,
      "ĠÕ¸Õ¹": 1796,
      "Õ¡ÖģÕ¶": 1797,
      "Ü£ÜĿÜĴÜª": 1798,
      "ÜĴÜĿÜ¬ÜĹ": 1799,
      "ĠÜķÜĲÜĿÜ¬ÜĺÜĹÜĿ": 1800,
      "ĠÏĢÏģÎ¿Ïĥ": 1801,
      "ĠÜ¢Ü¬Üł": 1802,
      "ĠÏĦá½°ÏĤ": 1803,
      "Õ«ÖĤÖĢ": 1804,
      "ĠÜļÜ¡ÜªÜĲ": 1805,
      "á¿¦Î½": 1806,
      "ÏĦÎµÏĤ": 1807,
      "ĠÕ¡ÕµÕ¬": 1808,
      "Î¼Î¬ÏĦÏīÎ½": 1809,
      "ÕĿ": 1810,
      "ĠÕ¡ÖĤ": 1811,
      "Ü¢Ü¡ÜĺÜ£ÜĲ": 1812,
      "ÜĺÜĿÜ¢": 1813,
      "ÜĺÜĵ": 1814,
      "ÜĺÜłÜ¡": 1815,
      "ÜłÜĺÜ¬ÜĹ": 1816,
      "Ü¡ÜłÜĿ": 1817,
      "ĠÜķÜĽ": 1818,
      "ĠÜķÜĵ": 1819,
      "ĠÜĲÜĿÜ¢": 1820,
      "ĠÜĲÜ«ÜŁÜļ": 1821,
      "ĠÜĲÜªÜ¡": 1822,
      "ĠÜĺÜĽ": 1823,
      "ĠÜ¡ÜŁÜĿÜł": 1824,
      "ĠÜĹÜ¢": 1825,
      "Ü©ÜĺÜĲ": 1826,
      "Ü£Üĵ": 1827,
      "ÏĦá¿¶Î½": 1828,
      "ĠÕª": 1829,
      "ÜĿÜ¬ÜĿ": 1830,
      "ÜĽÜ¦": 1831,
      "ĠÎļ": 1832,
      "ĠÜĺÜĲÜĻÜł": 1833,
      "ĠÜĿÜĺÜ£Ü¦": 1834,
      "ĠÜ¢ÜĹÜĺÜĺÜ¢": 1835,
      "Î¹Î»": 1836,
      "ÜĿÜłÜ¢ÜĲ": 1837,
      "ĠÜ«ÜĺÜĴ": 1838,
      "ĠÜ¬Ü¡": 1839,
      "ÜķÜ¡Ü¬": 1840,
      "ÏħÏĩ": 1841,
      "ÏħÏģÎ¯": 1842,
      "ĠÜ©ÜĿ": 1843,
      "ĠÜªÜĺÜļ": 1844,
      "ĠÜķÜ¡ÜªÜ¢": 1845,
      "ĠÜĺÜĲÜ¡ÜªÜĿÜ¢": 1846,
      "Î¯Î±ÏĤ": 1847,
      "ĠÜ¦Üł": 1848,
      "ĠÏĥÎ®Î¼ÎµÏģÎ¿Î½": 1849,
      "Î¬Î»": 1850,
      "Î¸Î±": 1851,
      "á¿¶ÏĤ": 1852,
      "Ü«ÜĿÜĵ": 1853,
      "ÜªÜĺÜķÜ£": 1854,
      "ĠÜĻÜĴ": 1855,
      "ÏĮÎ¼ÎµÎ½": 1856,
      "ĠÜĲÜ¦ÜłÜĲ": 1857,
      "ÏįÎ½": 1858,
      "ĠÜķÜļÜĻ": 1859,
      "ĠÜķÜĴÜ«Ü¡ÜĿÜĲ": 1860,
      "ĠÜłÜŁÜĿ": 1861,
      "Ü©ÜªÜ¨ÜĲ": 1862,
      "Ü¢ÜĺÜĹ": 1863,
      "á¿ĨÎ½Î±Î¹": 1864,
      "Ü¥ÜĴÜķÜĺÜ¢": 1865,
      "ÜļÜĿÜłÜĲ": 1866,
      "ĠÎ¸ÎµÎ¯": 1867,
      "ĠÜĴÜĿÜ¬ÜĹ": 1868,
      "Õ¸ÖĢÕ°": 1869,
      "Ġá¼ĢÏĢá½¸": 1870,
      "Ü«Ü¥ÜĿÜĲ": 1871,
      "Ġá½ķÎ´": 1872,
      "Ì¤": 1873,
      "Ô±": 1874,
      "ÜłÜĿÜ¬": 1875,
      "ÜłÜĽÜ¢ÜĲ": 1876,
      "ÜªÜ¬ÜĲ": 1877,
      "ÜķÜĺÜ¢": 1878,
      "ÜĴÜ¥ÜĿÜ¢": 1879,
      "ĠÜķÜĴÜĲ": 1880,
      "ĠÜķÜªÜĴ": 1881,
      "ĠÜĲÜ«ÜŁ": 1882,
      "ĠÜĲÜĺÜªÜļÜĲ": 1883,
      "Ü«ÜªÜĿ": 1884,
      "ĠÜ¡Ü¬Ü¬": 1885,
      "Ü¦ÜĺÜ©": 1886,
      "ĠÜĴÜªÜĿ": 1887,
      "Ü£ÜĿÜ¡": 1888,
      "Î¿Î¼ÎŃÎ½": 1889,
      "á¿¥": 1890,
      "ÜķÜĲÜ¬ÜĲ": 1891,
      "ÜķÜĲÜ¢Ü«ÜĲ": 1892,
      "ĠÜĿÜĹÜĺÜķÜĲ": 1893,
      "ĠÜŁÜĿ": 1894,
      "ĠÜ¢ÜĺÜĹÜªÜĲ": 1895,
      "ĠÜłÜĲÜĺÜªÜ«ÜłÜ¡": 1896,
      "ĠÜ¡Ü¢ÜĿ": 1897,
      "Ü¨ÜĴÜĿÜ¢": 1898,
      "ÜªÜĿÜ«ÜłÜ¡": 1899,
      "ÜĺÜĲÜ¦": 1900,
      "ĠÜªÜĴÜ¬ÜĲ": 1901,
      "ÜķÜ¥ÜķÜĲ": 1902,
      "ĠÜķÜ¢Üļ": 1903,
      "ÖĢÕ§": 1904,
      "ÜĴÜĿÜķ": 1905,
      "ĠÏĥÎµ": 1906,
      "ĠÏĢÎ»": 1907,
      "Î¬Î¶": 1908,
      "Î¸Îµ": 1909,
      "ĠÜĲÜ¬ÜĿÜ¬": 1910,
      "ĠÜķÜĿÜĺ": 1911,
      "ÜŁÜłÜ©ÜªÜ¨ÜĲ": 1912,
      "ĠÜĽÜĿ": 1913,
      "ĠÜłÜŁÜ¢": 1914,
      "ĠÜļÜķÜ¬ÜĲ": 1915,
      "ĠÜ¨ÜĴ": 1916,
      "ĠÜĴÜĲÜĿ": 1917,
      "ĠÕ°ÖĢ": 1918,
      "ÜĲÜ¢Ü¬Ü¬ÜĲ": 1919,
      "ÜĺÜķÜĿÜ¬ÜĲ": 1920,
      "ĠÜ¥ÜķÜŁÜĿÜł": 1921,
      "Î»Î¿Î³": 1922,
      "ÎµÎ¿ÏĦÏĮ": 1923,
      "ĠÜłÜĺÜ©ÜķÜ¡": 1924,
      "ÖħÖĢÕ«Õ¶": 1925,
      "ĠÎ´Î¿ÏįÎ»": 1926,
      "Õ¨Õ¶Õ¤": 1927,
      "ĠÏħ": 1928,
      "ÜĲÜ¬Ü¬": 1929,
      "Ü¢ÜĹÜĺÜĲ": 1930,
      "ÜłÜĺÜ¬ÜĲ": 1931,
      "Ü¡ÜªÜĿ": 1932,
      "ÜªÜĴÜĲ": 1933,
      "ÜĹÜ¢": 1934,
      "ĠÜłÜŁÜł": 1935,
      "Ü¥ÜĿ": 1936,
      "Ü¥Ü¬ÜĹ": 1937,
      "Ü¥ÜĴÜķÜĲ": 1938,
      "ĠÜĺÜłÜĹ": 1939,
      "ĠÜĺÜ«ÜĴ": 1940,
      "ĠÜ¡Üĺ": 1941,
      "ĠÜ¡ÜłÜĲ": 1942,
      "ĠÜ¡ÜªÜĲ": 1943,
      "ĠÜ¡Ü«ÜłÜ¡": 1944,
      "ĠÜ¡Ü¦Ü©": 1945,
      "Ü©ÜķÜĿ": 1946,
      "ĠÜĴÜĹÜĿÜŁÜłÜĲ": 1947,
      "Ü£ÜŁ": 1948,
      "Ü£ÜĿÜ¢": 1949,
      "ÜĵÜ¡ÜĲ": 1950,
      "ÜĻÜķÜĿ": 1951,
      "ĠÜĲÜ¢ÜĿ": 1952,
      "ĠÜĲÜ¢ÜķÜĿÜ¢": 1953,
      "ĠÜ¢ÜĹÜĺ": 1954,
      "Õ¸Õ½": 1955,
      "ĠÜķÜĿÜ¢ÜĲ": 1956,
      "ÜĹÜĺÜĿÜ¬ÜĺÜ¢": 1957,
      "ÏĢÏģ": 1958,
      "ĠÜ«Ü¢": 1959,
      "ĠÜ¬ÜłÜ¬ÜĲ": 1960,
      "ĠÜĲÜ¡ÜªÜĿÜ¢": 1961,
      "ÏħÎ¼": 1962,
      "ÜĺÜ¬ÜŁÜĺÜ¢": 1963,
      "ĠÜ©ÜłÜĲ": 1964,
      "ÜłÜĿÜ«ÜĺÜ¥": 1965,
      "ĠÎºÏĮ": 1966,
      "ĠÜ£ÜŁ": 1967,
      "ÜĺÜªÜķÜ¢Ü¢": 1968,
      "Õ¡Õ¶Õ£": 1969,
      "Õ¥Õ©Õ§": 1970,
      "Î·Î½": 1971,
      "ÜķÜĿÜĺ": 1972,
      "Î³Î³": 1973,
      "ÜĺÜłÜĺÜ£": 1974,
      "Õ«Õ¶Õ¹": 1975,
      "ÜļÜªÜ¬ÜĲ": 1976,
      "ÜĺÜķÜĿÜĲ": 1977,
      "Ü¡ÜªÜĺÜ¢": 1978,
      "ĠÜĴÜĿÜ¬ÜĲ": 1979,
      "á½°Ïģ": 1980,
      "ÜĹÜĿÜ¡Ü¢ÜĺÜ¢": 1981,
      "ĠÜķÜĹÜĲ": 1982,
      "ĠÜĺÜ¬ÜĺÜĴ": 1983,
      "Ġá¼ģÎ³Î¹": 1984,
      "ĠÜ¥ÜłÜĿÜĹÜĺÜ¢": 1985,
      "ĠÏĨÎ¹Î»": 1986,
      "ĠÎ½á¿¦Î½": 1987,
      "ĠÜ¡Ü«ÜŁÜļÜĿÜ¢": 1988,
      "ĠÜĹÜĿÜ¡Ü¢Üĺ": 1989,
      "ĠÎ²Î±": 1990,
      "ÜĿÜłÜĿÜ¦ÜĺÜ£": 1991,
      "Ġá¼ĦÎ½": 1992,
      "ĠÎ±á¼°": 1993,
      "ÏħÏģÎ¯Î¿": 1994,
      "ÜĲÜŁ": 1995,
      "ÜĲÜĴÜĲ": 1996,
      "ÜĿÜ«ÜĿ": 1997,
      "Ü¡ÜĿÜŁ": 1998,
      "ÜĹÜ«ÜĲ": 1999,
      "ÜĹÜķÜĿÜ¢": 2000,
      "ÜķÜªÜĲ": 2001,
      "ÜķÜĴÜªÜĲ": 2002,
      "ÜĴÜķÜĿÜ¢": 2003,
      "ĠÜķÜĴÜª": 2004,
      "ĠÜĲÜ«": 2005,
      "ĠÜĲÜļÜĿ": 2006,
      "ÜŁÜ£ÜĲ": 2007,
      "Ü«ÜĺÜ¢": 2008,
      "Ü«Ü¢ÜĲ": 2009,
      "ĠÜłÜ¥Üł": 2010,
      "ÜļÜ¢Ü¢": 2011,
      "ĠÜ¡ÜķÜĿÜ¢Ü¬ÜĲ": 2012,
      "ĠÜĴÜķÜ¡": 2013,
      "ĠÜĴÜ¥ÜĲ": 2014,
      "ĠÜĴÜ¥ÜĿÜ¢": 2015,
      "Ü£ÜĽ": 2016,
      "Ü£ÜĿÜª": 2017,
      "Î±Ïħ": 2018,
      "ÏĦá½¸ÏĤ": 2019,
      "ĠÕ¹": 2020,
      "ÏĥÎµÎ¹": 2021,
      "ĠÜ¢ÜĿ": 2022,
      "ĠÜ¢ÜĴ": 2023,
      "ÏģÎ¬": 2024,
      "Ġá¼µ": 2025,
      "ÏĢÎ¿Î¹": 2026,
      "ĠÜļÜ¨": 2027,
      "ĠÜ¡Ü¢ÜŁ": 2028,
      "ĠÜĲÜ¡ÜĹ": 2029,
      "ÜĢÜĢ": 2030,
      "ÖĤÖĢ": 2031,
      "ÜłÜĿÜ«ÜĴÜ¥": 2032,
      "ÜķÜ¥ÜĺÜ¢": 2033,
      "Î¯Î½": 2034,
      "ÏīÏģ": 2035,
      "ĠÜ¦ÜĵÜª": 2036,
      "ĠÏĥÏħÎ½": 2037,
      "Ü¬ÜªÜ¥ÜĲ": 2038,
      "ÜĺÜĴÜ¬ÜĲ": 2039,
      "ĠÜĲÜĿÜ¬ÜĿÜĹÜĺÜ¢": 2040,
      "Õ¯Õ«Õ¶": 2041,
      "ĠÜłÜĺÜ¬ÜĹÜĺÜ¢": 2042,
      "Õ¿Õ¶": 2043,
      "á½°ÏĤ": 2044,
      "ÜĲÜĿÜ¬ÜĿÜĹ": 2045,
      "Î¾Î¿Î½": 2046,
      "ÜĲÜĿÜŁÜĲ": 2047,
      "Õ¡ÖĤÕ¸ÖĢ": 2048,
      "ĠÜ¡Ü¬ÜłÜĲ": 2049,
      "ÜŁÜĿÜ¡ÜĲ": 2050,
      "ĠÜķÜŁÜ¬ÜĿÜĴ": 2051,
      "ÜĵÜłÜĿÜĺÜ¢": 2052,
      "ĠÜĲÜļÜĺÜĹÜĿ": 2053,
      "ĠÜ¥ÜłÜĿÜŁÜĺÜ¢": 2054,
      "Õ¡Õ²Õ¸ÖĢÕ¤": 2055,
      "Ġá¼ģÎ³Î¯Î¿Ïħ": 2056,
      "ĠÜ«ÜªÜªÜĲ": 2057,
      "ĠÕ¿ÖĢ": 2058,
      "ÏĢÎ¿ÏĦÎ±": 2059,
      "ÜĺÜĴÜĿÜĹÜĺÜ¢": 2060,
      "Ġá¼±ÎµÏģ": 2061,
      "ÎŃÏĥÏĢÎ¿ÏĦÎ±": 2062,
      "ĠÎ¿á½Ĳ": 2063,
      "ĠÜĿÜ¬ÜĿÜªÜĲÜĿÜ¬": 2064,
      "ÜĲÜĺÜłÜķ": 2065,
      "ÜĺÜ¡Ü¢": 2066,
      "Ü¡Ü¬ÜĹ": 2067,
      "Ü¡ÜłÜ¬ÜĲ": 2068,
      "Ü¡ÜĿÜ¢ÜĲ": 2069,
      "Ü¬Ü¢": 2070,
      "ÜĴÜ£Üª": 2071,
      "ĠÜķÜ¬Ü¬": 2072,
      "ĠÜķÜ¦Ü©": 2073,
      "ĠÜķÜķÜĺÜĿÜķ": 2074,
      "ĠÜĲÜĵÜª": 2075,
      "ÜŁÜļ": 2076,
      "ĠÜłÜĵ": 2077,
      "ĠÜłÜĵÜłÜĿÜłÜĲ": 2078,
      "ÜĺÜ¢ÜĵÜłÜĿÜĺÜ¢": 2079,
      "ÜļÜ©": 2080,
      "ÜļÜ¡ÜĲ": 2081,
      "ÜļÜ«ÜĴ": 2082,
      "Ü©ÜĹ": 2083,
      "Ü©ÜĺÜª": 2084,
      "Î½Î¿": 2085,
      "ÏĦá½´Î½": 2086,
      "á½ģ": 2087,
      "ÎµÎº": 2088,
      "ĠÜŁÜ¬ÜĴ": 2089,
      "ĠÜ¢Ü¥ÜĴÜķ": 2090,
      "ĠÜķÜĲÜļ": 2091,
      "ĠÜķÜĲÜĴÜĲ": 2092,
      "ĠÜłÜĲÜĴÜĲ": 2093,
      "ĠÜłÜĲÜ¢Ü«": 2094,
      "Ġá¼°": 2095,
      "Õ«Õ¿": 2096,
      "Õ«ÖģÕ§": 2097,
      "Ü«ÜĺÜłÜĽÜ¢ÜĲ": 2098,
      "ĠÜ«ÜĴÜ©": 2099,
      "Ü¡Ü¢ÜŁÜĺÜ¢": 2100,
      "ÜĺÜ¬ÜĿ": 2101,
      "ĠÜĵÜ¢": 2102,
      "ĠÜĵÜłÜĿÜłÜĲ": 2103,
      "ÜĺÜªÜĿÜĲ": 2104,
      "ĠÜķÜ¡Ü«ÜĿÜļÜĲ": 2105,
      "Õ¡Õ¶Õ«": 2106,
      "Õ¡Õ¶Õ¸Õ¶": 2107,
      "ĠÜķÜ¢ÜĹÜĺÜĲ": 2108,
      "ĠÜłÜ¡ÜłÜ¬ÜĲ": 2109,
      "ÎºÎ¿Ïħ": 2110,
      "ĠÜĺÜ¡ÜķÜ¡": 2111,
      "ÎŃÎ»": 2112,
      "ĠÜĻÜªÜ¥": 2113,
      "ÜķÜ¢Ü¬": 2114,
      "Ü¥Ü¡ÜĺÜķÜĿÜ¬ÜĲ": 2115,
      "Î´Î¹": 2116,
      "ĠÜ«Ü¡ÜĹ": 2117,
      "Õ¡ÖĢÕ£": 2118,
      "Õ¡ÖĢÕ±": 2119,
      "ĠÜĴÜĲÜĿÜķÜĹ": 2120,
      "Õ¸ÖĤÕ©Õ«Õ¶": 2121,
      "ÎµÎ¹Î½": 2122,
      "ĠÜķÜ«ÜķÜªÜ¢ÜĿ": 2123,
      "ĠÜķÜĿÜłÜŁ": 2124,
      "ĠÕ¥Õ²": 2125,
      "Î²ÎµÎ¯": 2126,
      "ĠÏĢÏģÎµÏĥ": 2127,
      "Õ¸ÖĢÕ´": 2128,
      "Õ¡Õ½Õ¶": 2129,
      "ĠÕ½ÕºÕ¡Õ¶": 2130,
      "ÜĺÜķÜĿÜ£": 2131,
      "ĠÕºÕ¡ÖĢÕ¿": 2132,
      "ĠÎ³á½°Ïģ": 2133,
      "Î»Î±Î¯": 2134,
      "á¼ĲÎ½": 2135,
      "ĠÜķÜĲÜ¬ÜĲÜ¡Üª": 2136,
      "ÜŁÜĺÜłÜ¬ÜĲ": 2137,
      "Î³Î±Î¸": 2138,
      "ĠÜ©ÜķÜĿÜ«ÜĲ": 2139,
      "ÜķÜ¨ÜĺÜ¡ÜĲ": 2140,
      "ĠÜļÜĽÜĹ": 2141,
      "ÜŁÜ¦ÜĺÜª": 2142,
      "ĠÎ¶Ïī": 2143,
      "ĠÜ«ÜĺÜłÜĽÜ¢ÜĲ": 2144,
      "ĠÏħá¼±": 2145,
      "Ġá¿¥": 2146,
      "ÜĲÜĿÜ¢": 2147,
      "Ü¢ÜĴÜĿÜĲ": 2148,
      "ÜĺÜ¥Üł": 2149,
      "Ü¡ÜĺÜ¢": 2150,
      "Ü¬ÜłÜĲ": 2151,
      "ĠÜķÜªÜĺÜļÜĲ": 2152,
      "ĠÜĲÜłÜĹ": 2153,
      "Ü«ÜĿÜĲ": 2154,
      "Ü«ÜĴÜĲ": 2155,
      "ĠÜłÜĴÜªÜĲ": 2156,
      "ĠÜłÜĴÜªÜĹ": 2157,
      "ÜĿÜ¢ÜĿ": 2158,
      "ĠÜĺÜķÜłÜĲ": 2159,
      "ĠÜ¡ÜĹÜĿÜ¡Ü¢": 2160,
      "ĠÜ¡ÜĹÜĿÜ¡Ü¢ÜĿÜ¢": 2161,
      "ĠÜĹÜĴ": 2162,
      "ĠÜĹÜªÜŁÜĲ": 2163,
      "Ü¦Ü«ÜĹ": 2164,
      "Ü©ÜĺÜĹÜĿ": 2165,
      "Ü©ÜĺÜ£": 2166,
      "ĠÜĴÜ¦": 2167,
      "ĠÜĴÜļÜķ": 2168,
      "ĠÜĴÜ«ÜĴÜ¬ÜĲ": 2169,
      "Ü£ÜĿÜĲ": 2170,
      "Õ¶Õ½": 2171,
      "ĠÕ©": 2172,
      "ÜĽÜłÜĲ": 2173,
      "ĠÎ§": 2174,
      "ÜĵÜ¬ÜĲ": 2175,
      "ĠÜłÜĹÜ¢ÜĲ": 2176,
      "ÜłÜĹÜķÜĲ": 2177,
      "ÏĥÎ·ÏĤ": 2178,
      "ÜĹÜĿÜ¡Ü¢ÜĲ": 2179,
      "ÎµÏĨ": 2180,
      "ĠÜĺÜĲÜĿÜłÜĿÜ¢": 2181,
      "ĠÜķÜĲÜ¢Ü¬": 2182,
      "Ġá¼¸": 2183,
      "ÜĹÜĺÜĿÜ¬": 2184,
      "ĠÜļÜĽÜĿÜ¬ÜĲ": 2185,
      "ĠÜ¬ÜłÜ¬": 2186,
      "ÜĿÜªÜ¬ÜĲ": 2187,
      "ÜĺÜ¬Üª": 2188,
      "ĠÜ©ÜĺÜ¡": 2189,
      "ĠÜ©ÜªÜĿÜ¬ÜĲ": 2190,
      "ÜĺÜĲÜĿÜ¬": 2191,
      "ĠÜķÜ¡ÜĹÜĿÜ¡Ü¢": 2192,
      "Õ¡Õ¶Õ§": 2193,
      "Ü«Ü¡ÜĿ": 2194,
      "ÜĴÜķÜĿ": 2195,
      "ÜķÜĿÜ«ÜĲ": 2196,
      "Î¿á¿¦Î½": 2197,
      "ÜĿÜķÜĺ": 2198,
      "ĠÜķÜĿÜĹ": 2199,
      "Ġá½¡": 2200,
      "ĠÖĩÕµ": 2201,
      "ĠÜĽÜĴÜ¬ÜĲ": 2202,
      "Ġá¼ĢÎ»": 2203,
      "Õ´Õ¡Õ¶": 2204,
      "Ü©ÜªÜĿÜĲ": 2205,
      "ĠÜ¢Ü¦Ü«ÜĿ": 2206,
      "ĠÕ«ÖĤÖĢ": 2207,
      "Ü¥ÜĴÜķÜĹ": 2208,
      "Õ¸ÖĤÕ©Õ¥Õ¶": 2209,
      "ĠÜķÜ¬ÜłÜ¬": 2210,
      "Õ¡ÕµÕ½": 2211,
      "ĠÜĺÜĹÜ¢ÜĺÜ¢": 2212,
      "ºÕ¡Õ·": 2213,
      "ĠÜĴÜ¢Ü¦Ü«": 2214,
      "ÜļÜĺÜŁ": 2215,
      "ĠÕ¥ÖĢ": 2216,
      "ĠÕ¥Õ¯": 2217,
      "Ġá¼ģÎ¼Î±Ïģ": 2218,
      "ĠÜĺÜŁÜłÜĹ": 2219,
      "Õ¥Õ²Õ¥Öģ": 2220,
      "Îµá¿ĸÎ½": 2221,
      "ĠÜ¢ÜĲÜ¬ÜĲ": 2222,
      "ĠÜĴÜ«ÜĴÜĲ": 2223,
      "ĠÜ¨ÜĴÜĿÜ¢ÜĹ": 2224,
      "ĠÜķÜ¡Ü¬Ü©ÜªÜĲ": 2225,
      "ĠÜłÜĴÜĿÜ¬ÜĹ": 2226,
      "Ü«ÜĴÜĺÜļÜ¬ÜĲ": 2227,
      "ÜĵÜ¡ÜĺÜ¢ÜĲ": 2228,
      "ĠÎ¿á¼±": 2229,
      "ĠÜĴÜ¬ÜªÜĿ": 2230,
      "ÜŁÜ¢Ü«Üĺ": 2231,
      "ÜķÜłÜ¥ÜłÜ¡": 2232,
      "ÜªÜĿÜĺÜĽÜĲ": 2233,
      "ĠÏĪÏħÏĩ": 2234,
      "Õ¨Õ¶Õ¯": 2235,
      "ĠÕ¡ÖĢÕªÕ¡Õ¶": 2236,
      "Ü¢ÜĺÜĹÜĿ": 2237,
      "Ü¢ÜĺÜ¬ÜĲ": 2238,
      "ÜĺÜĽ": 2239,
      "ÜĺÜ¨": 2240,
      "Ü¡ÜĽ": 2241,
      "Ü¡ÜªÜĲ": 2242,
      "Ü¡Ü¨": 2243,
      "ÜªÜªÜĲ": 2244,
      "ĠÜķÜłÜĿ": 2245,
      "ĠÜĲÜĴÜªÜĹÜ¡": 2246,
      "ĠÜłÜļÜ¡": 2247,
      "ĠÜłÜĴÜĿÜ¬ÜĲ": 2248,
      "ĠÜĺÜ¦": 2249,
      "ĠÜĺÜ¬Üª": 2250,
      "ĠÜĺÜļÜĻ": 2251,
      "ĠÜĺÜķÜļ": 2252,
      "ÜļÜ¢": 2253,
      "ĠÜ¡Ü¡": 2254,
      "ĠÜ¡ÜļÜķÜĲ": 2255,
      "ĠÜ¡Ü©ÜĴÜł": 2256,
      "Ì£.": 2257,
      "Î½Î¿Î½": 2258,
      "Ü£ÜĵÜĿ": 2259,
      "ĠÕ·": 2260,
      "ĠÜ¥Ü¬ÜĿÜķ": 2261,
      "Õ¡Õ¢": 2262,
      "ĠÜĺÜĲÜ¬ÜĲ": 2263,
      "ĠÜŁÜ¦": 2264,
      "ĠÜŁÜ£ÜĲ": 2265,
      "ĠÜķÜĲÜª": 2266,
      "ĠÜķÜĲÜĴÜĿ": 2267,
      "ÏģÎ³": 2268,
      "ÏģÎŃ": 2269,
      "ĠÜļÜĿÜĲ": 2270,
      "ĠÜ«ÜĴÜĺ": 2271,
      "ĠÜ«ÜłÜ¡ÜĲ": 2272,
      "ĠÜ«Ü¦ÜĿÜª": 2273,
      "ĠÜ¬ÜªÜ¢": 2274,
      "ÜĿÜªÜĺÜķÜĿÜ£": 2275,
      "ĠÜ©Üĺ": 2276,
      "ĠÜªÜĴÜ¢": 2277,
      "ĠÜ£ÜĿÜ¡": 2278,
      "ĠÜ£Ü¦Üª": 2279,
      "ĠÜ£ÜĽÜ¢ÜĲ": 2280,
      "ĠÜ£ÜłÜ©": 2281,
      "ĠÜ¦Ü©": 2282,
      "ÜĴÜĿÜ«ÜĲ": 2283,
      "ĠÏĥÎ¿Î¹": 2284,
      "Ü¬ÜĿÜķÜ¥": 2285,
      "ĠÜĺÜ¡ÜĽÜł": 2286,
      "Õ¸Õ»": 2287,
      "ĠÜĴÜªÜ¡": 2288,
      "Î¸Î±Ïģ": 2289,
      "á¿¶Î¼ÎµÎ½": 2290,
      "ÜĺÜłÜ¬ÜĲ": 2291,
      "ĠÜĻÜĿ": 2292,
      "ĠÜķÜĿÜĺÜ¡": 2293,
      "ĠÜķÜĿÜĺÜļÜ¢Ü¢": 2294,
      "ÏĮÎ³": 2295,
      "Ġá½Ģ": 2296,
      "ĠÕ¡Õ²": 2297,
      "ĠÜķÜĴÜ¢": 2298,
      "ĠÜĺÜ¢Ü£": 2299,
      "ÜĿÜĹÜĿÜ¢": 2300,
      "Ü¡ÜªÜĿÜĲ": 2301,
      "ĠÜĴÜĿÜ«Ü¬ÜĲ": 2302,
      "Ü«ÜĴÜļ": 2303,
      "ĠÕ¦Õ°": 2304,
      "ĠÜĺÜĴÜ¬Üª": 2305,
      "Õ¡ÖĢÕ°": 2306,
      "ĠÜŁÜłÜŁÜĺÜ¢": 2307,
      "ĠÜķÜ¥Ü¡ÜĲ": 2308,
      "ĠÜķÜ¬ÜłÜ¬ÜĲ": 2309,
      "Õ¡Õ´Õ¢": 2310,
      "ĠÕ¸ÖĢÕ": 2311,
      "ĠÜķÜĹÜŁÜ¢ÜĲ": 2312,
      "ÜķÜĺÜŁÜ¬ÜĲ": 2313,
      "ÏİÏĢ": 2314,
      "ĠÎ´Î¹Î±": 2315,
      "ĠÜķÜ¨Ü¦ÜªÜĲ": 2316,
      "ĠÎ³ÎµÎ½": 2317,
      "ĠÎ»Î±": 2318,
      "Ü¡ÜłÜŁÜĲ": 2319,
      "ĠÜ«ÜłÜĿÜĽ": 2320,
      "Õ¼Õ³": 2321,
      "Ü¢ÜļÜĺÜ¡": 2322,
      "Î¬ÏģÏĩ": 2323,
      "ĠÜ¬ÜķÜļÜłÜĺÜ¢": 2324,
      "ĠÎºÎ±ÏĦá½°": 2325,
      "ĠÖħÖĢÕ«Õ¶": 2326,
      "ÜĲÜ«Ü¬": 2327,
      "ÜĲÜĿÜ¢ÜĲ": 2328,
      "Ü¢Ü£": 2329,
      "ÜĺÜĴÜª": 2330,
      "ÜłÜĺÜĹÜĿ": 2331,
      "ÜķÜĴÜª": 2332,
      "ÜķÜŁÜª": 2333,
      "ÜĴÜĿÜŁÜĹÜ¢ÜĲ": 2334,
      "ĠÜķÜĿÜ¬": 2335,
      "ĠÜķÜĴÜªÜĹ": 2336,
      "ĠÜķÜĺÜŁ": 2337,
      "ĠÜĲÜĺÜªÜ«ÜłÜ¡": 2338,
      "ĠÜĲÜĿÜ¡ÜŁÜĲ": 2339,
      "ÜŁÜ¬": 2340,
      "ĠÜłÜ«": 2341,
      "ĠÜłÜĽÜĺÜªÜĲ": 2342,
      "Ü¥Ü¡ÜĲ": 2343,
      "ĠÜĺÜķÜĲ": 2344,
      "ĠÜĺÜĴÜĲ": 2345,
      "ĠÜĺÜ¥Ü¡": 2346,
      "ĠÜĺÜĴÜªÜĹ": 2347,
      "ÜļÜĺÜĹÜĿ": 2348,
      "ĠÜ¡Ü¥": 2349,
      "ĠÜ¡ÜĺÜ¬ÜĲ": 2350,
      "Ü¦ÜĿÜłÜĽÜĺÜ£": 2351,
      "Ü©Ü¬": 2352,
      "ÜłÜĲÜĿÜłÜĿÜ¢": 2353,
      "ÏĦÏī": 2354,
      "á½ºÏĤ": 2355,
      "ĠÎĺ": 2356,
      "ĠÜłÜĹÜ¢ÜĺÜ¢": 2357,
      "á¼´": 2358,
      "ÜĻÜªÜ¥": 2359,
      "ĠÜĿÜª": 2360,
      "ÖĢÕ¶": 2361,
      "ĠÜŁÜĺ": 2362,
      "ĠÜŁÜ¬ÜĴÜĲ": 2363,
      "ĠÜ¢Ü¡": 2364,
      "ÏģÎ¿": 2365,
      "ÏģÎ·": 2366,
      "Ïģá¿¶Î½": 2367,
      "ÏĢÎ¯": 2368,
      "ĠÜ«ÜªÜĴÜ¬ÜĲ": 2369,
      "ĠÜ¬Ü«": 2370,
      "ÜķÜ¡ÜªÜĿÜĲ": 2371,
      "ÜłÜ¡ÜĿ": 2372,
      "Ü¡Ü¢ÜĹÜĺÜ¢": 2373,
      "ÏħÏĥ": 2374,
      "Ü¨ÜĴ": 2375,
      "Ü¨Ü¦": 2376,
      "ĠÜ©ÜĲÜ¡": 2377,
      "ĠÜĲÜ¢Ü¬ÜĿ": 2378,
      "Î»Î¬": 2379,
      "Î»ÎµÎ¯": 2380,
      "ÜķÜĿÜ¢Ü¬ÜĹ": 2381,
      "ĠÜªÜ¡ÜĲ": 2382,
      "ĠÜ¦ÜĵÜªÜĲ": 2383,
      "ÜĴÜĿÜĺÜ¡ÜĲ": 2384,
      "Ü¿ÌĪ": 2385,
      "ĠÏĥá½²": 2386,
      "ÜĺÜ¡Ü¬ÜĲ": 2387,
      "Õ¥Õ®": 2388,
      "ÜķÜĿÜłÜĹ": 2389,
      "ÜķÜĿÜ«ÜĺÜ¥": 2390,
      "ÜłÜŁÜĺÜ¬ÜĹ": 2391,
      "Ġá¼ĲÎ»Î±Î¯": 2392,
      "ĠÜłÜĿÜĺÜ¡ÜĲ": 2393,
      "ÏĮÎ»": 2394,
      "ÏĮÎ¼Îµ": 2395,
      "ÏĮÏĦÎ·": 2396,
      "Õ«Õ¶Õ¥Õ¬": 2397,
      "ÜķÜ¢ÜĹ": 2398,
      "ĠÜłÜĺÜ¬ÜŁÜĺÜ¢": 2399,
      "Ü«ÜłÜ¡ÜĿÜĺÜĹÜĿ": 2400,
      "ĠÜ¢Ü¦Ü«ÜŁ": 2401,
      "ĠÕ«Õ½Õ¯": 2402,
      "ĠÜķÜ¥Üª": 2403,
      "Ü£ÜĿÜªÜĲ": 2404,
      "ĠÜķÜĹÜłÜĿÜ¢": 2405,
      "ĠÜĺÜĲÜ¢Ü¬": 2406,
      "ĠÜĺÜ«ÜªÜĿ": 2407,
      "ĠÜĺÜ«ÜķÜª": 2408,
      "Ü¢ÜĿÜ¢Ü«ÜĲ": 2409,
      "ĠÜĺÜ¥Ü¢": 2410,
      "ĠÎ±á½ĲÏĦÎ¿á¿¦": 2411,
      "Õ³Õ²": 2412,
      "ĠÜĺÜ£Ü¦Üª": 2413,
      "ĠÜķÜ¨ÜĴÜĲ": 2414,
      "ĠÜĲÜ£Ü¬": 2415,
      "ĠÕ½ÖĢÕ¢": 2416,
      "ĠÜļÜ¡Ü«ÜĲ": 2417,
      "Ü¡ÜłÜŁÜĺÜ¬ÜĲ": 2418,
      "Õ·Õ¶": 2419,
      "ĠÜ«ÜĲÜłÜĺ": 2420,
      "ĠÕ¾Õ½": 2421,
      "ÏĥÎ¸Î±Î¹": 2422,
      "ĠÕ¸ÖĤÕ¶": 2423,
      "ĠÜĴÜŁÜłÜĻÜĴÜ¢": 2424,
      "ĠÜ¡ÜłÜ¦Ü¢ÜĲ": 2425,
      "ĠÜ¡Ü«ÜŁÜļÜĲ": 2426,
      "Õ¡ÕºÕ¡": 2427,
      "Ü«ÜĺÜĴÜļÜĲ": 2428,
      "ĠÜĴÜłÜĴÜĹ": 2429,
      "ĠÎºÏĮÏĥÎ¼": 2430,
      "ÜĲÜļÜª": 2431,
      "ÜĲÜļÜªÜ¢ÜĲ": 2432,
      "ÜĺÜĹÜĺ": 2433,
      "ÜĺÜķÜ¥": 2434,
      "ÜĺÜĿÜĹ": 2435,
      "ÜłÜķ": 2436,
      "ÜłÜ£": 2437,
      "ÜłÜĴÜª": 2438,
      "Ü¬Ü¦": 2439,
      "ÜªÜŁ": 2440,
      "ÜĴÜĻ": 2441,
      "ÜĴÜĿÜł": 2442,
      "ĠÜķÜĹÜ¢ÜĲ": 2443,
      "ĠÜĲÜĴÜĺÜŁÜĺÜ¢": 2444,
      "ĠÜĲÜĿÜłÜ¢ÜĲ": 2445,
      "ĠÜĲÜ«Ü¥ÜĿÜĲ": 2446,
      "ĠÜĲÜŁÜłÜ©ÜªÜ¨ÜĲ": 2447,
      "ĠÜłÜª": 2448,
      "ĠÜĺÜ¬ÜĲ": 2449,
      "ĠÜĺÜłÜŁ": 2450,
      "ĠÜĺÜŁÜĲ": 2451,
      "ĠÜĺÜ¦Üª": 2452,
      "ĠÜĺÜ©ÜªÜĴ": 2453,
      "ÜļÜ£": 2454,
      "ÜļÜ¬ÜĹ": 2455,
      "ĠÜĴÜĽ": 2456,
      "ĠÜĴÜĵ": 2457,
      "ĠÜĴÜ«Ü¡ÜĹ": 2458,
      "ÏĦÎ®": 2459,
      "ÏĦá½¸Î½": 2460,
      "á½¼": 2461,
      "ÜĽÜĺ": 2462,
      "ÜĽÜĹÜĿ": 2463,
      "ÜĵÜĹ": 2464,
      "ÜĵÜĻ": 2465,
      "ĠÜłÜĹÜĺ": 2466,
      "á¼ģ": 2467,
      "ÏĥÏĢ": 2468,
      "ĠÜĺÜĲÜ£": 2469,
      "ĠÜĺÜĲÜ¬Ü¬": 2470,
      "ĠÜĿÜ¡ÜĲ": 2471,
      "ĠÜĿÜĹÜĴ": 2472,
      "ĠÜŁÜĺÜª": 2473,
      "ĠÜ¢ÜĽ": 2474,
      "Î¹Î¼": 2475,
      "ĠÜķÜĲÜĻ": 2476,
      "ĠÜķÜĲÜªÜ¥ÜĲ": 2477,
      "ĠÜķÜĲÜ¢Ü«": 2478,
      "ÏĢÎŃ": 2479,
      "ĠÜ«Ü¥Ü¬ÜĹ": 2480,
      "ĠÜ¬ÜªÜ¥ÜĲ": 2481,
      "ÜĿÜªÜĿÜ¢": 2482,
      "ÜĺÜ¬ÜŁ": 2483,
      "ÜłÜĿÜĺÜĹÜĿ": 2484,
      "ÜłÜĿÜļÜĲ": 2485,
      "ÜĺÜĲÜ¡Üª": 2486,
      "ÜĴÜªÜ¬ÜĲ": 2487,
      "ĠÜķÜ¡ÜĿÜĲ": 2488,
      "Î¯Î±": 2489,
      "ÏīÏĥÎ¿Î½": 2490,
      "ĠÜ¦ÜĽÜªÜĺÜ£": 2491,
      "ĠÏĥÎ¿á¿¦": 2492,
      "ĠÜłÜ¡Ü¨": 2493,
      "ÎºÎŃ": 2494,
      "Î¸ÎŃÎ½": 2495,
      "ÜĺÜłÜ¨": 2496,
      "ĠÜĻÜķÜĿ": 2497,
      "ĠÜĻÜªÜ¥ÜĲ": 2498,
      "ĠÜķÜĿÜłÜĹÜĺÜ¢": 2499,
      "ÜŁÜłÜĺ": 2500,
      "ĠÜĲÜ¦Ü¢": 2501,
      "ĠÜ¥Ü¡ÜŁ": 2502,
      "ĠÜķÜļÜķÜĴ": 2503,
      "Ü¦ÜªÜ¢ÜļÜĺÜ¡": 2504,
      "ĠÜļÜķÜĺÜ¬ÜĲ": 2505,
      "Õ¡ÖĢÕ¯": 2506,
      "ÜłÜ¦Ü¢ÜĲ": 2507,
      "ĠÕ«Õ´": 2508,
      "Ü¥ÜĴÜķÜĺ": 2509,
      "ÜĹÜĿÜ¡Ü¢Üĺ": 2510,
      "ĠÎ¼á½´": 2511,
      "Õ¡ÕµÖģ": 2512,
      "ĠÎ¸Îµ": 2513,
      "ÏĥÎ¹ÏĤ": 2514,
      "ĠÜĺÜĲÜ¢Ü¬ÜĺÜ¢": 2515,
      "ÜķÜ©ÜĺÜķÜ«ÜĲ": 2516,
      "ĠÜķÜĿÜłÜŁÜĺÜ¢": 2517,
      "Ü¡Ü¬ÜĺÜ¡": 2518,
      "Õ¸ÖĢÕ®": 2519,
      "ĠÎ±á½ĲÏĦá½¸Î½": 2520,
      "ĠÜķÜ¨ÜĺÜ¡ÜĲ": 2521,
      "Õ¡Õ¼Õ¶": 2522,
      "á½¶ÏĤ": 2523,
      "Õ¡ÖĢÕ¿Õ¡ÖĦ": 2524,
      "ÜłÜĴÜĹÜĺÜ¢": 2525,
      "Õ«Õ½Õ¿": 2526,
      "ĠÜ«ÜªÜĿÜªÜĲÜĿÜ¬": 2527,
      "ĠÜ¡ÜĽÜłÜĹÜ¢ÜĲ": 2528,
      "ĠÏĢÎ¬Î½ÏĦÏīÎ½": 2529,
      "ĠÜ«ÜłÜĿÜļÜĲ": 2530,
      "ĠÕ¨Õ¿": 2531,
      "ÜķÜĲÜĿÜ¬ÜĺÜĹÜĿ": 2532,
      "ĠÜ¦ÜĺÜ©ÜķÜ¢ÜĲ": 2533,
      "ĠÏĦÎ±á¿ĸÏĤ": 2534,
      "ÎµÏįÎ¼Î±ÏĦÎ¿": 2535,
      "á½ĳÏĢá½²Ïģ": 2536,
      "ĠÜ¬ÜļÜĿÜ¬": 2537,
      "Î²ÎµÎ¯Î±Î¹ÏĤ": 2538,
      "10": 2539,
      "Õľ": 2540,
      "Õŀ": 2541,
      "ÜĲÜĴÜĿ": 2542,
      "ÜĲÜłÜĿÜ¢": 2543,
      "ÜĲÜļÜĿ": 2544,
      "ÜĿÜ«": 2545,
      "ÜĿÜĹÜĺÜķÜĲ": 2546,
      "ÜĺÜłÜĿ": 2547,
      "ÜĺÜªÜĿÜ«ÜłÜ¡": 2548,
      "ÜķÜĹÜĺ": 2549,
      "ÜķÜ«Ü¡": 2550,
      "ÜķÜªÜĺ": 2551,
      "ÜĴÜĹÜĿÜŁÜłÜĲ": 2552,
      "ĠÜķÜłÜ¡": 2553,
      "ĠÜķÜķÜĿ": 2554,
      "ÜŁÜ¡ÜĲ": 2555,
      "ÜŁÜĺÜĹÜĿ": 2556,
      "ÜŁÜĺÜ¬": 2557,
      "Ü¥ÜªÜĲ": 2558,
      "ĠÜĺÜĵ": 2559,
      "ĠÜĺÜ«Ü¡": 2560,
      "ĠÜĺÜĹÜĺÜĲ": 2561,
      "ÜļÜĿÜĲ": 2562,
      "ĠÜ¡Ü¬ÜĴ": 2563,
      "ĠÜĹÜ¦": 2564,
      "Ü¦ÜĿÜªÜĲ": 2565,
      "Ü©Ü¬ÜĲ": 2566,
      "ĠÜĴÜ«Üĺ": 2567,
      "ÜłÜĲÜłÜĹÜĲ": 2568,
      "Î±Î³Î¯": 2569,
      "ÏĦá¿ĨÏĤ": 2570,
      "ĠÕ§": 2571,
      "ÜĽÜ¢": 2572,
      "ĠÜłÜĹÜĿÜ¢": 2573,
      "ÎµÏħ": 2574,
      "ÜĻÜķ": 2575,
      "ĠÜĿÜł": 2576,
      "ĠÜĿÜ¥Ü©ÜĺÜĴ": 2577,
      "Ġá¼ĳ": 2578,
      "ÜŁÜĺÜ¢ÜĲ": 2579,
      "ĠÜ«Ü¬ÜĲ": 2580,
      "ĠÜ¬Üĺ": 2581,
      "ĠÜ¬ÜªÜ¬": 2582,
      "ĠÜ¬ÜªÜ¥": 2583,
      "ĠÏĦÎ¿Ïį": 2584,
      "ÜĴÜĲÜªÜ¥ÜĲ": 2585,
      "Ü¨ÜĺÜ¦": 2586,
      "ĠÜ©ÜĿÜ¡ÜĿÜ¢": 2587,
      "ÜªÜĿÜĴ": 2588,
      "ÜłÜĿÜ¡ÜĲ": 2589,
      "ĠÜªÜĿÜ«ÜĲ": 2590,
      "ÜĺÜªÜ¬ÜĲ": 2591,
      "ÜķÜ¥Üł": 2592,
      "ÏīÏĦ": 2593,
      "Ü«Ü¡Ü«Ü¬ÜĲ": 2594,
      "ÜĴÜĿÜĴÜĲ": 2595,
      "ĠÜłÜ¡ÜªÜĿÜĲ": 2596,
      "Õ§ÖĢ": 2597,
      "ĠÏĢÎµ": 2598,
      "ÜłÜŁÜĿÜ¢": 2599,
      "ÜłÜŁÜ¢ÜĲ": 2600,
      "Ü¢ÜĿÜĹÜĺÜ¢": 2601,
      "ĠÜŁÜķÜĺ": 2602,
      "Î¸ÎµÎ½": 2603,
      "á¿¶ÏĥÎ¿Î½": 2604,
      "ĠÕ¡Õº": 2605,
      "ĠÜķÜļÜĿ": 2606,
      "ĠÜķÜļÜª": 2607,
      "ÜķÜªÜ¥": 2608,
      "Ü¦ÜªÜ«": 2609,
      "ÜļÜķÜĹ": 2610,
      "ÜłÜłÜ¬": 2611,
      "ĠÜķÜ©ÜĿÜ¡ÜĿÜ¢": 2612,
      "ÜķÜĴÜ¬Üª": 2613,
      "Ġ.ÜĢ": 2614,
      "ĠÜķÜ¥Ü¬ÜĿÜķ": 2615,
      "Õ¡ÕµÕ¬": 2616,
      "Õ¦Õ«": 2617,
      "ĠÜĺÜ«Ü©": 2618,
      "á¿ĸÎ½": 2619,
      "ÜĺÜ«ÜĿÜĲ": 2620,
      "ÜķÜĹÜªÜĺ": 2621,
      "ĠÜłÜ¡ÜĲÜ¡Üª": 2622,
      "ĠÜ¥ÜłÜĿÜĹ": 2623,
      "ĠÜ¡ÜĲÜŁÜĺÜłÜ¬ÜĲ": 2624,
      "ÜĿÜ£ÜļÜ©": 2625,
      "ĠÜĴÜ«ÜłÜ¡ÜĲ": 2626,
      "ĠÜĹÜĿÜ¡Ü¢ÜĺÜ¬ÜĲ": 2627,
      "ĠÜ«ÜªÜĿÜªÜĲ": 2628,
      "Î¸ÏģÏİÏĢ": 2629,
      "ĠÜ¡ÜłÜ¬ÜĹ": 2630,
      "ĠÜĿÜĺÜ¡Ü¢ÜĲ": 2631,
      "ĠÏĢÎ±ÏģÎ±": 2632,
      "ÏīÎ¸ÎµÎ½": 2633,
      "Ü«ÜłÜĿÜĽ": 2634,
      "ĠÜ¦Ü¬ÜĵÜ¡ÜĲ": 2635,
      "Î·Î¸á¿¶Î¼ÎµÎ½": 2636,
      "Õ¸Õ¼Õ¨Õ¶Õ¯": 2637,
      "Ü¢ÜĺÜĹÜªÜĲ": 2638,
      "ĠÜ£ÜŁÜªÜĿÜĺÜĽÜĲ": 2639,
      "ĠÎ²Î±ÏĥÎ¹": 2640,
      "Ġá½¡ÏĤ": 2641,
      "ÜĿÜĺÜļÜ¢Ü¢": 2642,
      "ÜĺÜĿÜĲ": 2643,
      "Ü¡Ü¡ÜĲ": 2644,
      "Ü¡ÜªÜĿÜ¡": 2645,
      "ÜķÜĴÜĲ": 2646,
      "ÜķÜ¬Üª": 2647,
      "ÜķÜļÜĻ": 2648,
      "ÜĴÜŁÜĺÜ¢": 2649,
      "ÜĴÜ¨": 2650,
      "ÜĴÜĹÜĺÜ¢": 2651,
      "ĠÜķÜĵÜłÜĿÜłÜĲ": 2652,
      "ĠÜķÜªÜĿÜ«": 2653,
      "ĠÜĲÜ¨": 2654,
      "ĠÜĲÜ©ÜĿÜ¡": 2655,
      "ĠÜłÜ¡Ü¢": 2656,
      "ĠÜłÜĴÜĲ": 2657,
      "ĠÜłÜ¥Ü¡": 2658,
      "ÜĺÜ¢Ü¦": 2659,
      "ĠÜĺÜ«ÜĲÜł": 2660,
      "ÜļÜŁ": 2661,
      "ÌĩÜĩ": 2662,
      "ĠÜ¡Ü¬ÜĲ": 2663,
      "ĠÜĹÜĿÜŁÜłÜĲ": 2664,
      "Ü©Ü¡": 2665,
      "Ü£Ü¬ÜĲ": 2666,
      "Ü£ÜŁÜ¢ÜĲ": 2667,
      "ÜĽÜĹÜĲ": 2668,
      "ĠÎ£": 2669,
      "ĠÜ¥Ü¬ÜĿ": 2670,
      "ÏĥÏī": 2671,
      "ÏĥÏĩ": 2672,
      "ÜĻÜ¢ÜĲ": 2673,
      "ÜķÜĲÜ¢ÜĲ": 2674,
      "ĠÜĿÜĹÜĺ": 2675,
      "ĠÜŁÜŁÜª": 2676,
      "ĠÜ¢ÜĲÜ¡Üª": 2677,
      "Õ¸Õ½Õ¿": 2678,
      "ĠÜķÜĲÜ¡Üª": 2679,
      "Ġá¼ħ": 2680,
      "Õ¥Õ¡Õ¶": 2681,
      "ÜķÜ¡ÜĹ": 2682,
      "ÜłÜ¡Ü¢ÜĲ": 2683,
      "ĠÜ©ÜªÜĲ": 2684,
      "ĠÜĲÜ¢Ü¬Ü¬ÜĹ": 2685,
      "ÜłÜĿÜĺ": 2686,
      "ÜĺÜĲÜĻÜł": 2687,
      "ĠÜ£Üł": 2688,
      "ÜķÜ¥Ü¡ÜĹ": 2689,
      "Ü«Ü¡ÜĿÜ¬ÜĲ": 2690,
      "ĠÜķÜ¢ÜļÜĲ": 2691,
      "ĠÜķÜ¢ÜĴÜĿÜĲ": 2692,
      "ĠÜłÜ¡Ü¡Ü¬": 2693,
      "ĠÜłÜ¡ÜłÜŁÜĺÜ¬ÜĲ": 2694,
      "ĠÏĢÎ¬Ïĥ": 2695,
      "Î¬ÏĦÏīÎ½": 2696,
      "ÜłÜŁÜĿ": 2697,
      "Ü¬ÜĿÜĹ": 2698,
      "ĠÜĺÜ¡Ü¬": 2699,
      "Î¿Î½ÏĦÎ±ÏĤ": 2700,
      "Î¸Î·": 2701,
      "Î¸Î±Î¹": 2702,
      "ĠÜĲÜ¬ÜļÜĻÜĿ": 2703,
      "ÜªÜĺÜĻ": 2704,
      "ĠÜĻÜĴÜķÜĿ": 2705,
      "ÏĮÏĤ": 2706,
      "ĠÎ´á½²": 2707,
      "ĠÎ´ÎµÏĥ": 2708,
      "ĠÎ´ÎŃÏĥÏĢÎ¿ÏĦÎ±": 2709,
      "Õ¯Õ¡Öģ": 2710,
      "ĠÖĩÕ«": 2711,
      "ÏĩÏģ": 2712,
      "ÜķÜ¢ÜļÜĲ": 2713,
      "ĠÜĺÜ¢Ü¦Ü©": 2714,
      "ÏĨÏģÎ±": 2715,
      "Î±Î¹Î¿Î½": 2716,
      "ĠÜķÜ©ÜķÜ¡": 2717,
      "ĠÕ´Õ¥ÖĢ": 2718,
      "ĠÕ´Õ¡Õ¿": 2719,
      "ĠÎ¼Î¿Ïħ": 2720,
      "ÜĲÜĿÜ¬ÜĿ": 2721,
      "ĠÕ¯Õ«Õ¶": 2722,
      "ĠÕ¯Õ¡Öģ": 2723,
      "ÜĴÜĹÜ¬": 2724,
      "ĠÜķÜĹÜ¢ÜĺÜ¢": 2725,
      "ÜĺÜĹÜĲ": 2726,
      "ÜķÜļÜłÜ¬ÜĲ": 2727,
      "Õ²Õ®": 2728,
      "ĠÜ¡ÜłÜŁÜĺÜ¬ÜĹ": 2729,
      "Î¼ÎµÎ½Î¿ÏĤ": 2730,
      "ĠÎ±á½ĲÏĦá¿·": 2731,
      "ĠÕµÕ¥Õ¯": 2732,
      "ÜĲÜ¦ÜłÜĲ": 2733,
      "ĠÜ¢Ü£ÜĴ": 2734,
      "ĠÎµá¼°ÏģÎ®": 2735,
      "ĠÎ½Î±": 2736,
      "Ü©ÜĿÜ¦": 2737,
      "Ü¡ÜłÜĲÜŁÜĲ": 2738,
      "Ü¬ÜĿÜĴÜĺÜ¬ÜĲ": 2739,
      "ĠÜķÜ¢ÜĲÜ¬ÜĲ": 2740,
      "ĠÎµá½ĲÎ»Î¿Î³": 2741,
      "ÜĵÜķÜ¦": 2742,
      "Ġá½ĳÏĢá½²Ïģ": 2743,
      "Ü«ÜĴÜĺÜ©": 2744,
      "ĠÏĢÎ¬Î½ÏĦÎ±": 2745,
      "ĠÎ¼ÎµÏĦÎ±": 2746,
      "ĠÎ´ÎµÏĮÎ¼Îµ": 2747,
      "Õ¸ÖĤÕ´Õ¶": 2748,
      "ÜŁÜłÜĹÜĿÜ¢": 2749,
      "Ü©ÜĴÜłÜĿÜ¢": 2750,
      "Ġá¼ĲÏĢÎ¹ÏĨ": 2751,
      "ĠÜ«ÜĺÜ¥ÜĲ": 2752,
      "ĠÎ´ÏĮÎ¾Î±Î½": 2753,
      "ĠÜķÜĺÜĿÜķ": 2754,
      "Ġá¼ģÎ³Î¹Î±": 2755,
      "ĠÏĨÎ¹Î»Î¬Î½": 2756,
      "Õ¡Õ²Õ¸ÖĢÕ¤Õ¥Õ½ÖģÕ«": 2757,
      "ĠÜ¬ÜªÜ¢ÜĵÜłÜĲ": 2758,
      "11": 2759,
      "12": 2760,
      "Îļ": 2761,
      "Õ·ÕŃ": 2762,
      "ĠÕ¡": 2763,
      "ÜĲÜĴ": 2764,
      "ÜĲÜ«": 2765,
      "ÜĲÜłÜĺ": 2766,
      "Ü¢Ü¬ÜĲ": 2767,
      "Ü¢ÜĽÜĿ": 2768,
      "Ü¢ÜĽÜª": 2769,
      "ÜĺÜĻ": 2770,
      "ÜłÜ¬ÜĹ": 2771,
      "ÜłÜ¥ÜłÜ¡": 2772,
      "Ü¡Üļ": 2773,
      "Ü¡Ü«ÜŁ": 2774,
      "Ü¬ÜĴÜĿÜ¢": 2775,
      "ÜķÜŁÜł": 2776,
      "ÜķÜ¬Ü¬": 2777,
      "ÜķÜ«Ü¡ÜĿÜĲ": 2778,
      "ÜķÜķÜĺÜĿÜķ": 2779,
      "ĠÜķÜłÜĹ": 2780,
      "ĠÜķÜ«Üĺ": 2781,
      "ĠÜķÜłÜłÜĿÜĲ": 2782,
      "ĠÜĲÜĴÜĺÜĹÜĿ": 2783,
      "ÜŁÜ¢Ü«ÜĲ": 2784,
      "ĠÜłÜĴÜĺ": 2785,
      "Ü¥Üķ": 2786,
      "ÜĺÜ¢Ü¢": 2787,
      "ÜĺÜ¢ÜĿ": 2788,
      "ĠÜĺÜĿÜ¬": 2789,
      "ĠÜĺÜķÜ¡": 2790,
      "ĠÜĺÜķÜĿ": 2791,
      "ĠÜĺÜļÜķ": 2792,
      "ĠÜĺÜ©ÜªÜĴÜĺ": 2793,
      "Ìĩ:": 2794,
      "ĠÜ¡Ü¦": 2795,
      "ĠÜ¡ÜķÜĿÜ¢": 2796,
      "ĠÜĹÜªÜĺÜķÜ£": 2797,
      "Ü¦ÜĿÜĲ": 2798,
      "Ü¦Ü«ÜĿ": 2799,
      "ĠÜĴÜ¥Üł": 2800,
      "ĠÜĴÜłÜłÜĿÜĲ": 2801,
      "ĠÜĴÜĹÜĿÜ¡Ü¢ÜĺÜ¬ÜĲ": 2802,
      "ĠÜĴÜ¢ÜĺÜªÜĲ": 2803,
      "ĠÜĴÜłÜĴÜĹÜĺÜ¢": 2804,
      "Ü£Ü¢": 2805,
      "Ü£Ü¡ÜĲ": 2806,
      "ĠÕ±": 2807,
      "ÜĽÜĹ": 2808,
      "ĠÜ¥ÜĺÜłÜĲ": 2809,
      "á¼¡": 2810,
      "ÏĥÎ¿Ïħ": 2811,
      "Õ¡Õ©": 2812,
      "Õ¡ÕŃ": 2813,
      "Õ¡ÕºÕ¡Õ·ÕŃÕ¡ÖĢ": 2814,
      "ĠÜĺÜĲÜĿÜŁ": 2815,
      "ĠÜĺÜĲÜļÜªÜ¢ÜĲ": 2816,
      "ĠÜŁÜ£": 2817,
      "ĠÜ¢Ü«ÜŁÜļ": 2818,
      "ĠÜķÜĲÜĿ": 2819,
      "ĠÜķÜĲÜĿÜŁ": 2820,
      "ĠÜłÜĲÜªÜ¥ÜĲ": 2821,
      "ĠÜłÜĲÜĿÜŁÜĲ": 2822,
      "Õ¥Õ¡": 2823,
      "Õ¥ÖĦ": 2824,
      "ÏĢÎ¿Î½": 2825,
      "ĠÜ«Ü¢ÜĿ": 2826,
      "ĠÜ¬ÜĹÜĺÜĺÜ¢": 2827,
      "ÜķÜ¡Ü«ÜĿÜļÜĲ": 2828,
      "Î¼ÏīÎ½": 2829,
      "Î¼Î²": 2830,
      "ÜĢÜı": 2831,
      "ĠÜ©ÜĴ": 2832,
      "ĠÜ©ÜłÜĹ": 2833,
      "ÜªÜĿÜĹÜĺÜ¢": 2834,
      "ÜłÜĿÜĺÜ¡": 2835,
      "ÜĺÜĲÜ¬ÜĲ": 2836,
      "ĠÎºÎµÏĨ": 2837,
      "ĠÜªÜļ": 2838,
      "ÜĺÜªÜĴ": 2839,
      "ĠÜķÜ¡ÜĺÜ¬ÜĲ": 2840,
      "ĠÜķÜ¡Ü«ÜłÜ¡": 2841,
      "ĠÜĺÜĲÜ¡ÜĿÜ¢": 2842,
      "Î¯Î±Î½": 2843,
      "ÏīÏĦÎ·": 2844,
      "ĠÜķÜ¢Ü«Ü¬": 2845,
      "ĠÜķÜ¢ÜĹÜĺÜĺÜ¢": 2846,
      "ĠÜķÜ¢ÜļÜĻÜĲ": 2847,
      "ÜĴÜķÜĺÜĹÜĿ": 2848,
      "ĠÏĥÏİ": 2849,
      "ĠÏĥÏħÎ³": 2850,
      "ÜĺÜ¡ÜªÜĲ": 2851,
      "ĠÜłÜ¡Ü¥ÜĴÜķ": 2852,
      "ÎºÎ¿Î½": 2853,
      "ÎºÎ»Î·": 2854,
      "Î¿ÏħÏĥÎ¹Î½": 2855,
      "ĠÜ¥ÜłÜĿÜŁ": 2856,
      "ÜĺÜĴÜĹ": 2857,
      "ÜĺÜłÜ¦Ü¢ÜĲ": 2858,
      "Î¿á¿¦Î»": 2859,
      "ĠÜķÜĿÜ¡ÜĲ": 2860,
      "Õ¯ÖĢÕ¿": 2861,
      "ĠÕ¡Õ½": 2862,
      "ĠÖĩÕ´": 2863,
      "ĠÖĩÕ°": 2864,
      "ÜĿÜ¡Ü¡ÜĲ": 2865,
      "ÜłÜĺÜļ": 2866,
      "ĠÜĽÜĺÜĴÜĿÜĹÜĺÜ¢": 2867,
      "Ü«Ü¬ÜĹÜĺÜ¢": 2868,
      "ÏĩÎ¿ÏĤ": 2869,
      "Ġá¼ĢÏģ": 2870,
      "Ġá¼ĢÎ³Î±Î¸": 2871,
      "Ü¥Ü¡ÜŁÜĺÜ¢": 2872,
      "Î´Î¯": 2873,
      "Î´Î¬Î½": 2874,
      "ĠÜ¡ÜĽÜłÜ¬ÜĿ": 2875,
      "ĠÜĺÜ¢Üļ": 2876,
      "ĠÜĺÜ¢ÜĹÜĺÜĲ": 2877,
      "ÜķÜªÜĹ": 2878,
      "ĠÜĴÜĿÜ«": 2879,
      "ĠÜĴÜĹÜ¢ÜĲ": 2880,
      "ĠÜĴÜĹÜķÜĲ": 2881,
      "Ü«ÜłÜ¡ÜĺÜ¢": 2882,
      "Õ¡ÖĢÕ§": 2883,
      "ÜļÜķÜĺÜ¢": 2884,
      "Õ¤ÖĢ": 2885,
      "ĠÕ«Õ¢": 2886,
      "Î¼ÎµÎ¹": 2887,
      "ÜĽÜĿÜªÜĲ": 2888,
      "ÜĽÜĿÜĴÜĲ": 2889,
      "ÜłÜļÜ¡": 2890,
      "ÜĺÜĲÜ¡ÜªÜĿÜ¢": 2891,
      "ĠÕ´Õ¥Õ²": 2892,
      "ĠÕ´Õ¡Õ°": 2893,
      "ĠÎ¼ÎŃ": 2894,
      "ĠÜ©ÜķÜ¡ÜĿÜ¬ÜĲ": 2895,
      "ĠÕ¸ÖĦ": 2896,
      "ÜĻÜłÜĺÜ¢": 2897,
      "Ü£ÜĿÜĺÜ¢ÜĲ": 2898,
      "ÜķÜĺÜŁÜª": 2899,
      "ĠÜĺÜĲÜ¬Üĺ": 2900,
      "ĠÜ¡Ü¬Üļ": 2901,
      "ÖħÖĢÕ§": 2902,
      "ĠÜķÜĿÜłÜ¢": 2903,
      "ĠÜĺÜ¬Ü¡": 2904,
      "ĠÕ°Õ¡ÖĤ": 2905,
      "ĠÜ¬ÜłÜ¡ÜĿÜķÜĲ": 2906,
      "ĠÜĲÜļÜªÜ¬ÜĲ": 2907,
      "ĠÎ±á½ĲÏĦá¿¶Î½": 2908,
      "ĠÎ±á½ĲÏĦá½¸ÏĤ": 2909,
      "Ġá¼ĲÏĢÎ¯": 2910,
      "ĠÜ¥ÜĴÜķÜĺ": 2911,
      "ĠÜ¥ÜĴÜķÜ¬": 2912,
      "ĠÜ¢Ü¬Ü©ÜªÜĲ": 2913,
      "ĠÜłÜ¡ÜĲÜŁÜł": 2914,
      "Ü¡ÜłÜłÜĺÜ¢": 2915,
      "Õ¡Õ¼Õ¡Õ»": 2916,
      "ÜłÜĺÜ¬ÜŁÜĺÜ¢": 2917,
      "Õ¸Õ²Õ¸Õ¾": 2918,
      "ÎµÏĥÎ¸Î±Î¹": 2919,
      "ÜķÜ«ÜķÜªÜ¢ÜĿ": 2920,
      "Õ¸ÖĤÕ¶Õ½": 2921,
      "ĠÜĴÜ£Ü¦ÜĿÜ¢Ü¬ÜĲ": 2922,
      "Ġá¼ĢÏĢÎ¿": 2923,
      "ĠÜķÜ«Ü¡ÜĹ": 2924,
      "Õ¡Õ°Õ¡Õ¶": 2925,
      "ĠÜĴÜłÜļÜĺÜķÜĿ": 2926,
      "Õ«ÖģÕ«Õ¶": 2927,
      "Î¼Î±ÏĦÎ¿ÏĤ": 2928,
      "ĠÜ¨ÜĴÜĿÜ¢ÜĲ": 2929,
      "ĠÏĩÎ¬ÏģÎ¹": 2930,
      "ÕİÕ¡Õ½Õ¶": 2931,
      "ÜĿÜķÜ¥ÜĿÜ¢": 2932,
      "Õ¸ÖģÕ¶": 2933,
      "ĠÕ¨Õ¤": 2934,
      "ÏįÏģÎ¹Î¿": 2935,
      "ĠÜĴÜłÜļÜĺÜķÜĺÜĹÜĿ": 2936,
      "Õ¥ÖĢÕ±": 2937,
      "ÎºÎ±ÏĦÎ±": 2938,
      "ĠÜ¢Ü«Ü¬ÜĴÜ©": 2939,
      "Õ¥Õ¼Õ¶": 2940,
      "ĠÕ¡ÕºÕ¡Õ·ÕŃÕ¡ÖĢÕ¥Õ½ÖģÕ§": 2941,
      "ĠÜķÜĴÜĿÜ«": 2942,
      "ÕĪÖĢ": 2943,
      "Ü¦ÜĺÜ©ÜķÜ¢ÜĲ": 2944,
      "ĠÜĽÜĿÜĴÜĺÜ¬ÜĲ": 2945,
      "Ġá¼ĦÎ½ÏīÎ¸ÎµÎ½": 2946,
      "ĠÕ¡Õ²ÖħÕ©": 2947,
      "ÜĺÜłÜ¨Ü¢ÜĲ": 2948,
      "ĠÜķÜļÜķÜĴÜ«ÜĴÜĲ": 2949,
      "Õ¡ÖĢÕ¿Õ¡ÖĦÕ¸Õµ": 2950,
      ")Â·": 2951,
      "Îķ": 2952,
      "ÏĬ": 2953,
      "ÕºÕ¡Õ¿": 2954,
      "ĠÎ±á½Ĳ": 2955,
      "Ü¢Ü¢ÜĲ": 2956,
      "Ü¢Ü©": 2957,
      "Ü¢Ü¦ÜĲ": 2958,
      "Ü¢Ü«Ü¬": 2959,
      "Ü¢ÜĹÜĺÜĺÜ¢": 2960,
      "ÜĿÜķÜĿ": 2961,
      "ÜłÜª": 2962,
      "ÜłÜĽ": 2963,
      "ÜłÜļÜķ": 2964,
      "ÜłÜĴÜªÜĹ": 2965,
      "Ü¡ÜĿÜ¬": 2966,
      "Ü¡Ü¡ÜłÜł": 2967,
      "ÜªÜļÜ¡": 2968,
      "ÜĹÜª": 2969,
      "ÜĹÜ¬ÜĲ": 2970,
      "ĠÜķÜłÜĺ": 2971,
      "ĠÜĲÜķ": 2972,
      "ĠÜĲÜļÜĲ": 2973,
      "ÜŁÜŁ": 2974,
      "ÜŁÜłÜĿÜ¢": 2975,
      "ÜŁÜ¢Ü«": 2976,
      "ÜŁÜ«Üł": 2977,
      "Ü«Üķ": 2978,
      "ĠÜłÜ«Üĺ": 2979,
      "ĠÜłÜ¦Üª": 2980,
      "ĠÜłÜŁÜĲÜ¦ÜĲ": 2981,
      "Ü¥ÜłÜĲ": 2982,
      "ĠÜĺÜĻ": 2983,
      "ĠÜĺÜķÜ¢": 2984,
      "ÜļÜ¨": 2985,
      "ĠÜ¡Ü¬Üª": 2986,
      "ĠÜ¡Ü¥Ü¡": 2987,
      "ĠÜ¡Ü¡Ü¬ÜĺÜ¡": 2988,
      "ĠÜĴÜĴÜĿÜ¬": 2989,
      "Ü£Ü¡": 2990,
      "ÏĦá¿·": 2991,
      "ĠÕ¨Õ¶Õ¯": 2992,
      "ÜĽÜĴÜĲ": 2993,
      "ÜĽÜªÜĿÜ¢": 2994,
      "ĠÜ¥ÜłÜ¡": 2995,
      "ĠÜ¥ÜĲÜķÜĲ": 2996,
      "ÜłÜĹÜĿÜ¢": 2997,
      "á¼µ": 2998,
      "Îµá¼°": 2999
    },
    "merges": [
      [
        "Ġ",
        "Ü"
      ],
      [
        "Ü",
        "Ĳ"
      ],
      [
        "Ü",
        "¢"
      ],
      [
        "Ü",
        "Ŀ"
      ],
      [
        "Ü",
        "ĺ"
      ],
      [
        "Ü",
        "ł"
      ],
      [
        "Ü",
        "¡"
      ],
      [
        "Ü",
        "¬"
      ],
      [
        "Ü",
        "ª"
      ],
      [
        "Ü",
        "Ĺ"
      ],
      [
        "Ü",
        "ķ"
      ],
      [
        "Ü",
        "Ĵ"
      ],
      [
        "ĠÜ",
        "ķ"
      ],
      [
        "ĠÜ",
        "Ĳ"
      ],
      [
        "Ü",
        "Ł"
      ],
      [
        "Ü",
        "«"
      ],
      [
        "ĠÜ",
        "ł"
      ],
      [
        "ÜĿ",
        "Ü¢"
      ],
      [
        "Ü",
        "¥"
      ],
      [
        "Üĺ",
        "Ü¢"
      ],
      [
        "ĠÜ",
        "ĺ"
      ],
      [
        "Ì",
        "Ī"
      ],
      [
        "Ü",
        "ļ"
      ],
      [
        "Ì",
        "ĩ"
      ],
      [
        "ĠÜ",
        "¡"
      ],
      [
        "ĠÜ",
        "Ĺ"
      ],
      [
        "Ì",
        "£"
      ],
      [
        "Ü¬",
        "ÜĲ"
      ],
      [
        "Ü",
        "¦"
      ],
      [
        "Ü¢",
        "ÜĲ"
      ],
      [
        "Õ",
        "¡"
      ],
      [
        "Ü",
        "©"
      ],
      [
        "ĠÜ",
        "Ĵ"
      ],
      [
        "Î",
        "½"
      ],
      [
        "Ü",
        "£"
      ],
      [
        "Üł",
        "ÜĲ"
      ],
      [
        "Î",
        "±"
      ],
      [
        "Ï",
        "Ħ"
      ],
      [
        "Î",
        "¿"
      ],
      [
        "á",
        "½"
      ],
      [
        "Õ",
        "¶"
      ],
      [
        "Ġ",
        "Õ"
      ],
      [
        "ÜĿ",
        "ÜĲ"
      ],
      [
        "ÜĿ",
        "Ü¬"
      ],
      [
        "Ü",
        "Ľ"
      ],
      [
        "Ü",
        "Ĩ"
      ],
      [
        "ĠÜĹ",
        "Üĺ"
      ],
      [
        "Ġ",
        "Î"
      ],
      [
        "ĠÜ",
        "¥"
      ],
      [
        "Ü",
        "ĵ"
      ],
      [
        "ĠÜł",
        "ÜĹ"
      ],
      [
        "Üł",
        "ÜĹ"
      ],
      [
        "á",
        "¼"
      ],
      [
        "Ï",
        "ĥ"
      ],
      [
        "Ü¡",
        "ÜĲ"
      ],
      [
        "ÜĹ",
        "ÜĿ"
      ],
      [
        "Õ¡",
        "Õ"
      ],
      [
        "Î",
        "µ"
      ],
      [
        "Ü",
        "Ļ"
      ],
      [
        "ĠÜĲ",
        "Ü¢"
      ],
      [
        "á",
        "¿"
      ],
      [
        "ĠÜĺ",
        "ÜĲ"
      ],
      [
        "Ï",
        "Ĥ"
      ],
      [
        "Üª",
        "ÜĲ"
      ],
      [
        "Üķ",
        "ÜĲ"
      ],
      [
        "ĠÜ",
        "Ŀ"
      ],
      [
        "Ö",
        "Ģ"
      ],
      [
        "ĠÜ",
        "Ł"
      ],
      [
        "ĠÜ",
        "¢"
      ],
      [
        "Î",
        "¹"
      ],
      [
        "Õ",
        "¸"
      ],
      [
        "ĠÜķ",
        "ÜĲ"
      ],
      [
        "Ï",
        "ģ"
      ],
      [
        "ĠÜł",
        "ÜĲ"
      ],
      [
        "Ġ",
        "á¼"
      ],
      [
        "Õ",
        "«"
      ],
      [
        "Õ",
        "¥"
      ],
      [
        "ĠÜķ",
        "ÜĿÜ¢"
      ],
      [
        "Ü«",
        "ÜĲ"
      ],
      [
        "ÜĹ",
        "Üĺ"
      ],
      [
        "Ï",
        "Ģ"
      ],
      [
        "ĠÜ",
        "ļ"
      ],
      [
        "ÜĿ",
        "Üł"
      ],
      [
        "Ü«",
        "Üĺ"
      ],
      [
        "ÜŁ",
        "ÜĺÜ¢"
      ],
      [
        "ĠÜ",
        "«"
      ],
      [
        "ĠÜ",
        "¬"
      ],
      [
        "ĠÜ¡",
        "Ü¢"
      ],
      [
        "Üķ",
        "Ü¡"
      ],
      [
        "Ġ",
        "ÏĦ"
      ],
      [
        "ĠÜĲ",
        "Ü¡"
      ],
      [
        "Üĺ",
        "ÜĹÜĿ"
      ],
      [
        "Üł",
        "Ü¡"
      ],
      [
        "ÜĿ",
        "Üª"
      ],
      [
        "Ü¡",
        "Ü¢"
      ],
      [
        "ÜĿ",
        "ÜŁ"
      ],
      [
        "ÜĴ",
        "ÜĲ"
      ],
      [
        "Ü«Üĺ",
        "Ü¥"
      ],
      [
        "Î",
        "¼"
      ],
      [
        "Ï",
        "ħ"
      ],
      [
        "Üĺ",
        "Ü¬"
      ],
      [
        "Ü",
        "Ģ"
      ],
      [
        "Ö",
        "Ĥ"
      ],
      [
        "Â",
        "·"
      ],
      [
        "â",
        "Ģ"
      ],
      [
        "Ü",
        "¨"
      ],
      [
        "âĢ",
        "¤"
      ],
      [
        "Üļ",
        "ÜĲ"
      ],
      [
        "ĠÜ",
        "©"
      ],
      [
        "ĠÜĲÜ¢",
        "Ü¬"
      ],
      [
        "Üª",
        "ÜĿ"
      ],
      [
        "Üł",
        "ÜĿ"
      ],
      [
        "Ö",
        "ģ"
      ],
      [
        "Î",
        "»"
      ],
      [
        "ĠÜ",
        "ĵ"
      ],
      [
        "Üķ",
        "ÜĿÜ¢"
      ],
      [
        "Üĺ",
        "ÜĲ"
      ],
      [
        "Õ",
        "½"
      ],
      [
        "ÜĴ",
        "Üª"
      ],
      [
        "ĠÜĹÜĺ",
        "ÜĲ"
      ],
      [
        "ĠÎ",
        "º"
      ],
      [
        "ĠÜ",
        "ª"
      ],
      [
        "ĠÜ",
        "£"
      ],
      [
        "ÜĹ",
        "ÜĺÜ¢"
      ],
      [
        "Î±",
        "á½"
      ],
      [
        "ĠÜĲ",
        "Ü¢ÜĲ"
      ],
      [
        "Üĺ",
        "Üª"
      ],
      [
        "ĠÜķ",
        "Ü¡"
      ],
      [
        "ĠÜĺÜĲ",
        "Ü¡"
      ],
      [
        "Üķ",
        "Ü¥"
      ],
      [
        "Üĺ",
        "Ü¬ÜĲ"
      ],
      [
        "Î",
        "¯"
      ],
      [
        "Õ¡",
        "Õ¶"
      ],
      [
        "Ï",
        "ī"
      ],
      [
        "Ü",
        "ĩ"
      ],
      [
        "Ü«",
        "Ü¡"
      ],
      [
        "ĠÜ",
        "¦"
      ],
      [
        "ĠÜķ",
        "Ü¢"
      ],
      [
        "ÜłÜĹ",
        "ÜĲ"
      ],
      [
        "ÖĢ",
        "Õ"
      ],
      [
        "ĠÜĿ",
        "Ü«ÜĺÜ¥"
      ],
      [
        "ÜĴ",
        "ÜĿ"
      ],
      [
        "ÜĴ",
        "Üķ"
      ],
      [
        "ÜĽ",
        "Üł"
      ],
      [
        "Ü",
        "¿"
      ],
      [
        "Üł",
        "ÜĿÜ¢"
      ],
      [
        "Üª",
        "ÜĿÜ¢"
      ],
      [
        "Õ¸",
        "ÖĤ"
      ],
      [
        "Ġ",
        "Ïĥ"
      ],
      [
        "Üĺ",
        "Ü¡"
      ],
      [
        "Î±á½",
        "¶"
      ],
      [
        "ĠÜł",
        "Ü¡"
      ],
      [
        "Î",
        "º"
      ],
      [
        "Õ",
        "§"
      ],
      [
        "ÜĲ",
        "Ü¢"
      ],
      [
        "Î¿",
        "Ïħ"
      ],
      [
        "ĠÜ¥",
        "Üł"
      ],
      [
        "Õ¥",
        "Õ"
      ],
      [
        "Ġ",
        "ÏĢ"
      ],
      [
        "Î",
        "·"
      ],
      [
        "Üķ",
        "ÜĿ"
      ],
      [
        "Î",
        "¬"
      ],
      [
        "Ü",
        "¼"
      ],
      [
        "ĠÜĵ",
        "ÜĿÜª"
      ],
      [
        "Ü¥",
        "Üł"
      ],
      [
        "Î",
        "³"
      ],
      [
        "Üĺ",
        "Ü£"
      ],
      [
        "ĠÜłÜĹ",
        "ÜĺÜ¢"
      ],
      [
        "Üł",
        "ÜŁ"
      ],
      [
        "Ü¬",
        "Üª"
      ],
      [
        "Ü¢",
        "ÜĿ"
      ],
      [
        "Üĺ",
        "ÜĴ"
      ],
      [
        "Ü¬",
        "ÜĿ"
      ],
      [
        "Ü¥",
        "ÜĲ"
      ],
      [
        "á½",
        "¸"
      ],
      [
        "ĠÜ",
        "Ģ"
      ],
      [
        "ĠÜĲ",
        "ÜĿÜŁ"
      ],
      [
        "ĠÎº",
        "Î±á½¶"
      ],
      [
        "ÜĲ",
        "Ü¡"
      ],
      [
        "ĠÜĺ",
        "ÜłÜĲ"
      ],
      [
        "Î¿",
        "á¿"
      ],
      [
        "Ö",
        "ĩ"
      ],
      [
        "ĠÜĺ",
        "Ü¡"
      ],
      [
        "Ġá¼",
        "Ĳ"
      ],
      [
        "Î¿",
        "Î½"
      ],
      [
        "ÜĹÜĺ",
        "ÜĲ"
      ],
      [
        "Õ¸",
        "Õ"
      ],
      [
        "ĠÜĴ",
        "Üª"
      ],
      [
        "ĠÜŁ",
        "Üķ"
      ],
      [
        "Î",
        "¸"
      ],
      [
        "ĠÜĲ",
        "Ü¬"
      ],
      [
        "Â",
        "¬"
      ],
      [
        "ĠÜł",
        "ÜĿ"
      ],
      [
        "á¿",
        "¶"
      ],
      [
        "Üĺ",
        "Üł"
      ],
      [
        "ĠÜł",
        "ÜŁÜĺÜ¢"
      ],
      [
        "Ü«",
        "ÜĿ"
      ],
      [
        "ÜŁ",
        "Üķ"
      ],
      [
        "Ü¢",
        "ÜĺÜ¢"
      ],
      [
        "ĠÜĲ",
        "ÜĿÜ¬"
      ],
      [
        "Î",
        "Ń"
      ],
      [
        "Î¿á¿",
        "¦"
      ],
      [
        "Ö",
        "Ħ"
      ],
      [
        "Üª",
        "Üĺ"
      ],
      [
        "ĠÜĲÜ¢Ü¬",
        "ÜĺÜ¢"
      ],
      [
        "Õ",
        "©"
      ],
      [
        "Ü«",
        "ÜŁ"
      ],
      [
        "ĠÜ",
        "Ļ"
      ],
      [
        "ÜŁ",
        "ÜĲ"
      ],
      [
        "ĠÜķ",
        "ÜłÜĲ"
      ],
      [
        "ÜĿ",
        "Üķ"
      ],
      [
        "ĠÜķ",
        "ÜĿ"
      ],
      [
        "ĠÜĹÜĺ",
        "Üĺ"
      ],
      [
        "Ï",
        "Į"
      ],
      [
        "ÜŁ",
        "Üł"
      ],
      [
        "ĠÎ",
        "´"
      ],
      [
        "ÜłÜĹ",
        "ÜĺÜ¢"
      ],
      [
        "Õ",
        "¯"
      ],
      [
        "ĠÜĲ",
        "ÜłÜĲ"
      ],
      [
        "Õ«",
        "Õ¶"
      ],
      [
        "Ü¬",
        "ÜĺÜ¢"
      ],
      [
        "ÜĴ",
        "Üĺ"
      ],
      [
        "ĠÜĲ",
        "Ü¦"
      ],
      [
        "ĠÜ¥",
        "Ü¡"
      ],
      [
        "Ġ",
        "á½"
      ],
      [
        "Ġ",
        "Õ¡Õ"
      ],
      [
        "Ï",
        "į"
      ],
      [
        "ĠÜķ",
        "Üļ"
      ],
      [
        "Ġ",
        "Öĩ"
      ],
      [
        "ÜĿ",
        "Ü¡"
      ],
      [
        "Üł",
        "Üĺ"
      ],
      [
        "Ü¬",
        "ÜĹ"
      ],
      [
        "ĠÜķ",
        "ÜĴ"
      ],
      [
        "Ü",
        "ı"
      ],
      [
        "Ü¦",
        "ÜĲ"
      ],
      [
        "ÜŁ",
        "ÜĿÜł"
      ],
      [
        "ĠÜ",
        "Ľ"
      ],
      [
        "Ü«",
        "Ü¬"
      ],
      [
        "Ï",
        "ĩ"
      ],
      [
        "Üķ",
        "Ü¢"
      ],
      [
        "á¿¶",
        "Î½"
      ],
      [
        "Ġá¼",
        "Ģ"
      ],
      [
        "Ü¥",
        "Ü¡"
      ],
      [
        "ĠÜł",
        "ÜĺÜ¬"
      ],
      [
        "Õ",
        "´"
      ],
      [
        "Ü¥",
        "ÜĿÜ¢"
      ],
      [
        "Ü¢",
        "Ü«ÜĲ"
      ],
      [
        "Î",
        "´"
      ],
      [
        "ĠÜł",
        "ÜŁ"
      ],
      [
        "Üĺ",
        "Üļ"
      ],
      [
        "ĠÜ¡",
        "ÜĽÜł"
      ],
      [
        "Õ¡",
        "ÖĢ"
      ],
      [
        "ÏĦ",
        "Î±"
      ],
      [
        "ĠÜĺ",
        "Ü¢"
      ],
      [
        "ÜĿÜł",
        "ÜĿÜ¢"
      ],
      [
        "ĠÜĹ",
        "ÜĿ"
      ],
      [
        "Üļ",
        "Üª"
      ],
      [
        "Üķ",
        "Üª"
      ],
      [
        "ÜĴ",
        "ÜªÜĲ"
      ],
      [
        "ÜĿ",
        "ÜĹ"
      ],
      [
        "Õ",
        "¿"
      ],
      [
        "Üĺ",
        "Üķ"
      ],
      [
        "Ï",
        "Ĩ"
      ],
      [
        "Ü¡",
        "Üª"
      ],
      [
        "Üł",
        "Ü¬ÜĲ"
      ],
      [
        "ĠÜĴ",
        "ÜĿ"
      ],
      [
        "ĠÜĴ",
        "ÜĹ"
      ],
      [
        "Ü¢",
        "Ü¢"
      ],
      [
        "Ü©",
        "Üª"
      ],
      [
        "Ïī",
        "Î½"
      ],
      [
        "Ü«",
        "ÜĴ"
      ],
      [
        "Ü«",
        "ÜłÜ¡"
      ],
      [
        "Ü¦",
        "Üª"
      ],
      [
        "ĠÕ",
        "¦"
      ],
      [
        "Üĺ",
        "Ü¡ÜĲ"
      ],
      [
        "Üļ",
        "ÜĻ"
      ],
      [
        "ĠÜĺ",
        "ÜĴ"
      ],
      [
        "ĠÜĹ",
        "Ü¢ÜĲ"
      ],
      [
        "ĠÜļ",
        "Üķ"
      ],
      [
        "Ü",
        "ī"
      ],
      [
        "Ö",
        "ī"
      ],
      [
        "á½",
        "°"
      ],
      [
        "ĠÜ«",
        "Ü¡"
      ],
      [
        "Ü¢",
        "Üĺ"
      ],
      [
        "Õ¡",
        "ÖĢÕ"
      ],
      [
        "Üł",
        "Ü¦"
      ],
      [
        "á½",
        "´"
      ],
      [
        "Üļ",
        "Üķ"
      ],
      [
        "ĠÜ¢",
        "Ü¦"
      ],
      [
        "ĠÜ",
        "¨"
      ],
      [
        "á¿",
        "Ĩ"
      ],
      [
        "Üł",
        "Ü¡ÜĲ"
      ],
      [
        "Õ",
        "¤"
      ],
      [
        "Üł",
        "Üł"
      ],
      [
        "ÜĴ",
        "ÜĿÜ¢"
      ],
      [
        "Õ¥Õ",
        "¬"
      ],
      [
        "ĠÕ",
        "«"
      ],
      [
        "Î±",
        "Î½"
      ],
      [
        "ĠÎ",
        "µ"
      ],
      [
        "Î¼",
        "Îµ"
      ],
      [
        "ÜĴ",
        "Ü¢"
      ],
      [
        "Ü¥",
        "ÜĴÜķ"
      ],
      [
        "ÜĽ",
        "ÜĿ"
      ],
      [
        "Ü«ÜŁ",
        "Üļ"
      ],
      [
        "ĠÜķÜĲ",
        "ÜłÜĹÜĲ"
      ],
      [
        "ĠÜĹ",
        "ÜłÜĿÜ¢"
      ],
      [
        "Ü¬",
        "Ü¬"
      ],
      [
        "Ü«ÜĿ",
        "ÜļÜĲ"
      ],
      [
        "ĠÜĺ",
        "ÜŁÜķ"
      ],
      [
        "ĠÏĦ",
        "Î¿á¿¦"
      ],
      [
        "Üł",
        "Üļ"
      ],
      [
        "Üķ",
        "Ü¡ÜĲ"
      ],
      [
        "ÜĹÜĿ",
        "Ü¡Ü¢"
      ],
      [
        "Î±",
        "Î¹"
      ],
      [
        "Î",
        "®"
      ],
      [
        "ĠÜĴ",
        "ÜĲ"
      ],
      [
        "Üĺ",
        "Ü©"
      ],
      [
        "Üª",
        "ÜĿÜĲ"
      ],
      [
        "ĠÜķ",
        "Ü©"
      ],
      [
        "Î¿",
        "ÏĤ"
      ],
      [
        "ĠÜĲ",
        "Üĺ"
      ],
      [
        "ÜĺÜĲ",
        "Ü¡"
      ],
      [
        "Õ¸ÖĤ",
        "Õ©"
      ],
      [
        "Üķ",
        "ÜĴ"
      ],
      [
        "Ü£",
        "Üª"
      ],
      [
        "ĠÜĲÜ¢",
        "Ü«"
      ],
      [
        "Üĵ",
        "ÜĿÜĲ"
      ],
      [
        "Ġ",
        "."
      ],
      [
        "Üª",
        "Ü¥ÜĲ"
      ],
      [
        "ÜŁ",
        "Ü¢ÜĲ"
      ],
      [
        "Üļ",
        "ÜĿ"
      ],
      [
        "ĠÏĥ",
        "Î¿Ïħ"
      ],
      [
        "Ü¦",
        "Ü©"
      ],
      [
        "Î±",
        "ÏĤ"
      ],
      [
        "ĠÕ",
        "´"
      ],
      [
        "ĠÜŁ",
        "Üł"
      ],
      [
        "ÜĹ",
        "Ü¢ÜĲ"
      ],
      [
        "ĠÜĲÜ¢",
        "ÜĺÜ¢"
      ],
      [
        "ĠÜķ",
        "Ü¥"
      ],
      [
        "Ü«",
        "Ü¬ÜĲ"
      ],
      [
        "ÜĿÜ¢",
        "ÜĲ"
      ],
      [
        "Õ",
        "¢"
      ],
      [
        "ĠÜ¡",
        "ÜķÜ¡"
      ],
      [
        "ÜĺÜ¬",
        "ÜĹ"
      ],
      [
        "ĠÜĲÜĿÜŁ",
        "Ü¢ÜĲ"
      ],
      [
        "ĠÜķ",
        "Ü¬"
      ],
      [
        "ĠÜĹ",
        "ÜŁÜĿÜł"
      ],
      [
        "á¿Ĩ",
        "ÏĤ"
      ],
      [
        "Ü¢",
        "Ü«"
      ],
      [
        "ĠÎ",
        "¼"
      ],
      [
        "Õ¡Õ",
        "´"
      ],
      [
        "Õ¡Õ",
        "µ"
      ],
      [
        "ĠÜł",
        "Ü¢"
      ],
      [
        "ÜĲ",
        "ÜĿÜ¬"
      ],
      [
        "Üĵ",
        "ÜĿÜª"
      ],
      [
        "ĠÏĦ",
        "á½¸"
      ],
      [
        "Îµ",
        "Î¹"
      ],
      [
        "Ìĩ",
        "."
      ],
      [
        "Ü£",
        "ÜĲ"
      ],
      [
        "Î±",
        "ÏĦ"
      ],
      [
        "Î",
        "¾"
      ],
      [
        "Üª",
        "ÜĴ"
      ],
      [
        "Õ¸Õ",
        "µ"
      ],
      [
        "Ü¬",
        "ÜĴ"
      ],
      [
        "ĠÜ©",
        "ÜķÜ¡"
      ],
      [
        "ÜĲ",
        "Ü¢ÜĲ"
      ],
      [
        "ĠÜĺ",
        "ÜĹ"
      ],
      [
        "ĠÕ",
        "¸"
      ],
      [
        "Ġá¼",
        "¡"
      ],
      [
        "ÜĿ",
        "Ü«ÜĺÜ¥"
      ],
      [
        "ÜŁ",
        "Üª"
      ],
      [
        "ĠÜĹ",
        "ÜķÜĲ"
      ],
      [
        "ÜĻ",
        "Üł"
      ],
      [
        "Õ¡",
        "Öģ"
      ],
      [
        "Ü©",
        "Üĺ"
      ],
      [
        "ÜĴÜª",
        "ÜĹ"
      ],
      [
        "á½´",
        "Î½"
      ],
      [
        "Üĺ",
        "ÜłÜĲ"
      ],
      [
        "Ü£",
        "ÜĿ"
      ],
      [
        "ĠÕ",
        "¯"
      ],
      [
        "ÜĲ",
        "ÜĿÜŁ"
      ],
      [
        "ÜĴ",
        "ÜĹ"
      ],
      [
        "ĠÜķ",
        "ÜĹ"
      ],
      [
        "Ü«Ü¡",
        "ÜĿÜĲ"
      ],
      [
        "Õ",
        "¦"
      ],
      [
        "Ü©",
        "ÜĲ"
      ],
      [
        "ĠÜĲ",
        "ÜłÜĹÜĲ"
      ],
      [
        "Ü¥",
        "ÜĺÜ¢"
      ],
      [
        "Üļ",
        "Ü¡"
      ],
      [
        "Õ",
        "Ń"
      ],
      [
        "ĠÜķ",
        "Üł"
      ],
      [
        "Ïģ",
        "Î¹"
      ],
      [
        "Üĺ",
        "ÜļÜĲ"
      ],
      [
        "ÜĴ",
        "ÜĿÜ¬"
      ],
      [
        "ĠÎ",
        "¸"
      ],
      [
        "º",
        "Õ¡Õ"
      ],
      [
        "ĠÜ",
        "ı"
      ],
      [
        "ÜĲ",
        "Ü¬"
      ],
      [
        "Üķ",
        "Üĺ"
      ],
      [
        "Ü«",
        "ÜĹ"
      ],
      [
        "Ïĥ",
        "Î¹"
      ],
      [
        "ĠÜĺÜĲ",
        "Ü¢"
      ],
      [
        "ÜĿ",
        "Ü¬ÜĲ"
      ],
      [
        "Î¿",
        "Î¹"
      ],
      [
        "ÜĵÜĿÜĲ",
        "ÜĲ"
      ],
      [
        "Õ¡",
        "ÖĤ"
      ],
      [
        "Üķ",
        "ÜłÜĲ"
      ],
      [
        "ĠÜĺÜĲ",
        "Ü¬"
      ],
      [
        "ĠÜķ",
        "Ü«"
      ],
      [
        "Ü¥",
        "Üĺ"
      ],
      [
        "á¼",
        "°"
      ],
      [
        "á¿",
        "·"
      ],
      [
        "ĠÜ¡",
        "Ü¢ÜĲ"
      ],
      [
        "ĠÜĴ",
        "Ü¡"
      ],
      [
        "ĠÜ¡",
        "Ü¬"
      ],
      [
        "Üĺ",
        "ÜĹ"
      ],
      [
        "Üķ",
        "Üļ"
      ],
      [
        "Î±",
        "Ïģ"
      ],
      [
        "ĠÜķÜĲ",
        "ÜĿÜ¬"
      ],
      [
        "Î±á½",
        "Ĳ"
      ],
      [
        "ĠÜļ",
        "ÜĻ"
      ],
      [
        "Ö",
        "ħ"
      ],
      [
        "Üķ",
        "Ü©"
      ],
      [
        "ĠÜĴ",
        "Ü¢"
      ],
      [
        "Ïĥ",
        "ÏĦ"
      ],
      [
        "Õ¥",
        "Õ½"
      ],
      [
        "Üª",
        "Ü¢"
      ],
      [
        "ĠÜķ",
        "ÜĿÜł"
      ],
      [
        "ĠÜĺ",
        "Ü¬"
      ],
      [
        "ĠÜŁ",
        "ÜłÜĹ"
      ],
      [
        "ÜŁ",
        "ÜĿ"
      ],
      [
        "ÜĲÜ¢",
        "Ü¬ÜĺÜ¢"
      ],
      [
        "Üª",
        "Ü¬"
      ],
      [
        "Üļ",
        "Üĺ"
      ],
      [
        "Üł",
        "Ü¬"
      ],
      [
        "Õ",
        "²"
      ],
      [
        "ĠÜĺ",
        "Ü«"
      ],
      [
        "Õ",
        "£"
      ],
      [
        "Üĵ",
        "ÜĿ"
      ],
      [
        "Õ¥",
        "Õ¶"
      ],
      [
        "Ü©",
        "ÜªÜĲ"
      ],
      [
        "Î¿",
        "á½"
      ],
      [
        "ĠÕ",
        "¥"
      ],
      [
        "Î",
        "²"
      ],
      [
        "Üķ",
        "Ü¬"
      ],
      [
        "ĠÕ",
        "°"
      ],
      [
        "Î±á½Ĳ",
        "ÏĦ"
      ],
      [
        "ĠÜķ",
        "ÜŁ"
      ],
      [
        "ĠÜĴ",
        "ÜĿÜ¬"
      ],
      [
        "ĠÜĿ",
        "ÜķÜ¥"
      ],
      [
        "Ġá¼Ĳ",
        "Î½"
      ],
      [
        "Ġá½",
        "ģ"
      ],
      [
        "ÜĺÜļ",
        "Ü¢Ü¢"
      ],
      [
        "Õ",
        "°"
      ],
      [
        "á",
        "¾"
      ],
      [
        "Ü¢",
        "ÜĿÜ¢"
      ],
      [
        "ĠÜ¡",
        "ÜłÜŁ"
      ],
      [
        "ÜĿÜ¬",
        "ÜĺÜ¢"
      ],
      [
        "Öģ",
        "Õ§"
      ],
      [
        "Î¬",
        "Î½"
      ],
      [
        "¨",
        "Õ¶"
      ],
      [
        "Ü¡",
        "Ü¬"
      ],
      [
        "ĠÜ¬",
        "ÜłÜ¡"
      ],
      [
        "ĠÜĺ",
        "Ü©"
      ],
      [
        "Õ¡Õ",
        "¬"
      ],
      [
        "ÜĿ",
        "ÜķÜĲ"
      ],
      [
        "ĠÜĲ",
        "ÜļÜª"
      ],
      [
        "Õ",
        "º"
      ],
      [
        "ÜĿ",
        "ÜĹÜĿ"
      ],
      [
        "ÜĹÜĺ",
        "Üĺ"
      ],
      [
        "ĠÜĺ",
        "Ü¥"
      ],
      [
        "ĠÜĹÜĺ",
        "Ü¬"
      ],
      [
        "Îµ",
        "Î¯"
      ],
      [
        "ĠÜķÜĲ",
        "Ü¡"
      ],
      [
        "Ü",
        "ģ"
      ],
      [
        "ÜĴ",
        "ÜķÜĲ"
      ],
      [
        "ĠÏĢ",
        "Ïģ"
      ],
      [
        "Õ¸",
        "ÖĢÕ"
      ],
      [
        "Î¼Îµ",
        "Î½"
      ],
      [
        "Ġá¼¡",
        "Î¼"
      ],
      [
        "Ġ",
        "Î±á½ĲÏĦ"
      ],
      [
        "Ü¢",
        "Ü¬"
      ],
      [
        "ÜĿ",
        "ÜĹÜĺÜ¢"
      ],
      [
        "ÜĴ",
        "Ü¢ÜĲ"
      ],
      [
        "Ġá¼",
        "ģ"
      ],
      [
        "ĠÜĲÜ¡",
        "ÜĿÜ¢"
      ],
      [
        "ÜĿ",
        "Üĺ"
      ],
      [
        "Üķ",
        "ÜĿÜĲ"
      ],
      [
        "ĠÕ",
        "µ"
      ],
      [
        "ÜĽ",
        "Üª"
      ],
      [
        "á¿",
        "ĸ"
      ],
      [
        "ÜĲ",
        "ÜłÜĲ"
      ],
      [
        "Î³",
        "Î¯"
      ],
      [
        "Üł",
        "ÜŁÜĺÜ¢"
      ],
      [
        "ĠÜĲ",
        "ÜĿÜłÜĿÜ¢"
      ],
      [
        "ĠÜ¡",
        "Ü«ÜĿÜļÜĲ"
      ],
      [
        "ĠÜĴÜª",
        "ÜĹ"
      ],
      [
        "Üĺ",
        "Ü«"
      ],
      [
        "Ü¥Üł",
        "Ü¡ÜĲ"
      ],
      [
        "Õ",
        "³"
      ],
      [
        "ÜĺÜ¢",
        "ÜĲ"
      ],
      [
        "á½¸",
        "ÏĤ"
      ],
      [
        "ÜĴ",
        "Üł"
      ],
      [
        "ĠÜĺ",
        "Ü£"
      ],
      [
        "Ü¡",
        "ÜĺÜ£"
      ],
      [
        "ÜĴ",
        "Ü¬ÜĲ"
      ],
      [
        "Ü¥",
        "ÜłÜ¡"
      ],
      [
        "ĠÜĹ",
        "ÜĲ"
      ],
      [
        "Õ",
        "¬"
      ],
      [
        "Ü¥",
        "Ü¬ÜĲ"
      ],
      [
        "ĠÜĹ",
        "Ü¢ÜĺÜ¢"
      ],
      [
        "ĠÜĴ",
        "ÜŁ"
      ],
      [
        "Ïĥ",
        "Î¿Î½"
      ],
      [
        "ĠÏĦ",
        "á¿ĨÏĤ"
      ],
      [
        "Õ",
        "Ľ"
      ],
      [
        "ÜĿ",
        "Ü«ÜĲ"
      ],
      [
        "Üķ",
        "ÜĹ"
      ],
      [
        "ĠÜķ",
        "Ü£"
      ],
      [
        "Üĵ",
        "Üª"
      ],
      [
        "Üĵ",
        "ÜłÜĿ"
      ],
      [
        "Ü¢",
        "Ü¦"
      ],
      [
        "Üķ",
        "Ü¢ÜĲ"
      ],
      [
        "ÜĴ",
        "Ü¬"
      ],
      [
        "á½",
        "²"
      ],
      [
        "ĠÜ¢",
        "ÜĹÜĺÜĲ"
      ],
      [
        "ÜªÜĿ",
        "Ü¡"
      ],
      [
        "Öģ",
        "Õ«"
      ],
      [
        "Ġá¼Ĳ",
        "ÏĢ"
      ],
      [
        "ÜĲ",
        "Ü¦"
      ],
      [
        "ÜĹ",
        "Üķ"
      ],
      [
        "ĠÜķ",
        "Ü¡Ü¢"
      ],
      [
        "ĠÜ¥",
        "ÜķÜ¡ÜĲ"
      ],
      [
        "Ï",
        "İ"
      ],
      [
        "ÜĴ",
        "ÜĿÜĲ"
      ],
      [
        "ĠÜĺ",
        "Üļ"
      ],
      [
        "ĠÜĹÜĿ",
        "ÜķÜĿÜ¢"
      ],
      [
        "Õ",
        "¹"
      ],
      [
        "Ý",
        "Ģ"
      ],
      [
        "Üł",
        "ÜĿÜĲ"
      ],
      [
        "ĠÜĴ",
        "Ü¬Üª"
      ],
      [
        "ĠÏĦ",
        "á¿¶Î½"
      ],
      [
        "ĠÎ´",
        "Î¹"
      ],
      [
        "ĠÜ¥",
        "ÜĴÜķ"
      ],
      [
        "ĠÜ¢",
        "Ü¬"
      ],
      [
        "ÜĲÜ¢",
        "Ü¬"
      ],
      [
        "Ü¡",
        "ÜĽÜł"
      ],
      [
        "ÜĴ",
        "Ü¥"
      ],
      [
        "ÜĴ",
        "Ü©"
      ],
      [
        "ĠÜĲ",
        "Üļ"
      ],
      [
        "Õ¡Õ",
        "½"
      ],
      [
        "ÜĹÜĺ",
        "ÜĺÜ¢"
      ],
      [
        "ÜĽ",
        "ÜĲ"
      ],
      [
        "Üķ",
        "ÜŁ"
      ],
      [
        "ĠÜł",
        "Ü¡ÜĲ"
      ],
      [
        "ÜĿÜ¢",
        "Ü¢"
      ],
      [
        "Üª",
        "Ü¥"
      ],
      [
        "ĠÜĲ",
        "ÜĻ"
      ],
      [
        "ĠÜ¥",
        "ÜłÜĿ"
      ],
      [
        "Õ¡Õ",
        "¯"
      ],
      [
        "ĠÜŁ",
        "ÜłÜĹÜĺÜ¢"
      ],
      [
        "ĠÜ¢",
        "Ü£"
      ],
      [
        "ĠÏĦ",
        "á½´Î½"
      ],
      [
        "Î·",
        "ÏĤ"
      ],
      [
        "ĠÜ¡",
        "ÜĲ"
      ],
      [
        "ÜĽ",
        "Ü¢ÜĲ"
      ],
      [
        "ÎŃ",
        "Î½"
      ],
      [
        "ĠÜķ",
        "Ü¨"
      ],
      [
        "ĠÜł",
        "Üļ"
      ],
      [
        "ĠÕ¡Õ",
        "´"
      ],
      [
        "Õ",
        "µ"
      ],
      [
        "ĠÜĲ",
        "Ü£"
      ],
      [
        "ĠÜĹ",
        "ÜŁÜ¢ÜĲ"
      ],
      [
        "ÏĦ",
        "Î¹"
      ],
      [
        "Õ¸",
        "ÖĢ"
      ],
      [
        "ĠÜķÜĲ",
        "Ü¢"
      ],
      [
        "ĠÎµ",
        "á¼°"
      ],
      [
        "Ü¡ÜĺÜ£",
        "ÜĲ"
      ],
      [
        "Üĺ",
        "ÜŁ"
      ],
      [
        "ÜĽ",
        "ÜĺÜ£"
      ],
      [
        "Ü¡",
        "ÜłÜł"
      ],
      [
        "ĠÜĺ",
        "ÜŁ"
      ],
      [
        "ĠÕ",
        "½"
      ],
      [
        "Õ¥",
        "ÖĢ"
      ],
      [
        "Üļ",
        "ÜķÜĲ"
      ],
      [
        "Õ¡Õ",
        "¼"
      ],
      [
        "Ġ",
        "ÏĨ"
      ],
      [
        "Ü¢",
        "ÜĿÜĲ"
      ],
      [
        "ÜĻ",
        "ÜĲ"
      ],
      [
        "ĠÜ¬",
        "ÜĺÜĴ"
      ],
      [
        "ĠÜª",
        "ÜĺÜļÜĲ"
      ],
      [
        "Õ¥Õ",
        "²"
      ],
      [
        "Üł",
        "Üĵ"
      ],
      [
        "Üª",
        "Ü¡"
      ],
      [
        "ĠÜĴ",
        "Ü¥"
      ],
      [
        "Üĵ",
        "Üł"
      ],
      [
        "Îµ",
        "Ïģ"
      ],
      [
        "ÜķÜĲ",
        "ÜłÜĹÜĲ"
      ],
      [
        "ĠÜ¡Ü¢",
        "ÜĹ"
      ],
      [
        "Îµ",
        "Î½"
      ],
      [
        "ĠÜķÜĲ",
        "Ü¬"
      ],
      [
        "Üł",
        "ÜĺÜ¬"
      ],
      [
        "ĠÜĲ",
        "Ü¬ÜĲ"
      ],
      [
        "Ü©",
        "ÜķÜ¡"
      ],
      [
        "á½",
        "Ĳ"
      ],
      [
        "Ïī",
        "ÏĤ"
      ],
      [
        "Ü«ÜĴ",
        "Ü¬ÜĲ"
      ],
      [
        "Ġ",
        "Î½"
      ],
      [
        "ÜĿ",
        "Ü£"
      ],
      [
        "Ü¥",
        "Üª"
      ],
      [
        "ĠÜ¡",
        "Ü«ÜŁÜļ"
      ],
      [
        "ÏĦ",
        "ÏīÎ½"
      ],
      [
        "á½",
        "¶"
      ],
      [
        "Õ¥",
        "Õ¡Õ¬"
      ],
      [
        "Õ¸Õ",
        "²"
      ],
      [
        "Üĺ",
        "ÜķÜĿ"
      ],
      [
        "Ü¡",
        "Ü¬ÜĲ"
      ],
      [
        "Ü©",
        "ÜĿ"
      ],
      [
        "Ü©",
        "ÜĿÜ¡"
      ],
      [
        "á¿",
        "³"
      ],
      [
        "ÜĿÜķ",
        "ÜĺÜĹÜĿ"
      ],
      [
        "Ġ",
        "âĢ¤"
      ],
      [
        "ÜĲ",
        "Üª"
      ],
      [
        "Ġá¼Ģ",
        "Î½"
      ],
      [
        "á¾",
        "¶"
      ],
      [
        "Üķ",
        "Ü£"
      ],
      [
        "¨Õ¶",
        "Õ¤"
      ],
      [
        "·",
        "ÕŃ"
      ],
      [
        "Üĺ",
        "ÜªÜĲ"
      ],
      [
        "ĠÜł",
        "ÜĴÜª"
      ],
      [
        "ĠÜĺ",
        "Ü¡Ü¢"
      ],
      [
        "ĠÜļ",
        "ÜĿ"
      ],
      [
        "Õ¡Õ",
        "¿"
      ],
      [
        "á½¸",
        "Î½"
      ],
      [
        "Ġá½",
        "ĳ"
      ],
      [
        "ĠÜĺ",
        "Üł"
      ],
      [
        "ĠÜķÜĲ",
        "Ü¢Ü«ÜĲ"
      ],
      [
        "ÜĿÜł",
        "ÜĽÜĺÜ£"
      ],
      [
        "ĠÜ¬",
        "Ü¡Ü¢"
      ],
      [
        "ÜķÜĿÜ¢",
        "Ü¬ÜĲ"
      ],
      [
        "ÜĺÜł",
        "Üķ"
      ],
      [
        "Üł",
        "ÜĺÜ¢"
      ],
      [
        "Ü¬",
        "ÜłÜ¡"
      ],
      [
        "Î¿",
        "Ïį"
      ],
      [
        "ĠÕ",
        "º"
      ],
      [
        "Ïģ",
        "Î¯"
      ],
      [
        "ĠÏĦ",
        "á¿·"
      ],
      [
        "Õ¸Õ",
        "¾"
      ],
      [
        "Ü¡",
        "ÜłÜĲ"
      ],
      [
        "ĠÜĹ",
        "Ü«ÜĲ"
      ],
      [
        "ĠÜ¥",
        "ÜĴ"
      ],
      [
        "Îµ",
        "Ïĥ"
      ],
      [
        "ĠÜĵ",
        "ÜĴÜªÜĲ"
      ],
      [
        "Ü¬ÜĿ",
        "ÜĴ"
      ],
      [
        "º",
        "ÏĤ"
      ],
      [
        "Üª",
        "ÜĹ"
      ],
      [
        "ĠÜķ",
        "ÜĻ"
      ],
      [
        "ÜŁ",
        "ÜłÜĲ"
      ],
      [
        "ĠÏĦ",
        "á½°"
      ],
      [
        "ÜĺÜª",
        "Ü«ÜłÜ¡"
      ],
      [
        "Õ©",
        "Õ§"
      ],
      [
        "Ü¡",
        "ÜĹ"
      ],
      [
        "ÜĹ",
        "ÜĴ"
      ],
      [
        "Üķ",
        "Ü«"
      ],
      [
        "ĠÜĺ",
        "ÜĿ"
      ],
      [
        "ĠÎ",
        "³"
      ],
      [
        "Îµ",
        "Ïį"
      ],
      [
        "ĠÜ¦",
        "Üª"
      ],
      [
        "Ï",
        "Ī"
      ],
      [
        "Ü¡",
        "Ü¢ÜĲ"
      ],
      [
        "ĠÜĲ",
        "ÜĴÜĲ"
      ],
      [
        "Üļ",
        "Ü¬"
      ],
      [
        "Ü©",
        "ÜĺÜĴ"
      ],
      [
        "á¿",
        "ĩ"
      ],
      [
        "Ïģ",
        "Î±"
      ],
      [
        "ĠÜĲÜ¢Ü¬",
        "Ü¬ÜĲ"
      ],
      [
        "ÜĴÜĿ",
        "Ü¬ÜĲ"
      ],
      [
        "Õ¸ÖĤ",
        "Õ¶"
      ],
      [
        "ĠÜ¥Üł",
        "ÜĺÜĹÜĿ"
      ],
      [
        "ĠÏĦá½¸",
        "Î½"
      ],
      [
        "ÜĹ",
        "ÜĲ"
      ],
      [
        "ĠÜĴ",
        "Ü£"
      ],
      [
        "Õ«",
        "ÖĤ"
      ],
      [
        "ĠÜ©",
        "Üª"
      ],
      [
        "ÜªÜĿ",
        "Ü¬ÜĲ"
      ],
      [
        "ÏĥÎ¹",
        "Î½"
      ],
      [
        "ÜĲ",
        "Ü¦ÜĲ"
      ],
      [
        "Ü¦",
        "ÜĿÜ¢"
      ],
      [
        "Õ¡Õ",
        "²"
      ],
      [
        "Îµ",
        "á¿ĸ"
      ],
      [
        "ÜªÜĲ",
        "ÜĿÜ¬"
      ],
      [
        "Î»",
        "Î±"
      ],
      [
        "Õ½",
        "Õ¶"
      ],
      [
        "Îº",
        "Î±á½¶"
      ],
      [
        "ÏĮ",
        "Î½"
      ],
      [
        "Ġá¼Ģ",
        "ÏĢ"
      ],
      [
        "Ġá¼¡Î¼",
        "á¿¶Î½"
      ],
      [
        ".",
        "ÜĢ"
      ],
      [
        "ĠÜķ",
        "Ü«Ü¡"
      ],
      [
        "ĠÎ",
        "»"
      ],
      [
        "Üĵ",
        "ÜĴÜªÜĲ"
      ],
      [
        "ĠÜ¬",
        "Üª"
      ],
      [
        "Üĺ",
        "Ü¦"
      ],
      [
        "ÜĴ",
        "ÜŁ"
      ],
      [
        "ĠÜķ",
        "Ü¢ÜĲ"
      ],
      [
        "ÜĺÜ¢",
        "ÜĿÜĹÜĿ"
      ],
      [
        "ÜĻ",
        "ÜĴÜ¢"
      ],
      [
        "ĠÜ¢",
        "ÜĲ"
      ],
      [
        "ĠÜļ",
        "Ü¡"
      ],
      [
        "ĠÜķ",
        "Ü¦"
      ],
      [
        "Ü¥",
        "Ü£Üª"
      ],
      [
        "ĠÕ¡Õ",
        "¼"
      ],
      [
        "ĠÜłÜĺÜ¬",
        "ÜĹ"
      ],
      [
        "ĠÜķÜĿÜł",
        "ÜĿ"
      ],
      [
        "ĠÎµá¼°",
        "ÏĤ"
      ],
      [
        "Ü¢",
        "ÜĹ"
      ],
      [
        "ĠÜł",
        "Ü¥"
      ],
      [
        "ĠÜł",
        "ÜĿÜ¬"
      ],
      [
        "Üļ",
        "Ü¬ÜĲ"
      ],
      [
        "ĠÜķÜĲ",
        "Ü¦"
      ],
      [
        "ÜĹÜĺ",
        "ÜķÜĲ"
      ],
      [
        "ĠÜ¬",
        "ÜĲ"
      ],
      [
        "Ġá¼Ĳ",
        "Îº"
      ],
      [
        "ĠÜĲÜĿÜ¬",
        "ÜĺÜĹÜĿ"
      ],
      [
        "ĠÜ¥Ü¡",
        "ÜĹ"
      ],
      [
        "Õ",
        "ª"
      ],
      [
        "ÜĹ",
        "ÜķÜĲ"
      ],
      [
        "ÜĹ",
        "ÜŁÜĿÜł"
      ],
      [
        "Ü«",
        "Ü©"
      ],
      [
        "ĠÜ¡",
        "ÜªÜĿ"
      ],
      [
        "Ü¨",
        "ÜĲ"
      ],
      [
        "Ü«Ü¡",
        "Ü«"
      ],
      [
        "ÜĿÜķ",
        "ÜĹ"
      ],
      [
        "ÜļÜĻ",
        "ÜĲ"
      ],
      [
        "ĠÜ¡",
        "ÜłÜ¬ÜĲ"
      ],
      [
        "ĠÜłÜĿ",
        "Ü«ÜĺÜ¥"
      ],
      [
        "ĠÎµ",
        "á½Ĳ"
      ],
      [
        "ÜĲ",
        "Üĺ"
      ],
      [
        "Üĺ",
        "Ü«ÜĲ"
      ],
      [
        "Üł",
        "Ü¢"
      ],
      [
        "ĠÜĲ",
        "ÜŁ"
      ],
      [
        "ĠÜ¡",
        "Ü£"
      ],
      [
        "ĠÜĴ",
        "Ü«"
      ],
      [
        "Õ¡Õ",
        "°"
      ],
      [
        "ĠÎº",
        "Î±"
      ],
      [
        "ÜĺÜ£",
        "Ü¦"
      ],
      [
        "Õ¡ÖĢÕ",
        "¿"
      ],
      [
        "Üĺ",
        "ÜĿ"
      ],
      [
        "Ü¬",
        "ÜĿÜ¢"
      ],
      [
        "ĠÜĴ",
        "ÜłÜļ"
      ],
      [
        "Î¿Ïħ",
        "ÏĤ"
      ],
      [
        "Ü¬",
        "Üļ"
      ],
      [
        "ĠÜĺÜĲ",
        "Ü¦"
      ],
      [
        "ĠÜĿ",
        "Üĺ"
      ],
      [
        "Õ«",
        "Öģ"
      ],
      [
        "Î¼",
        "Î±ÏĦ"
      ],
      [
        "ÜĺÜª",
        "ÜļÜĲ"
      ],
      [
        "ĠÜķÜĿ",
        "ÜłÜĹ"
      ],
      [
        "Õ¸Õµ",
        "Õ¶"
      ],
      [
        "ºÕ¡Õ",
        "·ÕŃ"
      ],
      [
        "Ġá¼ģ",
        "Î³Î¯"
      ],
      [
        "ÜĿ",
        "ÜĺÜĹÜĿ"
      ],
      [
        "Üł",
        "ÜĴ"
      ],
      [
        "Ü¡",
        "Ü¥"
      ],
      [
        "ÏĦ",
        "Î·"
      ],
      [
        "á¿",
        "¦"
      ],
      [
        "ĠÜĺÜĲ",
        "ÜĿÜ¬"
      ],
      [
        "ĠÜ«",
        "Üª"
      ],
      [
        "ĠÜķÜ¢",
        "Ü¬"
      ],
      [
        "ĠÜĹÜĿ",
        "Ü¡Ü¢"
      ],
      [
        "Õ¸ÖĤÕ©",
        "Õ«"
      ],
      [
        "ÜĵÜłÜĿ",
        "ÜłÜĲ"
      ],
      [
        "Õ",
        "®"
      ],
      [
        "Üĺ",
        "ÜŁÜķ"
      ],
      [
        "Ü¡",
        "ÜĿÜ¢"
      ],
      [
        "Ü¡",
        "ÜłÜŁ"
      ],
      [
        "Üķ",
        "ÜĺÜĹÜĿ"
      ],
      [
        "Ì£",
        "Ìĩ"
      ],
      [
        "Üĵ",
        "Üķ"
      ],
      [
        "Ġá¼",
        "Ķ"
      ],
      [
        "Ü«Ü¡",
        "Ü¥"
      ],
      [
        "Ġ",
        "Õ¶"
      ],
      [
        "ĠÜĲ",
        "ÜĺÜłÜķ"
      ],
      [
        "Ü¦",
        "ÜªÜĲ"
      ],
      [
        "ÏĦ",
        "Îµ"
      ],
      [
        "ĠÕ",
        "¿"
      ],
      [
        "ĠÎ",
        "²"
      ],
      [
        "Ïĥ",
        "Î¼"
      ],
      [
        "ÜªÜĺ",
        "ÜļÜĲ"
      ],
      [
        "ºÕ¡Õ",
        "¿"
      ],
      [
        "Î¿á½",
        "ºÏĤ"
      ],
      [
        "ÜĴ",
        "Üļ"
      ],
      [
        "ĠÜķ",
        "Üª"
      ],
      [
        "ĠÜĺ",
        "ÜĹÜĺ"
      ],
      [
        "ĠÜ¥",
        "Üª"
      ],
      [
        "ĠÜļ",
        "ÜķÜĲ"
      ],
      [
        "Î³",
        "Î¹"
      ],
      [
        "ÏĦÎ±",
        "Î¹"
      ],
      [
        "ÜĺÜķ",
        "Ü«ÜĲ"
      ],
      [
        "ĠÜ¨",
        "ÜĴÜĿÜ¢"
      ],
      [
        "Õ",
        "·"
      ],
      [
        "ĸ",
        "ÏĤ"
      ],
      [
        "ĠÜĲ",
        "ÜĴÜĿ"
      ],
      [
        "Ü¥",
        "Ü©ÜĺÜĴ"
      ],
      [
        "Ü©",
        "Üł"
      ],
      [
        "ĠÜĴ",
        "Üļ"
      ],
      [
        "ĠÜĿ",
        "ÜĺÜļÜ¢Ü¢"
      ],
      [
        "ĠÜ«",
        "ÜĲ"
      ],
      [
        "ĠÜ¡Ü¢",
        "ÜĹÜĺÜ¢"
      ],
      [
        "ÜĿÜŁ",
        "ÜĲ"
      ],
      [
        "Î»",
        "Îµ"
      ],
      [
        "Î¿á¿",
        "ĸÏĤ"
      ],
      [
        "ĠÕ¡Õ",
        "µ"
      ],
      [
        "ÜĿÜ¡",
        "ÜĿÜ¢"
      ],
      [
        "Ġ",
        "Ïĩ"
      ],
      [
        "ĠÜķ",
        "Ü¥Üł"
      ],
      [
        "ĠÜķ",
        "ÜłÜ¡ÜĲ"
      ],
      [
        "ĠÕ",
        "¾"
      ],
      [
        "á¼",
        "Ĳ"
      ],
      [
        "ĠÜĺÜĲ",
        "ÜĻ"
      ],
      [
        "ĠÜķÜĲ",
        "Ü¬ÜĲ"
      ],
      [
        "ÜĿÜł",
        "ÜĿ"
      ],
      [
        "ĠÜ¡Ü¢",
        "Üĺ"
      ],
      [
        "ĠÜĲÜĿÜŁ",
        "ÜĲ"
      ],
      [
        "ÜĲÜĿÜŁ",
        "Ü¢ÜĲ"
      ],
      [
        "ÜĲ",
        "ÜłÜĹÜĲ"
      ],
      [
        "ÜĿ",
        "ÜŁÜĺÜ¢"
      ],
      [
        "Üł",
        "Ü©"
      ],
      [
        "Ü¡",
        "ÜķÜ¡"
      ],
      [
        "ĠÜĲ",
        "ÜĿ"
      ],
      [
        "Î¿",
        "Ïĥ"
      ],
      [
        "ĠÕ",
        "¨Õ¶Õ¤"
      ],
      [
        "ĠÜĹÜĺ",
        "ÜĿÜ¬"
      ],
      [
        "Ü«Ü¡",
        "Ü¥ÜĺÜ¢"
      ],
      [
        "ĠÜ¦",
        "ÜĿÜłÜĽÜĺÜ£"
      ],
      [
        "ĠÜ«Ü¡",
        "Ü¥ÜĺÜ¢"
      ],
      [
        "ĠÜ¢Ü¦",
        "Ü«ÜĹ"
      ],
      [
        "Üł",
        "Ü¥"
      ],
      [
        "Üª",
        "ÜĺÜ¢"
      ],
      [
        "ÜĴ",
        "ÜĺÜ¬ÜĲ"
      ],
      [
        "ĠÜ¡",
        "ÜªÜĿÜĲ"
      ],
      [
        "ÜłÜĲ",
        "ÜŁÜĲ"
      ],
      [
        "ÜĹÜĿ",
        "ÜŁÜłÜĲ"
      ],
      [
        "ĠÜłÜĲ",
        "ÜĿÜłÜĿÜ¢"
      ],
      [
        "Õ¥",
        "Öģ"
      ],
      [
        "Î»",
        "ÎŃ"
      ],
      [
        "Õ¸ÖĤÕ©",
        "Õ¥"
      ],
      [
        "Ġá½ĳ",
        "ÏĢ"
      ],
      [
        "Ü¡",
        "Ü«ÜĿÜļÜĲ"
      ],
      [
        "ÜĹ",
        "ÜłÜĿÜ¢"
      ],
      [
        "ÜŁ",
        "ÜĺÜł"
      ],
      [
        "Ü«",
        "Ü¥"
      ],
      [
        "ĠÜ¥",
        "Ü¢"
      ],
      [
        "Üĵ",
        "ÜłÜĲ"
      ],
      [
        "Õ«",
        "Õ½"
      ],
      [
        "ĠÜ«",
        "ÜªÜĿ"
      ],
      [
        "Î»",
        "Î·"
      ],
      [
        "ĠÜķÜ¡",
        "Ü¬"
      ],
      [
        "Î³",
        "Î±"
      ],
      [
        "Î¸",
        "Ïģ"
      ],
      [
        "Õ",
        "±"
      ],
      [
        "Ġ",
        "ÖĦ"
      ],
      [
        "Ü¡",
        "Üĺ"
      ],
      [
        "ĠÜł",
        "ÜĴÜĿÜ¬"
      ],
      [
        "ĠÜŁ",
        "ÜĲÜ¦ÜĲ"
      ],
      [
        "Î¼",
        "ÎŃÎ½"
      ],
      [
        "ÜĺÜª",
        "ÜĴÜĲ"
      ],
      [
        "Õ",
        "¨"
      ],
      [
        "Õ",
        "İ"
      ],
      [
        "ÜĿ",
        "ÜªÜĲ"
      ],
      [
        "ĠÜķ",
        "ÜŁÜł"
      ],
      [
        "Ïĥ",
        "Î±ÏĤ"
      ],
      [
        "Î¼",
        "Î±"
      ],
      [
        "Ü¨",
        "ÜļÜĲ"
      ],
      [
        "Ü©Üª",
        "ÜĴ"
      ],
      [
        "©",
        "Õ§"
      ],
      [
        "ÜĿ",
        "ÜķÜ¥"
      ],
      [
        "Ü¬",
        "ÜŁ"
      ],
      [
        "Üª",
        "ÜŁÜĲ"
      ],
      [
        "Üļ",
        "ÜĿÜ¢"
      ],
      [
        "ĠÜ¡",
        "Üł"
      ],
      [
        "Ü©",
        "ÜĴÜł"
      ],
      [
        "ĠÕ",
        "£"
      ],
      [
        "ĠÜ¥",
        "Ü¡ÜĲ"
      ],
      [
        "ÏĢ",
        "Î¿"
      ],
      [
        "ĠÜ«",
        "ÜĴ"
      ],
      [
        "ĠÜ©",
        "ÜķÜĿ"
      ],
      [
        "ĠÜĺÜ¢",
        "Ü¦"
      ],
      [
        "ĠÜ«Ü¡",
        "ÜĿÜĲ"
      ],
      [
        "ÜĴÜªÜĹ",
        "Ü¡"
      ],
      [
        "ºÕ¡Õ·ÕŃ",
        "Õ¡ÖĢ"
      ],
      [
        "Üķ",
        "Ü¨"
      ],
      [
        "Ü«",
        "ÜĴÜĺ"
      ],
      [
        "ĠÜł",
        "ÜĴ"
      ],
      [
        "Üĵ",
        "Ü¡"
      ],
      [
        "á¼",
        "±"
      ],
      [
        "á¼",
        "Ģ"
      ],
      [
        "Ïĥ",
        "Îµ"
      ],
      [
        "ĠÜŁ",
        "Ü¢"
      ],
      [
        "Ïģ",
        "Î¿Î½"
      ],
      [
        "ĠÜļ",
        "Ü¢Ü¢"
      ],
      [
        "ĠÜ¦",
        "ÜĲÜª"
      ],
      [
        "ĠÜĽ",
        "ÜĴ"
      ],
      [
        "Ü¬",
        "ÜĴÜĲ"
      ],
      [
        "ÜĴ",
        "ÜĺÜĹÜĿ"
      ],
      [
        "ĠÜĲ",
        "ÜªÜ¥ÜĲ"
      ],
      [
        "ĠÜ¡",
        "Ü«"
      ],
      [
        "ĠÜ¡",
        "ÜĽ"
      ],
      [
        "ĠÕ",
        "ºÕ¡Õ¿"
      ],
      [
        "ĠÜ¥",
        "Üķ"
      ],
      [
        "Üĵ",
        "ÜªÜĲ"
      ],
      [
        "Ïĥ",
        "Î±Î¹"
      ],
      [
        "ĠÜĿ",
        "ÜĺÜ¡"
      ],
      [
        "Õ¸",
        "Öģ"
      ],
      [
        "ÜłÜ¡",
        "ÜķÜ¡"
      ],
      [
        "ÜķÜĿÜ¢",
        "ÜĲ"
      ],
      [
        "ĠÏĢ",
        "Î¬Î½"
      ],
      [
        "ÜŁÜª",
        "ÜĻ"
      ],
      [
        "Î",
        "¶"
      ],
      [
        "Ġ",
        "Î¿"
      ],
      [
        "ÜĲ",
        "Üļ"
      ],
      [
        "Ü¡",
        "ÜŁ"
      ],
      [
        "ÜĴ",
        "Ü«"
      ],
      [
        "Ü¥",
        "ÜĴ"
      ],
      [
        "Ü£",
        "ÜĴ"
      ],
      [
        "Ïĥ",
        "Î¸"
      ],
      [
        "ĠÜŁ",
        "ÜĹ"
      ],
      [
        "ĠÜ«",
        "ÜłÜĿ"
      ],
      [
        "Ïħ",
        "Î½"
      ],
      [
        "Î»",
        "Î¿"
      ],
      [
        "ĠÜª",
        "ÜĴ"
      ],
      [
        "ĠÕ¸",
        "ÖĤ"
      ],
      [
        "ĠÜŁÜłÜĹ",
        "ÜĿÜ¢"
      ],
      [
        "ĠÜ¡ÜłÜŁ",
        "ÜĲ"
      ],
      [
        "Ý",
        "ģ"
      ],
      [
        "Ü¡",
        "ÜĿÜĲ"
      ],
      [
        "Ü¬",
        "ÜŁÜĺÜ¢"
      ],
      [
        "Ü¬",
        "ÜĺÜĴ"
      ],
      [
        "ĠÜĲ",
        "Ü«Ü¬"
      ],
      [
        "ĠÜĺ",
        "ÜłÜ¡"
      ],
      [
        "ĠÜ¡",
        "ÜªÜ¢"
      ],
      [
        "Ü¦",
        "Ü«"
      ],
      [
        "ĠÕ",
        "¨"
      ],
      [
        "ĠÕ",
        "¬"
      ],
      [
        "Üĵ",
        "ÜĲ"
      ],
      [
        "Ïĥ",
        "Î±"
      ],
      [
        "ÜķÜĲ",
        "ÜĿÜ¬"
      ],
      [
        "Õ¸",
        "Õ¶"
      ],
      [
        "ÜĹÜĺ",
        "Ü¬"
      ],
      [
        "ÜĺÜĲ",
        "Ü¢"
      ],
      [
        "ĠÜ¡ÜłÜŁ",
        "ÜĺÜ¬ÜĲ"
      ],
      [
        "Üł",
        "ÜĿÜł"
      ],
      [
        "ĠÜķ",
        "Ü«Ü¡ÜĿÜĲ"
      ],
      [
        "Ü¦",
        "Ü¢ÜĲ"
      ],
      [
        "Ü©",
        "ÜĺÜ¡"
      ],
      [
        "ĠÜ¢",
        "Üļ"
      ],
      [
        "ĠÜłÜĲ",
        "ÜłÜĹÜĲ"
      ],
      [
        "ĠÜļ",
        "ÜłÜ¦"
      ],
      [
        "Õ¥Õ",
        "¿"
      ],
      [
        "ĠÜķÜĿ",
        "Ü«ÜĺÜ¥"
      ],
      [
        "ĠÜ¥Ü¡",
        "ÜĹÜĺÜ¢"
      ],
      [
        "Ïį",
        "ÏģÎ¹"
      ],
      [
        "Õ¥Õ½",
        "ÖģÕ§"
      ],
      [
        "Õ¸ÖĢÕ",
        "¤"
      ],
      [
        "ĠÜĴÜłÜļ",
        "ÜĺÜķ"
      ],
      [
        "ª",
        "Õ¡Õ¶"
      ],
      [
        "ĠÜĺ",
        "Üª"
      ],
      [
        "ĠÜĴ",
        "Ü¬"
      ],
      [
        "ĠÜĴ",
        "ÜŁÜł"
      ],
      [
        "ĠÕ",
        "¢"
      ],
      [
        "ÜķÜĲ",
        "Ü¢"
      ],
      [
        "ĠÜĿ",
        "ÜĹ"
      ],
      [
        "ĠÜ¢",
        "Ü¨"
      ],
      [
        "Ġá¼",
        "Ħ"
      ],
      [
        "Õ¥",
        "ÖĢÕ"
      ],
      [
        "ĠÜķÜ¡",
        "ÜªÜĿÜĲ"
      ],
      [
        "ÜĲÜ¢",
        "ÜĺÜ¢"
      ],
      [
        "ĠÏĢ",
        "Î±Ïģ"
      ],
      [
        "Ü¥Ü¡",
        "Üķ"
      ],
      [
        "ÜłÜł",
        "ÜĿÜĲ"
      ],
      [
        "ĠÎ¼",
        "Îµ"
      ],
      [
        "ĠÜłÜļ",
        "Ü¡ÜĲ"
      ],
      [
        "Ġ",
        "Î±"
      ],
      [
        "ÜĹ",
        "ÜĿÜ¢"
      ],
      [
        "ĠÜķ",
        "Ü¡ÜĲ"
      ],
      [
        "Ü«",
        "ÜĿÜ¢"
      ],
      [
        "ĠÜł",
        "Ü£"
      ],
      [
        "ÏĦ",
        "Î¯"
      ],
      [
        "ĠÕ",
        "Ń"
      ],
      [
        "ÜĽ",
        "ÜĴ"
      ],
      [
        "Õ«",
        "ÖĢ"
      ],
      [
        "ĠÏĢ",
        "Î±Î½"
      ],
      [
        "ĠÎ´",
        "Îµ"
      ],
      [
        "Õ",
        "¼"
      ],
      [
        "Õ",
        "¾"
      ],
      [
        "Ü",
        "Ĥ"
      ],
      [
        "Üĺ",
        "Ü¥"
      ],
      [
        "Ü¬",
        "ÜĿÜª"
      ],
      [
        "Üķ",
        "Ü¦"
      ],
      [
        "ĠÜķ",
        "Ü¬Üª"
      ],
      [
        "ÜŁ",
        "Ü¢"
      ],
      [
        "ÜŁ",
        "Üĺ"
      ],
      [
        "ĠÜ¡",
        "Üļ"
      ],
      [
        "ĠÜ¡",
        "ÜłÜ¦"
      ],
      [
        "Õ¶",
        "Õ¥Õ¬"
      ],
      [
        "ĠÕ",
        "¤"
      ],
      [
        "ĠÜŁ",
        "Ü¢Ü«ÜĲ"
      ],
      [
        "ÜĹÜĺ",
        "Üķ"
      ],
      [
        "ĠÜļ",
        "ÜĽ"
      ],
      [
        "ĠÜĲÜ¡",
        "Üª"
      ],
      [
        "ĠÜ£",
        "ÜĿ"
      ],
      [
        "ĠÜ£",
        "ÜĵÜĿ"
      ],
      [
        "ÜłÜŁ",
        "ÜĺÜ¬ÜĲ"
      ],
      [
        "ÜĲÜ¡",
        "Üª"
      ],
      [
        "ĠÜĻ",
        "ÜĴÜ¢ÜĲ"
      ],
      [
        "ĠÜĺÜĹ",
        "ÜĲ"
      ],
      [
        "ÜĲ",
        "Ü¬ÜĲ"
      ],
      [
        "ĠÜķ",
        "Ü¥ÜłÜ¡ÜĲ"
      ],
      [
        "ĠÜĲ",
        "Üª"
      ],
      [
        "Ü£",
        "Ü¬"
      ],
      [
        "ÏĦ",
        "Î¿"
      ],
      [
        "á½",
        "º"
      ],
      [
        "ÜĻ",
        "ÜĿÜ¢"
      ],
      [
        "ĠÜ¡Ü¢",
        "ÜŁÜĺÜ¢"
      ],
      [
        "ÜªÜĿ",
        "Ü«"
      ],
      [
        "Ü«Ü¡",
        "ÜĹ"
      ],
      [
        "Ü¡Üª",
        "Ü¢"
      ],
      [
        "ÜĹÜĿÜ¡Ü¢",
        "ÜĺÜ¬ÜĲ"
      ],
      [
        "ĠÜķÜł",
        "Ü¥ÜłÜ¡"
      ],
      [
        "á½²",
        "Ïģ"
      ],
      [
        "Ü¬",
        "ÜĹÜĺÜ¢"
      ],
      [
        "Üķ",
        "Üł"
      ],
      [
        "Üķ",
        "Ü¬ÜĲ"
      ],
      [
        "ĠÜķ",
        "Ü¥Ü¡"
      ],
      [
        "ĠÜĲ",
        "ÜĿÜ¢ÜĲ"
      ],
      [
        "ÜŁ",
        "ÜĿÜ¢"
      ],
      [
        "Ü¥",
        "ÜĺÜª"
      ],
      [
        "Ü¦",
        "Ü¢"
      ],
      [
        "Ü©",
        "ÜĿÜ¢"
      ],
      [
        "Î½",
        "Î·"
      ],
      [
        "ĠÜ¥",
        "Ü¢ÜĲ"
      ],
      [
        "Îµ",
        "Î¿"
      ],
      [
        "ĠÜ¬",
        "Ü¬"
      ],
      [
        "ĠÏĦ",
        "á¿ĩ"
      ],
      [
        "ÜĺÜĲ",
        "Ü¬"
      ],
      [
        "ÜĴÜª",
        "ÜĿÜ¢"
      ],
      [
        "ĠÜª",
        "ÜĴÜĲ"
      ],
      [
        "ÜĲÜ¢",
        "Ü«"
      ],
      [
        "ĠÜĲÜĿÜ¬",
        "ÜĿÜĹ"
      ],
      [
        "ÜŁÜĲ",
        "Ü¦ÜĲ"
      ],
      [
        "ÜļÜĻ",
        "ÜĺÜ¢"
      ],
      [
        "ĠÕ´",
        "Õ«"
      ],
      [
        "ÜķÜĺ",
        "ÜĿÜķ"
      ],
      [
        "ĠÜĿÜķÜ¥",
        "ÜĿÜ¢"
      ],
      [
        "Ü«",
        "Üª"
      ],
      [
        "ĠÜł",
        "ÜĺÜ©"
      ],
      [
        "Ü¥",
        "ÜłÜĿ"
      ],
      [
        "ĠÜ¡",
        "Ü¨"
      ],
      [
        "ĠÜ¡",
        "Ü«ÜŁ"
      ],
      [
        "Ü¦",
        "Üł"
      ],
      [
        "Ü¦",
        "ÜĿÜª"
      ],
      [
        "Õ¡",
        "ÖĦ"
      ],
      [
        "ĠÜĴ",
        "ÜªÜĲ"
      ],
      [
        "ĠÜ¥",
        "ÜĴÜķÜĲ"
      ],
      [
        "Ïĥ",
        "Î¯"
      ],
      [
        "ĠÜ£",
        "ÜĵÜĿÜĲÜĲ"
      ],
      [
        "Õ¸ÖĤ",
        "Öģ"
      ],
      [
        "Î·",
        "ÏĥÎ¿Î½"
      ],
      [
        "ĠÎµ",
        "á¼"
      ],
      [
        "ÜĽÜĿ",
        "Ü¬ÜĲ"
      ],
      [
        "ÜĹÜĿÜ¡Ü¢",
        "ÜĿÜ¢"
      ],
      [
        "ĠÜĲÜļÜª",
        "Ü¢ÜĲ"
      ],
      [
        "á¾¶",
        "ÏĤ"
      ],
      [
        "Ü¢",
        "Üļ"
      ],
      [
        "Ü¡",
        "Ü«"
      ],
      [
        "ĠÜ¡",
        "Üª"
      ],
      [
        "ĠÜ¡",
        "Ü¡ÜłÜł"
      ],
      [
        "Î½",
        "Î±"
      ],
      [
        "Ü£",
        "ÜªÜĲ"
      ],
      [
        "Üĵ",
        "Üĺ"
      ],
      [
        "ÜĻ",
        "ÜĿ"
      ],
      [
        "Î¼",
        "Î¬"
      ],
      [
        "ÜķÜ¥",
        "ÜĿÜ¢"
      ],
      [
        "Õ¸ÖĤ",
        "Õ´"
      ],
      [
        "Õ¥Õ",
        "¯"
      ],
      [
        "ÏĮ",
        "Î¾"
      ],
      [
        "ÜļÜª",
        "Ü¢ÜĲ"
      ],
      [
        "Ü©Üª",
        "ÜĴÜĺ"
      ],
      [
        "Õ¡ÖĢÕ",
        "¤"
      ],
      [
        "ÜĲÜĿÜ¬",
        "ÜĺÜĹÜĿ"
      ],
      [
        "ĠÜķÜł",
        "ÜĿÜ¬"
      ],
      [
        "Öħ",
        "ÖĢ"
      ],
      [
        "Õ¥Õ½",
        "ÖģÕ«"
      ],
      [
        "Õİ",
        "Õ½"
      ],
      [
        ":",
        "-"
      ],
      [
        "Ü¡",
        "Üł"
      ],
      [
        "Ü¬",
        "Üł"
      ],
      [
        "ĠÜĺ",
        "Ü¥Üł"
      ],
      [
        "ĠÜĴ",
        "ÜŁÜĺÜ¢"
      ],
      [
        "ÜĿÜ¬",
        "ÜĹ"
      ],
      [
        "ÜĹÜĿ",
        "ÜķÜĿÜ¢"
      ],
      [
        "ÜĻ",
        "Üª"
      ],
      [
        "ĠÜķÜĲ",
        "Ü¢ÜĲ"
      ],
      [
        "ĠÜ«",
        "Ü¥Ü¬ÜĲ"
      ],
      [
        "ÜªÜĿ",
        "Üĺ"
      ],
      [
        "Õ¡Õ¶",
        "Öģ"
      ],
      [
        "Ü¬ÜĿ",
        "Üķ"
      ],
      [
        "ĠÜĲÜ¬",
        "Ü¬"
      ],
      [
        "Õ¯",
        "Õ¶"
      ],
      [
        "ÏĦÎ±",
        "ÏĤ"
      ],
      [
        "ÜķÜª",
        "Ü¢ÜĿ"
      ],
      [
        "ÜļÜĻ",
        "ÜĿ"
      ],
      [
        "ĠÜķÜ©",
        "ÜĺÜķÜ«ÜĲ"
      ],
      [
        "á¾",
        "³"
      ],
      [
        "Üĺ",
        "ÜĴÜĿ"
      ],
      [
        "ÜĴ",
        "ÜĺÜ¢"
      ],
      [
        "ĠÜł",
        "Ü¥ÜłÜ¡"
      ],
      [
        "Ü¥",
        "ÜķÜ¡ÜĲ"
      ],
      [
        "ĠÜĺ",
        "Ü¢ÜĲ"
      ],
      [
        "ĠÜĴ",
        "Ü©"
      ],
      [
        "Ġá¼",
        "±"
      ],
      [
        "ĠÜ©",
        "ÜªÜĴ"
      ],
      [
        "Õ½",
        "Õ¿"
      ],
      [
        "ĠÜ£",
        "Ü¡"
      ],
      [
        "ÖĢÕ",
        "¤"
      ],
      [
        "Îº",
        "Î±"
      ],
      [
        "ÎŃ",
        "Ïĥ"
      ],
      [
        "ÖĦ",
        "Õ¶"
      ],
      [
        "ĠÖĩ",
        "Õ¦"
      ],
      [
        "ĠÜłÜĺÜ¬",
        "ÜĿ"
      ],
      [
        "Õ´",
        "Õ«"
      ],
      [
        "ĠÕ¦",
        "Õ«"
      ],
      [
        "ÜªÜĴ",
        "Ü¬ÜĲ"
      ],
      [
        "ĠÕ¯",
        "Õ¡Õ´"
      ],
      [
        "Î¿Î¹",
        "ÏĤ"
      ],
      [
        "Õº",
        "Õ¡Õ¶"
      ],
      [
        "Õ",
        "»"
      ],
      [
        "Ġ",
        "Î¿á½"
      ],
      [
        "ÜĲ",
        "ÜĿÜłÜĿÜ¢"
      ],
      [
        "ĠÜķ",
        "ÜĹÜĺ"
      ],
      [
        "Ü«",
        "ÜªÜĲ"
      ],
      [
        "ĠÜĺ",
        "ÜĴÜª"
      ],
      [
        "ĠÜ¡",
        "ÜĿÜ¬"
      ],
      [
        "Õ¡Õ",
        "¦"
      ],
      [
        "Îµ",
        "á½¸"
      ],
      [
        "ĠÜĿ",
        "Üķ"
      ],
      [
        "ĠÜ£",
        "Üĵ"
      ],
      [
        "Õ¡Õ¶",
        "Õ¥Õ¬"
      ],
      [
        "ÜĺÜ¡",
        "Üª"
      ],
      [
        "Ġá½",
        "ħ"
      ],
      [
        "Ġá½",
        "ķ"
      ],
      [
        "ĠÜĴÜĿ",
        "ÜĺÜ¡ÜĲ"
      ],
      [
        "Õ¸ÖĤÕ©",
        "Õ¢"
      ],
      [
        "ÏĥÎµ",
        "ÏīÏĤ"
      ],
      [
        "Ö",
        "Ĭ"
      ],
      [
        "ÜĲ",
        "ÜĻ"
      ],
      [
        "Ü¬",
        "Üĺ"
      ],
      [
        "ÜĹ",
        "Ü¢ÜĺÜ¢"
      ],
      [
        "ĠÜł",
        "Ü©"
      ],
      [
        "ĠÜ¡",
        "ÜĹ"
      ],
      [
        "Ü©",
        "Ü¦"
      ],
      [
        "ÏĦ",
        "Î¿ÏĤ"
      ],
      [
        "Õ¡Õ",
        "º"
      ],
      [
        "ÜķÜĲ",
        "Ü¡"
      ],
      [
        "ĠÜ¢",
        "Ü«Ü¬"
      ],
      [
        "ĠÜ¢",
        "ÜĴÜĿÜĲ"
      ],
      [
        "Î¹",
        "Îº"
      ],
      [
        "Ü«Üĺ",
        "ÜŁÜĲ"
      ],
      [
        "Ü¡Ü¢",
        "Üĺ"
      ],
      [
        "Õ¡Õ¶",
        "Õ¶"
      ],
      [
        "Õ¡Õ¶",
        "Õ¤"
      ],
      [
        "Ïī",
        "ÏĢ"
      ],
      [
        "Ïī",
        "Î¸"
      ],
      [
        "Îº",
        "Îµ"
      ],
      [
        "Õ¥Õ",
        "¦"
      ],
      [
        "Õ¥Õ",
        "¼"
      ],
      [
        "ĠÏĢ",
        "á¾¶"
      ],
      [
        "ĠÕ¡Õ",
        "ºÕ¡Õ·ÕŃÕ¡ÖĢ"
      ],
      [
        "ĠÜķÜļ",
        "Üķ"
      ],
      [
        "ÜĿÜ¡",
        "Ü¬ÜĲ"
      ],
      [
        "Î´",
        "Îµ"
      ],
      [
        "Õ¡ÖĢÕ",
        "ªÕ¡Õ¶"
      ],
      [
        "ĠÕ¸",
        "ÖĢ"
      ],
      [
        "Öħ",
        "ÖĦ"
      ],
      [
        "ĠÕ¥",
        "Õ©Õ§"
      ],
      [
        "Ü¡",
        "Ü«Ü¬"
      ],
      [
        "ÜĹ",
        "ÜŁÜ¢ÜĲ"
      ],
      [
        "ÜŁ",
        "Ü£"
      ],
      [
        "ÜŁ",
        "ÜłÜĹ"
      ],
      [
        "ÜŁ",
        "ÜłÜĹÜĺÜ¢"
      ],
      [
        "Ü«",
        "ÜłÜĿ"
      ],
      [
        "Ü¥",
        "Ü¢"
      ],
      [
        "Üļ",
        "ÜĹ"
      ],
      [
        "Ü¦",
        "Ü¢ÜĿ"
      ],
      [
        "ĠÜĴ",
        "Ü¨"
      ],
      [
        "Î½",
        "Î±Î¹"
      ],
      [
        "Õ¶",
        "Õ¡"
      ],
      [
        "ÜĿÜĲ",
        "ÜĲ"
      ],
      [
        "ÜĽ",
        "ÜĿÜĲ"
      ],
      [
        "ĠÜŁ",
        "Ü¡ÜĲ"
      ],
      [
        "Î¹",
        "Î½"
      ],
      [
        "Ü«ÜĲ",
        "Üł"
      ],
      [
        "ĠÏĦ",
        "Î¿á½ºÏĤ"
      ],
      [
        "Ü¨",
        "Üĺ"
      ],
      [
        "ĠÜ¦",
        "Ü¢ÜĿ"
      ],
      [
        "ĠÜ¦",
        "ÜĺÜ©"
      ],
      [
        "ĠÜ¦",
        "Ü¨ÜļÜĲ"
      ],
      [
        "ĠÜłÜ¡",
        "Ü¢ÜĲ"
      ],
      [
        "ÜĲÜ¢",
        "ÜĺÜ¬ÜĲ"
      ],
      [
        "Î¬",
        "Ïģ"
      ],
      [
        "Ġá¼Ĳ",
        "Î»ÎŃ"
      ],
      [
        "ĠÜĴÜª",
        "Ü¢Ü«ÜĲ"
      ],
      [
        "ĠÜĻ",
        "ÜĴÜ¢"
      ],
      [
        "Õ¯",
        "Õ¡Õ¶"
      ],
      [
        "ĠÜĽ",
        "ÜĴÜĲ"
      ],
      [
        "ĠÜ¢Ü¦",
        "Ü©"
      ],
      [
        "Î¼Îµ",
        "ÏģÎ¿Î½"
      ],
      [
        "ÜĽÜª",
        "ÜĺÜ£"
      ],
      [
        "ĠÜĴÜ¬Üª",
        "ÜĹ"
      ],
      [
        "ĠÎ´Î¹",
        "á½°"
      ],
      [
        "Ö",
        "ĥ"
      ],
      [
        "ÜĿ",
        "ÜłÜĲ"
      ],
      [
        "Üĺ",
        "ÜĴÜĲ"
      ],
      [
        "Ü¡",
        "Ü«ÜĲ"
      ],
      [
        "Ü¡",
        "Ü«ÜŁÜļ"
      ],
      [
        "ĠÜķ",
        "ÜĴÜĿ"
      ],
      [
        "ĠÜķ",
        "Ü«ÜĴÜ¬ÜĲ"
      ],
      [
        "ÜŁ",
        "ÜĹ"
      ],
      [
        "ĠÜł",
        "Üĺ"
      ],
      [
        "ĠÜĺ",
        "Ü¡ÜĲ"
      ],
      [
        "ĠÜĺ",
        "Ü¨"
      ],
      [
        "Ìĩ",
        "ÜĨ"
      ],
      [
        "Î±",
        "Î»"
      ],
      [
        "Î¿",
        "Î»"
      ],
      [
        "ÜĿÜ¬",
        "Üĺ"
      ],
      [
        "á¿",
        "ĥ"
      ],
      [
        "ĠÜĿ",
        "Ü¬ÜĿ"
      ],
      [
        "ĠÜŁ",
        "Üª"
      ],
      [
        "ÜĿÜł",
        "Üķ"
      ],
      [
        "ĠÜ«",
        "ÜłÜ¡"
      ],
      [
        "ĠÜ¬",
        "ÜªÜĿÜ¢"
      ],
      [
        "ĠÏĦ",
        "Î±"
      ],
      [
        "ÜĽÜł",
        "ÜĿÜĲ"
      ],
      [
        "Î¬",
        "Ïĥ"
      ],
      [
        "Î®",
        "Î¼ÎµÏģÎ¿Î½"
      ],
      [
        "ĠÜŁÜł",
        "Ü¢Ü«"
      ],
      [
        "ÜĺÜĹ",
        "ÜªÜĲ"
      ],
      [
        "ÎµÏį",
        "Î¼Î±ÏĦ"
      ],
      [
        ".",
        "."
      ],
      [
        "Ê",
        "¼"
      ],
      [
        "Ô",
        "µ"
      ],
      [
        "ÜĲ",
        "ÜķÜĲ"
      ],
      [
        "Ü¡",
        "Ü¥ÜĿÜ¢"
      ],
      [
        "Ü¬",
        "Ü¢ÜĲ"
      ],
      [
        "Ü¬",
        "Ü¡Ü¢"
      ],
      [
        "ÜŁ",
        "Ü¦"
      ],
      [
        "Ü«",
        "Üł"
      ],
      [
        "ĠÜł",
        "ÜļÜķ"
      ],
      [
        "ĠÜĺ",
        "ÜŁÜł"
      ],
      [
        "Ü¦",
        "Ü¬"
      ],
      [
        "Ü©",
        "ÜĴ"
      ],
      [
        "Ü©",
        "ÜĽÜł"
      ],
      [
        "ÏĦ",
        "Î¿Ïħ"
      ],
      [
        "ÜĿÜ¬",
        "ÜĿÜª"
      ],
      [
        "ÜĻ",
        "Üĺ"
      ],
      [
        "ÜĻ",
        "ÜĴ"
      ],
      [
        "ĠÜ¢",
        "ÜĹ"
      ],
      [
        "Õ«",
        "Õ¯"
      ],
      [
        "Õ«",
        "ÖģÕ«"
      ],
      [
        "Ü«Üĺ",
        "ÜĴ"
      ],
      [
        "ĠÜ¬",
        "ÜĹÜĺÜĲ"
      ],
      [
        "ĠÜ¬",
        "ÜķÜļ"
      ],
      [
        "ÜªÜĿ",
        "ÜĹ"
      ],
      [
        "ĠÎº",
        "Î±ÏĦ"
      ],
      [
        "ĠÜ¥Üł",
        "Ü¡ÜĲ"
      ],
      [
        "ĠÏĢ",
        "Î½"
      ],
      [
        "ÜłÜŁ",
        "ÜĲ"
      ],
      [
        "Ü¢Üĺ",
        "ÜªÜĲ"
      ],
      [
        "ĠÜ©ÜķÜ¡",
        "ÜĿÜĲ"
      ],
      [
        "ĠÜļÜĻ",
        "ÜĲ"
      ],
      [
        "Î¿á½",
        "¶"
      ],
      [
        "ĠÜĴÜŁ",
        "ÜłÜĹ"
      ],
      [
        "Ġá¼ĲÏĢ",
        "á½¶"
      ],
      [
        "Ġ",
        "Õ¡Õ¶"
      ],
      [
        "Üĺ",
        "ÜĴÜķ"
      ],
      [
        "Ü¡",
        "ÜĿ"
      ],
      [
        "ÜĴ",
        "Ü¬Üª"
      ],
      [
        "ĠÜĲ",
        "ÜĻÜł"
      ],
      [
        "ĠÜł",
        "Ü¥ÜłÜ¡ÜĲ"
      ],
      [
        "ĠÜł",
        "Ü¬ÜłÜ¡"
      ],
      [
        "ÜĿÜ¢",
        "ÜŁ"
      ],
      [
        "ÜĿÜ¢",
        "Ü«ÜĲ"
      ],
      [
        "Ü¥",
        "Ü¬"
      ],
      [
        "ĠÜĺ",
        "ÜłÜĿ"
      ],
      [
        "Üļ",
        "ÜĴ"
      ],
      [
        "Ü¦",
        "ÜĿ"
      ],
      [
        "Ü©",
        "Ü¢"
      ],
      [
        "Ü£",
        "ÜĹÜķ"
      ],
      [
        "ÏĦ",
        "ÏĮ"
      ],
      [
        "Î¿",
        "Ïģ"
      ],
      [
        "á½",
        "ĳ"
      ],
      [
        "Üĵ",
        "Ü¢"
      ],
      [
        "ÜłÜĹ",
        "Ü¢ÜĲ"
      ],
      [
        "Ïĥ",
        "Î±Î½"
      ],
      [
        "ĠÜĿ",
        "Ü¬ÜĿÜª"
      ],
      [
        "ÜķÜ¡",
        "Ü¢"
      ],
      [
        "ĠÏĦ",
        "Î¿á¿ĸÏĤ"
      ],
      [
        "ÜĿÜŁ",
        "Ü¢ÜĲ"
      ],
      [
        "ĠÜ©",
        "Ü¡"
      ],
      [
        "ÜªÜĿ",
        "Ü«ÜĲ"
      ],
      [
        "ĠÜª",
        "ÜĿ"
      ],
      [
        "ĠÜĻ",
        "Üł"
      ],
      [
        "ÜĴÜĺ",
        "ÜŁÜĺÜ¢"
      ],
      [
        "ĠÜķÜĴ",
        "Ü¬Üª"
      ],
      [
        "ĠÜĴÜĿ",
        "Ü«ÜĲ"
      ],
      [
        "ĠÜķÜ¥",
        "ÜĴ"
      ],
      [
        "ĠÜ¬ÜłÜ¡",
        "ÜĿ"
      ],
      [
        "ĠÏĢÏģ",
        "Î¿"
      ],
      [
        "Ġá¼¡Î¼",
        "á¾¶ÏĤ"
      ],
      [
        "Ü¦ÜĿÜ¢",
        "Ü¬ÜĲ"
      ],
      [
        "ĠÎºÎ±",
        "ÏĦÎ±"
      ],
      [
        "Ô",
        "¿"
      ],
      [
        "ÜĲ",
        "ÜĿ"
      ],
      [
        "ÜĲ",
        "Üł"
      ],
      [
        "ÜĿ",
        "Ü¡Ü¢"
      ],
      [
        "ÜĴ",
        "Ü¡"
      ],
      [
        "ÜĴ",
        "Ü£"
      ],
      [
        "ĠÜķ",
        "Ü¬ÜĲ"
      ],
      [
        "ĠÜķ",
        "Ü¥ÜĴÜķ"
      ],
      [
        "ĠÜĺ",
        "Üķ"
      ],
      [
        "ĠÜĺ",
        "ÜĿÜĹ"
      ],
      [
        "ĠÜ¡",
        "Ü«Ü¬"
      ],
      [
        "ĠÜ¡",
        "ÜªÜĿÜ¡"
      ],
      [
        "ĠÜĹ",
        "Ü¢Üĺ"
      ],
      [
        "Ü¦",
        "ÜŁ"
      ],
      [
        "Ü¦",
        "Ü£"
      ],
      [
        "Ü¦",
        "ÜĺÜ£"
      ],
      [
        "Ü©",
        "Üķ"
      ],
      [
        "ĠÜĴ",
        "ÜĹÜĺÜ¢"
      ],
      [
        "ĠÜĴ",
        "Ü¢ÜĿ"
      ],
      [
        "ĠÜĴ",
        "ÜĿÜķ"
      ],
      [
        "Ü£",
        "ÜĹ"
      ],
      [
        "ÏĦ",
        "á½°"
      ],
      [
        "ÜĽ",
        "ÜĺÜªÜĲ"
      ],
      [
        "ĠÜĹÜĺ",
        "ÜĿÜ¬ÜĺÜ¢"
      ],
      [
        "ÜĻ",
        "ÜķÜ©"
      ],
      [
        "ÜĻ",
        "ÜĴÜ¢ÜĲ"
      ],
      [
        "ĠÜĺÜĲ",
        "Üļ"
      ],
      [
        "ĠÜ¢",
        "Ü«"
      ],
      [
        "ĠÜ¢",
        "Ü¡ÜĺÜ£ÜĲ"
      ],
      [
        "Õ¸",
        "ÖĦ"
      ],
      [
        "ĠÜ«",
        "ÜķÜª"
      ],
      [
        "ĠÜĲÜ¡",
        "Ü¬ÜĿ"
      ],
      [
        "ÜĿÜŁ",
        "ÜłÜĲ"
      ],
      [
        "ÜĿÜŁ",
        "ÜĹÜ¢ÜĲ"
      ],
      [
        "ÜłÜĿ",
        "Ü¬ÜĲ"
      ],
      [
        "ĠÜ¦",
        "Ü¬"
      ],
      [
        "ĠÜķÜ¢",
        "Ü¦"
      ],
      [
        "Ü¥Üł",
        "ÜĺÜĹÜĿ"
      ],
      [
        "Ü¥Üł",
        "ÜķÜĴ"
      ],
      [
        "ÜĲÜ¡",
        "ÜĿÜ¢"
      ],
      [
        "Ġá¼Ĳ",
        "Î¾"
      ],
      [
        "Õ¸Õ",
        "¹"
      ],
      [
        "ĠÜ¥Ü¡",
        "ÜĿ"
      ],
      [
        "ÜķÜ¢",
        "Ü¢"
      ],
      [
        "Ü«ÜĴ",
        "Ü¥"
      ],
      [
        "Ü¢Üĺ",
        "Ü«Ü¬ÜĲ"
      ],
      [
        "Õ¡Õµ",
        "Õ¶"
      ],
      [
        "ÏģÎ¹",
        "ÏĥÏĦ"
      ],
      [
        "¨Õ¶",
        "Õ¯"
      ],
      [
        "Ġá¼ĲÏĢ",
        "Î¹"
      ],
      [
        "ÜĿÜ£",
        "ÜªÜĲ"
      ],
      [
        "Ôµ",
        "Õ©Õ§"
      ],
      [
        "ÜĿ",
        "ÜĴ"
      ],
      [
        "Üł",
        "Ü¦ÜĲ"
      ],
      [
        "Üķ",
        "ÜĿÜłÜĿ"
      ],
      [
        "ĠÜł",
        "Ü¦"
      ],
      [
        "Üļ",
        "ÜłÜ¦"
      ],
      [
        "ĠÜ¡",
        "ÜŁ"
      ],
      [
        "ĠÜ¡",
        "ÜĺÜ«ÜĲ"
      ],
      [
        "ĠÜ¡",
        "ÜłÜĲÜŁÜĲ"
      ],
      [
        "Ü¦",
        "Üĺ"
      ],
      [
        "Ü©",
        "ÜªÜĿ"
      ],
      [
        "ÏĦ",
        "Î¿á¿¦"
      ],
      [
        "ĠÕ",
        "©Õ§"
      ],
      [
        "ĠÎ",
        "¶"
      ],
      [
        "Õ¡Õ",
        "£"
      ],
      [
        "ÜķÜĲ",
        "Ü¬"
      ],
      [
        "ÏĢ",
        "á½²Ïģ"
      ],
      [
        "ĠÜļ",
        "Üª"
      ],
      [
        "ĠÜ«",
        "ÜĺÜł"
      ],
      [
        "Ü¡Ü¢",
        "ÜĹ"
      ],
      [
        "ĠÜ©",
        "ÜłÜĿÜł"
      ],
      [
        "ĠÜĺÜĲÜ¡",
        "Üª"
      ],
      [
        "ÜĺÜ¡",
        "ÜĹ"
      ],
      [
        "ĠÜłÜ¡",
        "ÜķÜĿÜ¢Ü¬ÜĲ"
      ],
      [
        "Õ§",
        "Õ½"
      ],
      [
        "Î·",
        "Î¸"
      ],
      [
        "Ü¢ÜĿ",
        "Ü¬ÜĲ"
      ],
      [
        "Ü¬ÜĿ",
        "ÜĹÜĴ"
      ],
      [
        "ĠÜĲÜ¬",
        "Üĺ"
      ],
      [
        "ÎŃ",
        "Ïģ"
      ],
      [
        "ĠÜĻ",
        "ÜłÜĺ"
      ],
      [
        "ĠÎ´",
        "Î¿Ïį"
      ],
      [
        "ĠÜķÜĴ",
        "ÜĿÜ¬"
      ],
      [
        "Ü«Ü¡Ü«",
        "Ü¢ÜĲ"
      ],
      [
        "ĠÎµá¼",
        "¶"
      ],
      [
        "ÜĿÜ£ÜªÜĲ",
        "ÜĿÜł"
      ],
      [
        "Ü",
        "¤"
      ],
      [
        "Ġ",
        "Õ¡ÖĢ"
      ],
      [
        "ĠÜķ",
        "ÜŁÜķ"
      ],
      [
        "ĠÜĲ",
        "Ü¬Üª"
      ],
      [
        "ÜŁ",
        "Ü¡Ü¬ÜĲ"
      ],
      [
        "Ü¥",
        "Ü¢ÜĲ"
      ],
      [
        "Ü¥",
        "ÜĿÜĲ"
      ],
      [
        "Ü¥",
        "ÜĴÜª"
      ],
      [
        "ĠÜĴ",
        "Üł"
      ],
      [
        "ÏĦ",
        "Î¿Î½"
      ],
      [
        "Üĵ",
        "ÜĺÜª"
      ],
      [
        "Õ¡Õ",
        "®"
      ],
      [
        "Îµ",
        "Î»"
      ],
      [
        "ĠÜĺÜĲ",
        "Ü¢ÜĲ"
      ],
      [
        "ĠÜŁ",
        "ÜłÜ¡ÜķÜ¡"
      ],
      [
        "ĠÜ«",
        "Üĺ"
      ],
      [
        "ĠÜ¬",
        "Üļ"
      ],
      [
        "Î¼",
        "Î±Ïģ"
      ],
      [
        "ÜĺÜ¬",
        "ÜĹÜĺÜ¢"
      ],
      [
        "ÜłÜĿ",
        "ÜłÜĲ"
      ],
      [
        "Öģ",
        "Õ¥Õ¶"
      ],
      [
        "Õ½",
        "Õ¯"
      ],
      [
        "ÖĢÕ",
        "¿"
      ],
      [
        "ÜªÜĿÜ¢",
        "ÜĲ"
      ],
      [
        "ĠÏĥ",
        "á½º"
      ],
      [
        "ÜĺÜ¡",
        "Ü¢ÜĲ"
      ],
      [
        "Õ§",
        "Õ¶"
      ],
      [
        "ÜŁÜł",
        "ÜĺÜ¢"
      ],
      [
        "ĠÎ´",
        "ÏĮÎ¾"
      ],
      [
        "Õ¯",
        "Õ¡Õ´"
      ],
      [
        "ÜĿÜ¡",
        "ÜŁÜĲ"
      ],
      [
        "ĠÜķÜĴ",
        "ÜĹ"
      ],
      [
        "Ü¦ÜĲ",
        "Üª"
      ],
      [
        "Ü¥Ü¡",
        "ÜĹ"
      ],
      [
        "ĠÜ¨",
        "ÜĴÜĲ"
      ],
      [
        "ĠÕ«",
        "Õ¶"
      ],
      [
        "ÜĽÜĿ",
        "ÜĴ"
      ],
      [
        "ÜłÜļ",
        "Ü¡ÜĲ"
      ],
      [
        "Î±Î¹",
        "ÏĤ"
      ],
      [
        "ĠÜĴÜĲ",
        "ÜªÜ¥ÜĲ"
      ],
      [
        "Ü£Üª",
        "ÜĿÜł"
      ],
      [
        "ÜļÜĿ",
        "ÜĴ"
      ],
      [
        "ĠÜļÜĻ",
        "Üĺ"
      ],
      [
        "ĠÏĢÏģ",
        "á½¸ÏĤ"
      ],
      [
        "ĠÜĲÜ£",
        "ÜĿÜª"
      ],
      [
        "ĠÜ©Üª",
        "ÜĴÜĺ"
      ],
      [
        "Î¸Ïģ",
        "ÏīÏĢ"
      ],
      [
        "Õ",
        "Ī"
      ],
      [
        "Ý",
        "Ĥ"
      ],
      [
        "Üĺ",
        "ÜķÜĲ"
      ],
      [
        "Üķ",
        "ÜĿÜł"
      ],
      [
        "ĠÜĲ",
        "ÜĴ"
      ],
      [
        "ĠÜĲ",
        "ÜĿÜķÜĲ"
      ],
      [
        "ĠÜĲ",
        "ÜĿÜķÜĹ"
      ],
      [
        "ÜŁ",
        "Ü¬ÜĲ"
      ],
      [
        "ÜŁ",
        "ÜªÜĿÜĲ"
      ],
      [
        "ĠÜł",
        "Ü¬"
      ],
      [
        "ĠÜł",
        "ÜĵÜĴÜªÜĲ"
      ],
      [
        "ĠÜ¡",
        "ÜĿ"
      ],
      [
        "ĠÜ¡",
        "ÜªÜĹ"
      ],
      [
        "Ü¦",
        "ÜłÜĵ"
      ],
      [
        "Ü©",
        "ÜĺÜ¢"
      ],
      [
        "Ü©",
        "ÜĽ"
      ],
      [
        "ĠÜĴ",
        "ÜĿÜ¢"
      ],
      [
        "Ü£",
        "ÜĴÜª"
      ],
      [
        "ÏĦ",
        "Ïģ"
      ],
      [
        "Õ¡Õ",
        "»"
      ],
      [
        "Îµ",
        "ÏĦÎ±Î¹"
      ],
      [
        "ĠÜĿ",
        "ÜĺÜ¡ÜĲ"
      ],
      [
        "ĠÜ«",
        "Ü©"
      ],
      [
        "Î¼",
        "ÏĢ"
      ],
      [
        "Ïħ",
        "Î³"
      ],
      [
        "ÜĴÜª",
        "Ü¢Ü«ÜĲ"
      ],
      [
        "ĠÜª",
        "ÜĴÜĿ"
      ],
      [
        "ÜĺÜª",
        "Ü©"
      ],
      [
        "ÖĢÕ",
        "¢"
      ],
      [
        "ĠÏĥ",
        "Î¿á½¶"
      ],
      [
        "Î¬",
        "ÏģÎ¹"
      ],
      [
        "ĠÜ¥Ü¡",
        "ÜŁÜĺÜ¢"
      ],
      [
        "ĠÜ«Ü¡",
        "Ü¥"
      ],
      [
        "ÜĽÜĿ",
        "ÜĴÜĺÜ¬ÜĲ"
      ],
      [
        "Öħ",
        "Õ©"
      ],
      [
        "á¿ĸ",
        "ÏĤ"
      ],
      [
        "Ü¢Ü¦",
        "Ü«ÜĹ"
      ],
      [
        "ÜĵÜł",
        "ÜĺÜĹÜĿ"
      ],
      [
        "Ġá¼ĢÎ½",
        "Î±"
      ],
      [
        ".",
        "Üı"
      ],
      [
        "Ġ",
        ":"
      ],
      [
        "Ġ",
        "ÏĪ"
      ],
      [
        "ÜĲ",
        "ÜĲ"
      ],
      [
        "Ü¬",
        "ÜªÜĲ"
      ],
      [
        "Üķ",
        "ÜļÜķ"
      ],
      [
        "ÜĴ",
        "Ü¥ÜĲ"
      ],
      [
        "ĠÜķ",
        "Üĺ"
      ],
      [
        "ĠÜķ",
        "Üķ"
      ],
      [
        "ĠÜĲ",
        "ÜłÜĺ"
      ],
      [
        "ÜŁ",
        "Ü¬ÜĴ"
      ],
      [
        "Ü«",
        "Ü¢"
      ],
      [
        "Ü«",
        "Ü¥Ü¬ÜĲ"
      ],
      [
        "Ü¥",
        "ÜĿÜª"
      ],
      [
        "Ü¥",
        "ÜĺÜł"
      ],
      [
        "Ü¦",
        "Ü¬ÜĲ"
      ],
      [
        "ĠÜĴ",
        "Ü«Ü¡ÜĿÜĲ"
      ],
      [
        "Ü£",
        "Ü¦ÜĲ"
      ],
      [
        "ĠÜĹÜĺ",
        "ÜĿ"
      ],
      [
        "ĠÜĺÜĲ",
        "Ü«Ü¬"
      ],
      [
        "ĠÜŁ",
        "Ü¬ÜĿÜĴ"
      ],
      [
        "Ïģ",
        "Î®"
      ],
      [
        "ÏĢ",
        "Î¹"
      ],
      [
        "ĠÜļ",
        "Ü£"
      ],
      [
        "ÜķÜ¡",
        "Üª"
      ],
      [
        "ĠÜ©",
        "ÜĺÜª"
      ],
      [
        "Öģ",
        "Õ«Õ¶"
      ],
      [
        "ĠÜ£",
        "ÜĴÜª"
      ],
      [
        "ĠÜ£",
        "ÜĹÜķ"
      ],
      [
        "ÜķÜ¥",
        "ÜłÜ¡ÜĲ"
      ],
      [
        "ĠÜķÜ¢",
        "Ü£"
      ],
      [
        "ÖĢÕ",
        "¯"
      ],
      [
        "Õ¸ÖĤ",
        "ÖĢ"
      ],
      [
        "Ü¥Üł",
        "ÜĺÜ¢"
      ],
      [
        "ĠÜĺÜ¡",
        "ÜļÜķÜĲ"
      ],
      [
        "Õ¸Õ",
        "¼"
      ],
      [
        "ĠÜĴÜª",
        "ÜĺÜļÜĲ"
      ],
      [
        "Ü«ÜĿ",
        "Ü«ÜĲ"
      ],
      [
        "ĠÜĲÜĿÜ¬",
        "ÜĿ"
      ],
      [
        "ĠÜĻ",
        "Ü¥ÜĺÜª"
      ],
      [
        "ĠÜĽ",
        "ÜłÜĿÜĲ"
      ],
      [
        "Ü¥ÜĿÜ¢",
        "ÜĲ"
      ],
      [
        "ĠÜĴÜĲ",
        "ÜĺÜªÜļÜĲ"
      ],
      [
        "ÜĵÜĿÜĲ",
        "Ü¬ÜĲ"
      ],
      [
        "ĠÕ¸",
        "Õ¹"
      ],
      [
        "Õ¡Öģ",
        "Õ¶"
      ],
      [
        "Ü£ÜĿ",
        "ÜĴÜª"
      ],
      [
        "ÜĴÜĿÜ¬",
        "ÜĹ"
      ],
      [
        "ĠÜķÜĲÜĿÜ¬",
        "ÜĺÜĹÜĿ"
      ],
      [
        "ĠÏĢÏģ",
        "Î¿Ïĥ"
      ],
      [
        "ĠÜ¢Ü¬",
        "Üł"
      ],
      [
        "ĠÏĦá½°",
        "ÏĤ"
      ],
      [
        "Õ«ÖĤ",
        "ÖĢ"
      ],
      [
        "ĠÜļÜ¡",
        "ÜªÜĲ"
      ],
      [
        "á¿¦",
        "Î½"
      ],
      [
        "ÏĦÎµ",
        "ÏĤ"
      ],
      [
        "ĠÕ¡Õµ",
        "Õ¬"
      ],
      [
        "Î¼Î¬",
        "ÏĦÏīÎ½"
      ],
      [
        "Õ",
        "Ŀ"
      ],
      [
        "Ġ",
        "Õ¡ÖĤ"
      ],
      [
        "Ü¢",
        "Ü¡ÜĺÜ£ÜĲ"
      ],
      [
        "Üĺ",
        "ÜĿÜ¢"
      ],
      [
        "Üĺ",
        "Üĵ"
      ],
      [
        "Üĺ",
        "ÜłÜ¡"
      ],
      [
        "Üł",
        "ÜĺÜ¬ÜĹ"
      ],
      [
        "Ü¡",
        "ÜłÜĿ"
      ],
      [
        "ĠÜķ",
        "ÜĽ"
      ],
      [
        "ĠÜķ",
        "Üĵ"
      ],
      [
        "ĠÜĲ",
        "ÜĿÜ¢"
      ],
      [
        "ĠÜĲ",
        "Ü«ÜŁÜļ"
      ],
      [
        "ĠÜĲ",
        "ÜªÜ¡"
      ],
      [
        "ĠÜĺ",
        "ÜĽ"
      ],
      [
        "ĠÜ¡",
        "ÜŁÜĿÜł"
      ],
      [
        "ĠÜĹ",
        "Ü¢"
      ],
      [
        "Ü©",
        "ÜĺÜĲ"
      ],
      [
        "Ü£",
        "Üĵ"
      ],
      [
        "ÏĦ",
        "á¿¶Î½"
      ],
      [
        "ĠÕ",
        "ª"
      ],
      [
        "ÜĿÜ¬",
        "ÜĿ"
      ],
      [
        "ÜĽ",
        "Ü¦"
      ],
      [
        "ĠÎ",
        "ļ"
      ],
      [
        "ĠÜĺÜĲ",
        "ÜĻÜł"
      ],
      [
        "ĠÜĿ",
        "ÜĺÜ£Ü¦"
      ],
      [
        "ĠÜ¢",
        "ÜĹÜĺÜĺÜ¢"
      ],
      [
        "Î¹",
        "Î»"
      ],
      [
        "ÜĿÜł",
        "Ü¢ÜĲ"
      ],
      [
        "ĠÜ«",
        "ÜĺÜĴ"
      ],
      [
        "ĠÜ¬",
        "Ü¡"
      ],
      [
        "ÜķÜ¡",
        "Ü¬"
      ],
      [
        "Ïħ",
        "Ïĩ"
      ],
      [
        "Ïħ",
        "ÏģÎ¯"
      ],
      [
        "ĠÜ©",
        "ÜĿ"
      ],
      [
        "ĠÜª",
        "ÜĺÜļ"
      ],
      [
        "ĠÜķÜ¡",
        "ÜªÜ¢"
      ],
      [
        "ĠÜĺÜĲÜ¡",
        "ÜªÜĿÜ¢"
      ],
      [
        "Î¯",
        "Î±ÏĤ"
      ],
      [
        "ĠÜ¦",
        "Üł"
      ],
      [
        "ĠÏĥ",
        "Î®Î¼ÎµÏģÎ¿Î½"
      ],
      [
        "Î¬",
        "Î»"
      ],
      [
        "Î¸",
        "Î±"
      ],
      [
        "á¿¶",
        "ÏĤ"
      ],
      [
        "Ü«ÜĿ",
        "Üĵ"
      ],
      [
        "ÜªÜĺ",
        "ÜķÜ£"
      ],
      [
        "ĠÜĻ",
        "ÜĴ"
      ],
      [
        "ÏĮ",
        "Î¼ÎµÎ½"
      ],
      [
        "ĠÜĲÜ¦",
        "ÜłÜĲ"
      ],
      [
        "Ïį",
        "Î½"
      ],
      [
        "ĠÜķÜļ",
        "ÜĻ"
      ],
      [
        "ĠÜķÜĴ",
        "Ü«Ü¡ÜĿÜĲ"
      ],
      [
        "ĠÜłÜŁ",
        "ÜĿ"
      ],
      [
        "Ü©Üª",
        "Ü¨ÜĲ"
      ],
      [
        "Ü¢Üĺ",
        "ÜĹ"
      ],
      [
        "á¿Ĩ",
        "Î½Î±Î¹"
      ],
      [
        "Ü¥ÜĴÜķ",
        "ÜĺÜ¢"
      ],
      [
        "ÜļÜĿ",
        "ÜłÜĲ"
      ],
      [
        "ĠÎ¸",
        "ÎµÎ¯"
      ],
      [
        "ĠÜĴÜĿÜ¬",
        "ÜĹ"
      ],
      [
        "Õ¸ÖĢÕ",
        "°"
      ],
      [
        "Ġá¼ĢÏĢ",
        "á½¸"
      ],
      [
        "Ü«Ü¥",
        "ÜĿÜĲ"
      ],
      [
        "Ġá½ķ",
        "Î´"
      ],
      [
        "Ì",
        "¤"
      ],
      [
        "Ô",
        "±"
      ],
      [
        "Üł",
        "ÜĿÜ¬"
      ],
      [
        "Üł",
        "ÜĽÜ¢ÜĲ"
      ],
      [
        "Üª",
        "Ü¬ÜĲ"
      ],
      [
        "Üķ",
        "ÜĺÜ¢"
      ],
      [
        "ÜĴ",
        "Ü¥ÜĿÜ¢"
      ],
      [
        "ĠÜķ",
        "ÜĴÜĲ"
      ],
      [
        "ĠÜķ",
        "ÜªÜĴ"
      ],
      [
        "ĠÜĲ",
        "Ü«ÜŁ"
      ],
      [
        "ĠÜĲ",
        "ÜĺÜªÜļÜĲ"
      ],
      [
        "Ü«",
        "ÜªÜĿ"
      ],
      [
        "ĠÜ¡",
        "Ü¬Ü¬"
      ],
      [
        "Ü¦",
        "ÜĺÜ©"
      ],
      [
        "ĠÜĴ",
        "ÜªÜĿ"
      ],
      [
        "Ü£",
        "ÜĿÜ¡"
      ],
      [
        "Î¿",
        "Î¼ÎŃÎ½"
      ],
      [
        "á¿",
        "¥"
      ],
      [
        "ÜķÜĲ",
        "Ü¬ÜĲ"
      ],
      [
        "ÜķÜĲ",
        "Ü¢Ü«ÜĲ"
      ],
      [
        "ĠÜĿ",
        "ÜĹÜĺÜķÜĲ"
      ],
      [
        "ĠÜŁ",
        "ÜĿ"
      ],
      [
        "ĠÜ¢",
        "ÜĺÜĹÜªÜĲ"
      ],
      [
        "ĠÜłÜĲ",
        "ÜĺÜªÜ«ÜłÜ¡"
      ],
      [
        "ĠÜ¡Ü¢",
        "ÜĿ"
      ],
      [
        "Ü¨",
        "ÜĴÜĿÜ¢"
      ],
      [
        "ÜªÜĿ",
        "Ü«ÜłÜ¡"
      ],
      [
        "ÜĺÜĲ",
        "Ü¦"
      ],
      [
        "ĠÜª",
        "ÜĴÜ¬ÜĲ"
      ],
      [
        "ÜķÜ¥",
        "ÜķÜĲ"
      ],
      [
        "ĠÜķÜ¢",
        "Üļ"
      ],
      [
        "ÖĢÕ",
        "§"
      ],
      [
        "ÜĴÜĿ",
        "Üķ"
      ],
      [
        "ĠÏĥ",
        "Îµ"
      ],
      [
        "ĠÏĢ",
        "Î»"
      ],
      [
        "Î¬",
        "Î¶"
      ],
      [
        "Î¸",
        "Îµ"
      ],
      [
        "ĠÜĲÜ¬",
        "ÜĿÜ¬"
      ],
      [
        "ĠÜķÜĿ",
        "Üĺ"
      ],
      [
        "ÜŁÜł",
        "Ü©ÜªÜ¨ÜĲ"
      ],
      [
        "ĠÜĽ",
        "ÜĿ"
      ],
      [
        "ĠÜłÜŁ",
        "Ü¢"
      ],
      [
        "ĠÜļÜķ",
        "Ü¬ÜĲ"
      ],
      [
        "ĠÜ¨",
        "ÜĴ"
      ],
      [
        "ĠÜĴÜĲ",
        "ÜĿ"
      ],
      [
        "ĠÕ°",
        "ÖĢ"
      ],
      [
        "ÜĲÜ¢Ü¬",
        "Ü¬ÜĲ"
      ],
      [
        "ÜĺÜķÜĿ",
        "Ü¬ÜĲ"
      ],
      [
        "ĠÜ¥Üķ",
        "ÜŁÜĿÜł"
      ],
      [
        "Î»Î¿",
        "Î³"
      ],
      [
        "ÎµÎ¿",
        "ÏĦÏĮ"
      ],
      [
        "ĠÜłÜĺÜ©",
        "ÜķÜ¡"
      ],
      [
        "ÖħÖĢ",
        "Õ«Õ¶"
      ],
      [
        "ĠÎ´Î¿Ïį",
        "Î»"
      ],
      [
        "Õ",
        "¨Õ¶Õ¤"
      ],
      [
        "Ġ",
        "Ïħ"
      ],
      [
        "ÜĲ",
        "Ü¬Ü¬"
      ],
      [
        "Ü¢",
        "ÜĹÜĺÜĲ"
      ],
      [
        "Üł",
        "ÜĺÜ¬ÜĲ"
      ],
      [
        "Ü¡",
        "ÜªÜĿ"
      ],
      [
        "Üª",
        "ÜĴÜĲ"
      ],
      [
        "ÜĹ",
        "Ü¢"
      ],
      [
        "ĠÜł",
        "ÜŁÜł"
      ],
      [
        "Ü¥",
        "ÜĿ"
      ],
      [
        "Ü¥",
        "Ü¬ÜĹ"
      ],
      [
        "Ü¥",
        "ÜĴÜķÜĲ"
      ],
      [
        "ĠÜĺ",
        "ÜłÜĹ"
      ],
      [
        "ĠÜĺ",
        "Ü«ÜĴ"
      ],
      [
        "ĠÜ¡",
        "Üĺ"
      ],
      [
        "ĠÜ¡",
        "ÜłÜĲ"
      ],
      [
        "ĠÜ¡",
        "ÜªÜĲ"
      ],
      [
        "ĠÜ¡",
        "Ü«ÜłÜ¡"
      ],
      [
        "ĠÜ¡",
        "Ü¦Ü©"
      ],
      [
        "Ü©",
        "ÜķÜĿ"
      ],
      [
        "ĠÜĴ",
        "ÜĹÜĿÜŁÜłÜĲ"
      ],
      [
        "Ü£",
        "ÜŁ"
      ],
      [
        "Ü£",
        "ÜĿÜ¢"
      ],
      [
        "Üĵ",
        "Ü¡ÜĲ"
      ],
      [
        "ÜĻ",
        "ÜķÜĿ"
      ],
      [
        "ĠÜĲÜ¢",
        "ÜĿ"
      ],
      [
        "ĠÜĲÜ¢",
        "ÜķÜĿÜ¢"
      ],
      [
        "ĠÜ¢",
        "ÜĹÜĺ"
      ],
      [
        "Õ¸",
        "Õ½"
      ],
      [
        "ĠÜķÜĿÜ¢",
        "ÜĲ"
      ],
      [
        "ÜĹÜĺ",
        "ÜĿÜ¬ÜĺÜ¢"
      ],
      [
        "ÏĢ",
        "Ïģ"
      ],
      [
        "ĠÜ«",
        "Ü¢"
      ],
      [
        "ĠÜ¬",
        "ÜłÜ¬ÜĲ"
      ],
      [
        "ĠÜĲÜ¡",
        "ÜªÜĿÜ¢"
      ],
      [
        "Ïħ",
        "Î¼"
      ],
      [
        "ÜĺÜ¬",
        "ÜŁÜĺÜ¢"
      ],
      [
        "ĠÜ©",
        "ÜłÜĲ"
      ],
      [
        "ÜłÜĿ",
        "Ü«ÜĺÜ¥"
      ],
      [
        "ĠÎº",
        "ÏĮ"
      ],
      [
        "ĠÜ£",
        "ÜŁ"
      ],
      [
        "ÜĺÜª",
        "ÜķÜ¢Ü¢"
      ],
      [
        "Õ¡Õ¶",
        "Õ£"
      ],
      [
        "Õ¥Õ",
        "©Õ§"
      ],
      [
        "Î·",
        "Î½"
      ],
      [
        "ÜķÜĿ",
        "Üĺ"
      ],
      [
        "Î³",
        "Î³"
      ],
      [
        "ÜĺÜł",
        "ÜĺÜ£"
      ],
      [
        "Õ«Õ¶",
        "Õ¹"
      ],
      [
        "ÜļÜª",
        "Ü¬ÜĲ"
      ],
      [
        "ÜĺÜķ",
        "ÜĿÜĲ"
      ],
      [
        "Ü¡Üª",
        "ÜĺÜ¢"
      ],
      [
        "ĠÜĴÜĿ",
        "Ü¬ÜĲ"
      ],
      [
        "á½°",
        "Ïģ"
      ],
      [
        "ÜĹÜĿÜ¡Ü¢",
        "ÜĺÜ¢"
      ],
      [
        "ĠÜķÜĹ",
        "ÜĲ"
      ],
      [
        "ĠÜĺÜ¬",
        "ÜĺÜĴ"
      ],
      [
        "Ġá¼ģ",
        "Î³Î¹"
      ],
      [
        "ĠÜ¥ÜłÜĿ",
        "ÜĹÜĺÜ¢"
      ],
      [
        "ĠÏĨ",
        "Î¹Î»"
      ],
      [
        "ĠÎ½",
        "á¿¦Î½"
      ],
      [
        "ĠÜ¡Ü«ÜŁÜļ",
        "ÜĿÜ¢"
      ],
      [
        "ĠÜĹÜĿÜ¡Ü¢",
        "Üĺ"
      ],
      [
        "ĠÎ²",
        "Î±"
      ],
      [
        "ÜĿÜłÜĿ",
        "Ü¦ÜĺÜ£"
      ],
      [
        "Ġá¼Ħ",
        "Î½"
      ],
      [
        "ĠÎ±",
        "á¼°"
      ],
      [
        "ÏħÏģÎ¯",
        "Î¿"
      ],
      [
        "ÜĲ",
        "ÜŁ"
      ],
      [
        "ÜĲ",
        "ÜĴÜĲ"
      ],
      [
        "ÜĿ",
        "Ü«ÜĿ"
      ],
      [
        "Ü¡",
        "ÜĿÜŁ"
      ],
      [
        "ÜĹ",
        "Ü«ÜĲ"
      ],
      [
        "ÜĹ",
        "ÜķÜĿÜ¢"
      ],
      [
        "Üķ",
        "ÜªÜĲ"
      ],
      [
        "Üķ",
        "ÜĴÜªÜĲ"
      ],
      [
        "ÜĴ",
        "ÜķÜĿÜ¢"
      ],
      [
        "ĠÜķ",
        "ÜĴÜª"
      ],
      [
        "ĠÜĲ",
        "Ü«"
      ],
      [
        "ĠÜĲ",
        "ÜļÜĿ"
      ],
      [
        "ÜŁ",
        "Ü£ÜĲ"
      ],
      [
        "Ü«",
        "ÜĺÜ¢"
      ],
      [
        "Ü«",
        "Ü¢ÜĲ"
      ],
      [
        "ĠÜł",
        "Ü¥Üł"
      ],
      [
        "Üļ",
        "Ü¢Ü¢"
      ],
      [
        "ĠÜ¡",
        "ÜķÜĿÜ¢Ü¬ÜĲ"
      ],
      [
        "ĠÜĴ",
        "ÜķÜ¡"
      ],
      [
        "ĠÜĴ",
        "Ü¥ÜĲ"
      ],
      [
        "ĠÜĴ",
        "Ü¥ÜĿÜ¢"
      ],
      [
        "Ü£",
        "ÜĽ"
      ],
      [
        "Ü£",
        "ÜĿÜª"
      ],
      [
        "Î±",
        "Ïħ"
      ],
      [
        "ÏĦ",
        "á½¸ÏĤ"
      ],
      [
        "ĠÕ",
        "¹"
      ],
      [
        "Ïĥ",
        "ÎµÎ¹"
      ],
      [
        "ĠÜ¢",
        "ÜĿ"
      ],
      [
        "ĠÜ¢",
        "ÜĴ"
      ],
      [
        "Ïģ",
        "Î¬"
      ],
      [
        "Ġá¼",
        "µ"
      ],
      [
        "ÏĢ",
        "Î¿Î¹"
      ],
      [
        "ĠÜļ",
        "Ü¨"
      ],
      [
        "ĠÜ¡Ü¢",
        "ÜŁ"
      ],
      [
        "ĠÜĲÜ¡",
        "ÜĹ"
      ],
      [
        "ÜĢ",
        "ÜĢ"
      ],
      [
        "ÖĤ",
        "ÖĢ"
      ],
      [
        "ÜłÜĿ",
        "Ü«ÜĴÜ¥"
      ],
      [
        "ÜķÜ¥",
        "ÜĺÜ¢"
      ],
      [
        "Î¯",
        "Î½"
      ],
      [
        "Ïī",
        "Ïģ"
      ],
      [
        "ĠÜ¦",
        "ÜĵÜª"
      ],
      [
        "ĠÏĥ",
        "ÏħÎ½"
      ],
      [
        "Ü¬Üª",
        "Ü¥ÜĲ"
      ],
      [
        "ÜĺÜĴ",
        "Ü¬ÜĲ"
      ],
      [
        "ĠÜĲÜĿÜ¬",
        "ÜĿÜĹÜĺÜ¢"
      ],
      [
        "Õ¯",
        "Õ«Õ¶"
      ],
      [
        "ĠÜłÜĺÜ¬",
        "ÜĹÜĺÜ¢"
      ],
      [
        "Õ¿",
        "Õ¶"
      ],
      [
        "á½°",
        "ÏĤ"
      ],
      [
        "ÜĲÜĿÜ¬",
        "ÜĿÜĹ"
      ],
      [
        "Î¾",
        "Î¿Î½"
      ],
      [
        "ÜĲÜĿÜŁ",
        "ÜĲ"
      ],
      [
        "Õ¡ÖĤ",
        "Õ¸ÖĢ"
      ],
      [
        "ĠÜ¡Ü¬",
        "ÜłÜĲ"
      ],
      [
        "ÜŁÜĿ",
        "Ü¡ÜĲ"
      ],
      [
        "ĠÜķÜŁ",
        "Ü¬ÜĿÜĴ"
      ],
      [
        "ÜĵÜłÜĿ",
        "ÜĺÜ¢"
      ],
      [
        "ĠÜĲÜļ",
        "ÜĺÜĹÜĿ"
      ],
      [
        "ĠÜ¥ÜłÜĿ",
        "ÜŁÜĺÜ¢"
      ],
      [
        "Õ¡Õ²",
        "Õ¸ÖĢÕ¤"
      ],
      [
        "Ġá¼ģÎ³Î¯",
        "Î¿Ïħ"
      ],
      [
        "ĠÜ«Üª",
        "ÜªÜĲ"
      ],
      [
        "ĠÕ¿",
        "ÖĢ"
      ],
      [
        "ÏĢÎ¿",
        "ÏĦÎ±"
      ],
      [
        "ÜĺÜĴÜĿ",
        "ÜĹÜĺÜ¢"
      ],
      [
        "Ġá¼±",
        "ÎµÏģ"
      ],
      [
        "ÎŃÏĥ",
        "ÏĢÎ¿ÏĦÎ±"
      ],
      [
        "ĠÎ¿á½",
        "Ĳ"
      ],
      [
        "ĠÜĿÜ¬ÜĿ",
        "ÜªÜĲÜĿÜ¬"
      ],
      [
        "ÜĲ",
        "ÜĺÜłÜķ"
      ],
      [
        "Üĺ",
        "Ü¡Ü¢"
      ],
      [
        "Ü¡",
        "Ü¬ÜĹ"
      ],
      [
        "Ü¡",
        "ÜłÜ¬ÜĲ"
      ],
      [
        "Ü¡",
        "ÜĿÜ¢ÜĲ"
      ],
      [
        "Ü¬",
        "Ü¢"
      ],
      [
        "ÜĴ",
        "Ü£Üª"
      ],
      [
        "ĠÜķ",
        "Ü¬Ü¬"
      ],
      [
        "ĠÜķ",
        "Ü¦Ü©"
      ],
      [
        "ĠÜķ",
        "ÜķÜĺÜĿÜķ"
      ],
      [
        "ĠÜĲ",
        "ÜĵÜª"
      ],
      [
        "ÜŁ",
        "Üļ"
      ],
      [
        "ĠÜł",
        "Üĵ"
      ],
      [
        "ĠÜł",
        "ÜĵÜłÜĿÜłÜĲ"
      ],
      [
        "ÜĺÜ¢",
        "ÜĵÜłÜĿÜĺÜ¢"
      ],
      [
        "Üļ",
        "Ü©"
      ],
      [
        "Üļ",
        "Ü¡ÜĲ"
      ],
      [
        "Üļ",
        "Ü«ÜĴ"
      ],
      [
        "Ü©",
        "ÜĹ"
      ],
      [
        "Ü©",
        "ÜĺÜª"
      ],
      [
        "Î½",
        "Î¿"
      ],
      [
        "ÏĦ",
        "á½´Î½"
      ],
      [
        "á½",
        "ģ"
      ],
      [
        "Îµ",
        "Îº"
      ],
      [
        "ĠÜŁ",
        "Ü¬ÜĴ"
      ],
      [
        "ĠÜ¢",
        "Ü¥ÜĴÜķ"
      ],
      [
        "ĠÜķÜĲ",
        "Üļ"
      ],
      [
        "ĠÜķÜĲ",
        "ÜĴÜĲ"
      ],
      [
        "ĠÜłÜĲ",
        "ÜĴÜĲ"
      ],
      [
        "ĠÜłÜĲ",
        "Ü¢Ü«"
      ],
      [
        "Ġá¼",
        "°"
      ],
      [
        "Õ«",
        "Õ¿"
      ],
      [
        "Õ«",
        "ÖģÕ§"
      ],
      [
        "Ü«Üĺ",
        "ÜłÜĽÜ¢ÜĲ"
      ],
      [
        "ĠÜ«",
        "ÜĴÜ©"
      ],
      [
        "Ü¡Ü¢",
        "ÜŁÜĺÜ¢"
      ],
      [
        "ÜĺÜ¬",
        "ÜĿ"
      ],
      [
        "ĠÜĵ",
        "Ü¢"
      ],
      [
        "ĠÜĵ",
        "ÜłÜĿÜłÜĲ"
      ],
      [
        "ÜĺÜª",
        "ÜĿÜĲ"
      ],
      [
        "ĠÜķÜ¡",
        "Ü«ÜĿÜļÜĲ"
      ],
      [
        "Õ¡Õ¶",
        "Õ«"
      ],
      [
        "Õ¡Õ¶",
        "Õ¸Õ¶"
      ],
      [
        "ĠÜķÜ¢",
        "ÜĹÜĺÜĲ"
      ],
      [
        "ĠÜłÜ¡",
        "ÜłÜ¬ÜĲ"
      ],
      [
        "Îº",
        "Î¿Ïħ"
      ],
      [
        "ĠÜĺÜ¡",
        "ÜķÜ¡"
      ],
      [
        "ÎŃ",
        "Î»"
      ],
      [
        "ĠÜĻ",
        "ÜªÜ¥"
      ],
      [
        "ÜķÜ¢",
        "Ü¬"
      ],
      [
        "Ü¥Ü¡",
        "ÜĺÜķÜĿÜ¬ÜĲ"
      ],
      [
        "Î´",
        "Î¹"
      ],
      [
        "ĠÜ«Ü¡",
        "ÜĹ"
      ],
      [
        "Õ¡ÖĢÕ",
        "£"
      ],
      [
        "Õ¡ÖĢÕ",
        "±"
      ],
      [
        "ĠÜĴÜĲ",
        "ÜĿÜķÜĹ"
      ],
      [
        "Õ¸ÖĤÕ©",
        "Õ«Õ¶"
      ],
      [
        "ÎµÎ¹",
        "Î½"
      ],
      [
        "ĠÜķÜ«",
        "ÜķÜªÜ¢ÜĿ"
      ],
      [
        "ĠÜķÜĿÜł",
        "ÜŁ"
      ],
      [
        "ĠÕ¥",
        "Õ²"
      ],
      [
        "Î²",
        "ÎµÎ¯"
      ],
      [
        "ĠÏĢÏģ",
        "ÎµÏĥ"
      ],
      [
        "Õ¸ÖĢÕ",
        "´"
      ],
      [
        "Õ¡Õ½",
        "Õ¶"
      ],
      [
        "ĠÕ½",
        "ÕºÕ¡Õ¶"
      ],
      [
        "ÜĺÜķÜĿ",
        "Ü£"
      ],
      [
        "ĠÕº",
        "Õ¡ÖĢÕ¿"
      ],
      [
        "ĠÎ³",
        "á½°Ïģ"
      ],
      [
        "Î»Î±",
        "Î¯"
      ],
      [
        "á¼Ĳ",
        "Î½"
      ],
      [
        "ĠÜķÜĲÜ¬ÜĲ",
        "Ü¡Üª"
      ],
      [
        "ÜŁÜĺÜł",
        "Ü¬ÜĲ"
      ],
      [
        "Î³Î±",
        "Î¸"
      ],
      [
        "ĠÜ©ÜķÜĿ",
        "Ü«ÜĲ"
      ],
      [
        "ÜķÜ¨",
        "ÜĺÜ¡ÜĲ"
      ],
      [
        "ĠÜļÜĽ",
        "ÜĹ"
      ],
      [
        "ÜŁÜ¦",
        "ÜĺÜª"
      ],
      [
        "ĠÎ¶",
        "Ïī"
      ],
      [
        "ĠÜ«ÜĺÜł",
        "ÜĽÜ¢ÜĲ"
      ],
      [
        "ĠÏħ",
        "á¼±"
      ],
      [
        "Ġ",
        "á¿¥"
      ],
      [
        "ÜĲ",
        "ÜĿÜ¢"
      ],
      [
        "Ü¢",
        "ÜĴÜĿÜĲ"
      ],
      [
        "Üĺ",
        "Ü¥Üł"
      ],
      [
        "Ü¡",
        "ÜĺÜ¢"
      ],
      [
        "Ü¬",
        "ÜłÜĲ"
      ],
      [
        "ĠÜķ",
        "ÜªÜĺÜļÜĲ"
      ],
      [
        "ĠÜĲ",
        "ÜłÜĹ"
      ],
      [
        "Ü«",
        "ÜĿÜĲ"
      ],
      [
        "Ü«",
        "ÜĴÜĲ"
      ],
      [
        "ĠÜł",
        "ÜĴÜªÜĲ"
      ],
      [
        "ĠÜł",
        "ÜĴÜªÜĹ"
      ],
      [
        "ÜĿÜ¢",
        "ÜĿ"
      ],
      [
        "ĠÜĺ",
        "ÜķÜłÜĲ"
      ],
      [
        "ĠÜ¡",
        "ÜĹÜĿÜ¡Ü¢"
      ],
      [
        "ĠÜ¡",
        "ÜĹÜĿÜ¡Ü¢ÜĿÜ¢"
      ],
      [
        "ĠÜĹ",
        "ÜĴ"
      ],
      [
        "ĠÜĹ",
        "ÜªÜŁÜĲ"
      ],
      [
        "Ü¦",
        "Ü«ÜĹ"
      ],
      [
        "Ü©",
        "ÜĺÜĹÜĿ"
      ],
      [
        "Ü©",
        "ÜĺÜ£"
      ],
      [
        "ĠÜĴ",
        "Ü¦"
      ],
      [
        "ĠÜĴ",
        "ÜļÜķ"
      ],
      [
        "ĠÜĴ",
        "Ü«ÜĴÜ¬ÜĲ"
      ],
      [
        "Ü£",
        "ÜĿÜĲ"
      ],
      [
        "Õ¶",
        "Õ½"
      ],
      [
        "ĠÕ",
        "©"
      ],
      [
        "ÜĽ",
        "ÜłÜĲ"
      ],
      [
        "ĠÎ",
        "§"
      ],
      [
        "Üĵ",
        "Ü¬ÜĲ"
      ],
      [
        "ĠÜłÜĹ",
        "Ü¢ÜĲ"
      ],
      [
        "ÜłÜĹ",
        "ÜķÜĲ"
      ],
      [
        "Ïĥ",
        "Î·ÏĤ"
      ],
      [
        "ÜĹÜĿ",
        "Ü¡Ü¢ÜĲ"
      ],
      [
        "Îµ",
        "ÏĨ"
      ],
      [
        "ĠÜĺÜĲ",
        "ÜĿÜłÜĿÜ¢"
      ],
      [
        "ĠÜķÜĲ",
        "Ü¢Ü¬"
      ],
      [
        "Ġá¼",
        "¸"
      ],
      [
        "ÜĹÜĺ",
        "ÜĿÜ¬"
      ],
      [
        "ĠÜļ",
        "ÜĽÜĿÜ¬ÜĲ"
      ],
      [
        "ĠÜ¬",
        "ÜłÜ¬"
      ],
      [
        "ÜĿÜª",
        "Ü¬ÜĲ"
      ],
      [
        "ÜĺÜ¬",
        "Üª"
      ],
      [
        "ĠÜ©",
        "ÜĺÜ¡"
      ],
      [
        "ĠÜ©",
        "ÜªÜĿÜ¬ÜĲ"
      ],
      [
        "ÜĺÜĲ",
        "ÜĿÜ¬"
      ],
      [
        "ĠÜķÜ¡",
        "ÜĹÜĿÜ¡Ü¢"
      ],
      [
        "Õ¡Õ¶",
        "Õ§"
      ],
      [
        "Ü«Ü¡",
        "ÜĿ"
      ],
      [
        "ÜĴÜķ",
        "ÜĿ"
      ],
      [
        "ÜķÜĿ",
        "Ü«ÜĲ"
      ],
      [
        "Î¿á¿¦",
        "Î½"
      ],
      [
        "ÜĿÜķ",
        "Üĺ"
      ],
      [
        "ĠÜķÜĿ",
        "ÜĹ"
      ],
      [
        "Ġá½",
        "¡"
      ],
      [
        "ĠÖĩ",
        "Õµ"
      ],
      [
        "ĠÜĽ",
        "ÜĴÜ¬ÜĲ"
      ],
      [
        "Ġá¼Ģ",
        "Î»"
      ],
      [
        "Õ´",
        "Õ¡Õ¶"
      ],
      [
        "Ü©Üª",
        "ÜĿÜĲ"
      ],
      [
        "ĠÜ¢Ü¦",
        "Ü«ÜĿ"
      ],
      [
        "ĠÕ«",
        "ÖĤÖĢ"
      ],
      [
        "Ü¥ÜĴÜķ",
        "ÜĹ"
      ],
      [
        "Õ¸ÖĤÕ©",
        "Õ¥Õ¶"
      ],
      [
        "ĠÜķÜ¬",
        "ÜłÜ¬"
      ],
      [
        "Õ¡Õµ",
        "Õ½"
      ],
      [
        "ĠÜĺÜĹ",
        "Ü¢ÜĺÜ¢"
      ],
      [
        "ºÕ¡Õ",
        "·"
      ],
      [
        "ĠÜĴÜ¢",
        "Ü¦Ü«"
      ],
      [
        "ÜļÜĺ",
        "ÜŁ"
      ],
      [
        "ĠÕ¥",
        "ÖĢ"
      ],
      [
        "ĠÕ¥",
        "Õ¯"
      ],
      [
        "Ġá¼ģ",
        "Î¼Î±Ïģ"
      ],
      [
        "ĠÜĺÜŁ",
        "ÜłÜĹ"
      ],
      [
        "Õ¥Õ²",
        "Õ¥Öģ"
      ],
      [
        "Îµá¿ĸ",
        "Î½"
      ],
      [
        "ĠÜ¢ÜĲ",
        "Ü¬ÜĲ"
      ],
      [
        "ĠÜĴÜ«",
        "ÜĴÜĲ"
      ],
      [
        "ĠÜ¨ÜĴÜĿÜ¢",
        "ÜĹ"
      ],
      [
        "ĠÜķÜ¡Ü¬",
        "Ü©ÜªÜĲ"
      ],
      [
        "ĠÜłÜĴÜĿÜ¬",
        "ÜĹ"
      ],
      [
        "Ü«ÜĴÜĺ",
        "ÜļÜ¬ÜĲ"
      ],
      [
        "ÜĵÜ¡",
        "ÜĺÜ¢ÜĲ"
      ],
      [
        "ĠÎ¿",
        "á¼±"
      ],
      [
        "ĠÜĴÜ¬",
        "ÜªÜĿ"
      ],
      [
        "ÜŁÜ¢",
        "Ü«Üĺ"
      ],
      [
        "ÜķÜł",
        "Ü¥ÜłÜ¡"
      ],
      [
        "ÜªÜĿÜĺ",
        "ÜĽÜĲ"
      ],
      [
        "ĠÏĪ",
        "ÏħÏĩ"
      ],
      [
        "Õ",
        "¨Õ¶Õ¯"
      ],
      [
        "Ġ",
        "Õ¡ÖĢÕªÕ¡Õ¶"
      ],
      [
        "Ü¢",
        "ÜĺÜĹÜĿ"
      ],
      [
        "Ü¢",
        "ÜĺÜ¬ÜĲ"
      ],
      [
        "Üĺ",
        "ÜĽ"
      ],
      [
        "Üĺ",
        "Ü¨"
      ],
      [
        "Ü¡",
        "ÜĽ"
      ],
      [
        "Ü¡",
        "ÜªÜĲ"
      ],
      [
        "Ü¡",
        "Ü¨"
      ],
      [
        "Üª",
        "ÜªÜĲ"
      ],
      [
        "ĠÜķ",
        "ÜłÜĿ"
      ],
      [
        "ĠÜĲ",
        "ÜĴÜªÜĹÜ¡"
      ],
      [
        "ĠÜł",
        "ÜļÜ¡"
      ],
      [
        "ĠÜł",
        "ÜĴÜĿÜ¬ÜĲ"
      ],
      [
        "ĠÜĺ",
        "Ü¦"
      ],
      [
        "ĠÜĺ",
        "Ü¬Üª"
      ],
      [
        "ĠÜĺ",
        "ÜļÜĻ"
      ],
      [
        "ĠÜĺ",
        "ÜķÜļ"
      ],
      [
        "Üļ",
        "Ü¢"
      ],
      [
        "ĠÜ¡",
        "Ü¡"
      ],
      [
        "ĠÜ¡",
        "ÜļÜķÜĲ"
      ],
      [
        "ĠÜ¡",
        "Ü©ÜĴÜł"
      ],
      [
        "Ì£",
        "."
      ],
      [
        "Î½",
        "Î¿Î½"
      ],
      [
        "Ü£",
        "ÜĵÜĿ"
      ],
      [
        "ĠÕ",
        "·"
      ],
      [
        "ĠÜ¥",
        "Ü¬ÜĿÜķ"
      ],
      [
        "Õ¡Õ",
        "¢"
      ],
      [
        "ĠÜĺÜĲ",
        "Ü¬ÜĲ"
      ],
      [
        "ĠÜŁ",
        "Ü¦"
      ],
      [
        "ĠÜŁ",
        "Ü£ÜĲ"
      ],
      [
        "ĠÜķÜĲ",
        "Üª"
      ],
      [
        "ĠÜķÜĲ",
        "ÜĴÜĿ"
      ],
      [
        "Ïģ",
        "Î³"
      ],
      [
        "Ïģ",
        "ÎŃ"
      ],
      [
        "ĠÜļ",
        "ÜĿÜĲ"
      ],
      [
        "ĠÜ«",
        "ÜĴÜĺ"
      ],
      [
        "ĠÜ«",
        "ÜłÜ¡ÜĲ"
      ],
      [
        "ĠÜ«",
        "Ü¦ÜĿÜª"
      ],
      [
        "ĠÜ¬",
        "ÜªÜ¢"
      ],
      [
        "ÜĿÜª",
        "ÜĺÜķÜĿÜ£"
      ],
      [
        "ĠÜ©",
        "Üĺ"
      ],
      [
        "ĠÜª",
        "ÜĴÜ¢"
      ],
      [
        "ĠÜ£",
        "ÜĿÜ¡"
      ],
      [
        "ĠÜ£",
        "Ü¦Üª"
      ],
      [
        "ĠÜ£",
        "ÜĽÜ¢ÜĲ"
      ],
      [
        "ĠÜ£",
        "ÜłÜ©"
      ],
      [
        "ĠÜ¦",
        "Ü©"
      ],
      [
        "ÜĴÜĿ",
        "Ü«ÜĲ"
      ],
      [
        "ĠÏĥ",
        "Î¿Î¹"
      ],
      [
        "Ü¬ÜĿ",
        "ÜķÜ¥"
      ],
      [
        "ĠÜĺÜ¡",
        "ÜĽÜł"
      ],
      [
        "Õ¸Õ",
        "»"
      ],
      [
        "ĠÜĴÜª",
        "Ü¡"
      ],
      [
        "Î¸",
        "Î±Ïģ"
      ],
      [
        "á¿¶",
        "Î¼ÎµÎ½"
      ],
      [
        "ÜĺÜł",
        "Ü¬ÜĲ"
      ],
      [
        "ĠÜĻ",
        "ÜĿ"
      ],
      [
        "ĠÜķÜĿ",
        "ÜĺÜ¡"
      ],
      [
        "ĠÜķÜĿ",
        "ÜĺÜļÜ¢Ü¢"
      ],
      [
        "ÏĮ",
        "Î³"
      ],
      [
        "Ġá½",
        "Ģ"
      ],
      [
        "ĠÕ¡Õ",
        "²"
      ],
      [
        "ĠÜķÜĴ",
        "Ü¢"
      ],
      [
        "ĠÜĺÜ¢",
        "Ü£"
      ],
      [
        "ÜĿÜĹ",
        "ÜĿÜ¢"
      ],
      [
        "Ü¡Üª",
        "ÜĿÜĲ"
      ],
      [
        "ĠÜĴÜĿ",
        "Ü«Ü¬ÜĲ"
      ],
      [
        "Ü«ÜĴ",
        "Üļ"
      ],
      [
        "ĠÕ¦",
        "Õ°"
      ],
      [
        "ĠÜĺÜĴ",
        "Ü¬Üª"
      ],
      [
        "Õ¡ÖĢÕ",
        "°"
      ],
      [
        "ĠÜŁÜł",
        "ÜŁÜĺÜ¢"
      ],
      [
        "ĠÜķÜ¥",
        "Ü¡ÜĲ"
      ],
      [
        "ĠÜķÜ¬",
        "ÜłÜ¬ÜĲ"
      ],
      [
        "Õ¡Õ´",
        "Õ¢"
      ],
      [
        "ĠÕ¸",
        "ÖĢÕ"
      ],
      [
        "ĠÜķÜĹ",
        "ÜŁÜ¢ÜĲ"
      ],
      [
        "ÜķÜĺ",
        "ÜŁÜ¬ÜĲ"
      ],
      [
        "Ïİ",
        "ÏĢ"
      ],
      [
        "ĠÎ´Î¹",
        "Î±"
      ],
      [
        "ĠÜķÜ¨",
        "Ü¦ÜªÜĲ"
      ],
      [
        "ĠÎ³",
        "ÎµÎ½"
      ],
      [
        "ĠÎ»",
        "Î±"
      ],
      [
        "Ü¡ÜłÜŁ",
        "ÜĲ"
      ],
      [
        "ĠÜ«ÜłÜĿ",
        "ÜĽ"
      ],
      [
        "Õ¼",
        "Õ³"
      ],
      [
        "Ü¢Üļ",
        "ÜĺÜ¡"
      ],
      [
        "Î¬Ïģ",
        "Ïĩ"
      ],
      [
        "ĠÜ¬ÜķÜļ",
        "ÜłÜĺÜ¢"
      ],
      [
        "ĠÎºÎ±ÏĦ",
        "á½°"
      ],
      [
        "Ġ",
        "ÖħÖĢÕ«Õ¶"
      ],
      [
        "ÜĲ",
        "Ü«Ü¬"
      ],
      [
        "ÜĲ",
        "ÜĿÜ¢ÜĲ"
      ],
      [
        "Ü¢",
        "Ü£"
      ],
      [
        "Üĺ",
        "ÜĴÜª"
      ],
      [
        "Üł",
        "ÜĺÜĹÜĿ"
      ],
      [
        "Üķ",
        "ÜĴÜª"
      ],
      [
        "Üķ",
        "ÜŁÜª"
      ],
      [
        "ÜĴ",
        "ÜĿÜŁÜĹÜ¢ÜĲ"
      ],
      [
        "ĠÜķ",
        "ÜĿÜ¬"
      ],
      [
        "ĠÜķ",
        "ÜĴÜªÜĹ"
      ],
      [
        "ĠÜķ",
        "ÜĺÜŁ"
      ],
      [
        "ĠÜĲ",
        "ÜĺÜªÜ«ÜłÜ¡"
      ],
      [
        "ĠÜĲ",
        "ÜĿÜ¡ÜŁÜĲ"
      ],
      [
        "ÜŁ",
        "Ü¬"
      ],
      [
        "ĠÜł",
        "Ü«"
      ],
      [
        "ĠÜł",
        "ÜĽÜĺÜªÜĲ"
      ],
      [
        "Ü¥",
        "Ü¡ÜĲ"
      ],
      [
        "ĠÜĺ",
        "ÜķÜĲ"
      ],
      [
        "ĠÜĺ",
        "ÜĴÜĲ"
      ],
      [
        "ĠÜĺ",
        "Ü¥Ü¡"
      ],
      [
        "ĠÜĺ",
        "ÜĴÜªÜĹ"
      ],
      [
        "Üļ",
        "ÜĺÜĹÜĿ"
      ],
      [
        "ĠÜ¡",
        "Ü¥"
      ],
      [
        "ĠÜ¡",
        "ÜĺÜ¬ÜĲ"
      ],
      [
        "Ü¦",
        "ÜĿÜłÜĽÜĺÜ£"
      ],
      [
        "Ü©",
        "Ü¬"
      ],
      [
        "ÜłÜĲ",
        "ÜĿÜłÜĿÜ¢"
      ],
      [
        "ÏĦ",
        "Ïī"
      ],
      [
        "á½",
        "ºÏĤ"
      ],
      [
        "ĠÎ",
        "ĺ"
      ],
      [
        "ĠÜłÜĹ",
        "Ü¢ÜĺÜ¢"
      ],
      [
        "á¼",
        "´"
      ],
      [
        "ÜĻ",
        "ÜªÜ¥"
      ],
      [
        "ĠÜĿ",
        "Üª"
      ],
      [
        "ÖĢ",
        "Õ¶"
      ],
      [
        "ĠÜŁ",
        "Üĺ"
      ],
      [
        "ĠÜŁ",
        "Ü¬ÜĴÜĲ"
      ],
      [
        "ĠÜ¢",
        "Ü¡"
      ],
      [
        "Ïģ",
        "Î¿"
      ],
      [
        "Ïģ",
        "Î·"
      ],
      [
        "Ïģ",
        "á¿¶Î½"
      ],
      [
        "ÏĢ",
        "Î¯"
      ],
      [
        "ĠÜ«",
        "ÜªÜĴÜ¬ÜĲ"
      ],
      [
        "ĠÜ¬",
        "Ü«"
      ],
      [
        "ÜķÜ¡",
        "ÜªÜĿÜĲ"
      ],
      [
        "ÜłÜ¡",
        "ÜĿ"
      ],
      [
        "Ü¡Ü¢",
        "ÜĹÜĺÜ¢"
      ],
      [
        "Ïħ",
        "Ïĥ"
      ],
      [
        "Ü¨",
        "ÜĴ"
      ],
      [
        "Ü¨",
        "Ü¦"
      ],
      [
        "ĠÜ©",
        "ÜĲÜ¡"
      ],
      [
        "ĠÜĲÜ¢Ü¬",
        "ÜĿ"
      ],
      [
        "Î»",
        "Î¬"
      ],
      [
        "Î»",
        "ÎµÎ¯"
      ],
      [
        "ÜķÜĿÜ¢",
        "Ü¬ÜĹ"
      ],
      [
        "ĠÜª",
        "Ü¡ÜĲ"
      ],
      [
        "ĠÜ¦",
        "ÜĵÜªÜĲ"
      ],
      [
        "ÜĴÜĿ",
        "ÜĺÜ¡ÜĲ"
      ],
      [
        "Ü¿",
        "ÌĪ"
      ],
      [
        "ĠÏĥ",
        "á½²"
      ],
      [
        "ÜĺÜ¡",
        "Ü¬ÜĲ"
      ],
      [
        "Õ¥Õ",
        "®"
      ],
      [
        "ÜķÜĿ",
        "ÜłÜĹ"
      ],
      [
        "ÜķÜĿ",
        "Ü«ÜĺÜ¥"
      ],
      [
        "ÜłÜŁ",
        "ÜĺÜ¬ÜĹ"
      ],
      [
        "Ġá¼Ĳ",
        "Î»Î±Î¯"
      ],
      [
        "ĠÜłÜĿ",
        "ÜĺÜ¡ÜĲ"
      ],
      [
        "ÏĮ",
        "Î»"
      ],
      [
        "ÏĮ",
        "Î¼Îµ"
      ],
      [
        "ÏĮ",
        "ÏĦÎ·"
      ],
      [
        "Õ«Õ¶",
        "Õ¥Õ¬"
      ],
      [
        "ÜķÜ¢",
        "ÜĹ"
      ],
      [
        "ĠÜłÜĺÜ¬",
        "ÜŁÜĺÜ¢"
      ],
      [
        "Ü«ÜłÜ¡",
        "ÜĿÜĺÜĹÜĿ"
      ],
      [
        "ĠÜ¢Ü¦",
        "Ü«ÜŁ"
      ],
      [
        "ĠÕ«",
        "Õ½Õ¯"
      ],
      [
        "ĠÜķÜ¥",
        "Üª"
      ],
      [
        "Ü£ÜĿ",
        "ÜªÜĲ"
      ],
      [
        "ĠÜķÜĹ",
        "ÜłÜĿÜ¢"
      ],
      [
        "ĠÜĺÜĲÜ¢",
        "Ü¬"
      ],
      [
        "ĠÜĺÜ«",
        "ÜªÜĿ"
      ],
      [
        "ĠÜĺÜ«",
        "ÜķÜª"
      ],
      [
        "Ü¢ÜĿÜ¢",
        "Ü«ÜĲ"
      ],
      [
        "ĠÜĺÜ¥",
        "Ü¢"
      ],
      [
        "ĠÎ±á½ĲÏĦ",
        "Î¿á¿¦"
      ],
      [
        "Õ³",
        "Õ²"
      ],
      [
        "ĠÜĺÜ£",
        "Ü¦Üª"
      ],
      [
        "ĠÜķÜ¨",
        "ÜĴÜĲ"
      ],
      [
        "ĠÜĲÜ£",
        "Ü¬"
      ],
      [
        "ĠÕ½",
        "ÖĢÕ¢"
      ],
      [
        "ĠÜļÜ¡",
        "Ü«ÜĲ"
      ],
      [
        "Ü¡ÜłÜŁ",
        "ÜĺÜ¬ÜĲ"
      ],
      [
        "Õ·",
        "Õ¶"
      ],
      [
        "ĠÜ«ÜĲ",
        "ÜłÜĺ"
      ],
      [
        "ĠÕ¾",
        "Õ½"
      ],
      [
        "ÏĥÎ¸",
        "Î±Î¹"
      ],
      [
        "ĠÕ¸ÖĤ",
        "Õ¶"
      ],
      [
        "ĠÜĴÜŁÜł",
        "ÜĻÜĴÜ¢"
      ],
      [
        "ĠÜ¡ÜłÜ¦",
        "Ü¢ÜĲ"
      ],
      [
        "ĠÜ¡Ü«ÜŁ",
        "ÜļÜĲ"
      ],
      [
        "Õ¡Õº",
        "Õ¡"
      ],
      [
        "Ü«ÜĺÜĴ",
        "ÜļÜĲ"
      ],
      [
        "ĠÜĴÜł",
        "ÜĴÜĹ"
      ],
      [
        "ĠÎºÏĮ",
        "ÏĥÎ¼"
      ],
      [
        "ÜĲ",
        "ÜļÜª"
      ],
      [
        "ÜĲ",
        "ÜļÜªÜ¢ÜĲ"
      ],
      [
        "Üĺ",
        "ÜĹÜĺ"
      ],
      [
        "Üĺ",
        "ÜķÜ¥"
      ],
      [
        "Üĺ",
        "ÜĿÜĹ"
      ],
      [
        "Üł",
        "Üķ"
      ],
      [
        "Üł",
        "Ü£"
      ],
      [
        "Üł",
        "ÜĴÜª"
      ],
      [
        "Ü¬",
        "Ü¦"
      ],
      [
        "Üª",
        "ÜŁ"
      ],
      [
        "ÜĴ",
        "ÜĻ"
      ],
      [
        "ÜĴ",
        "ÜĿÜł"
      ],
      [
        "ĠÜķ",
        "ÜĹÜ¢ÜĲ"
      ],
      [
        "ĠÜĲ",
        "ÜĴÜĺÜŁÜĺÜ¢"
      ],
      [
        "ĠÜĲ",
        "ÜĿÜłÜ¢ÜĲ"
      ],
      [
        "ĠÜĲ",
        "Ü«Ü¥ÜĿÜĲ"
      ],
      [
        "ĠÜĲ",
        "ÜŁÜłÜ©ÜªÜ¨ÜĲ"
      ],
      [
        "ĠÜł",
        "Üª"
      ],
      [
        "ĠÜĺ",
        "Ü¬ÜĲ"
      ],
      [
        "ĠÜĺ",
        "ÜłÜŁ"
      ],
      [
        "ĠÜĺ",
        "ÜŁÜĲ"
      ],
      [
        "ĠÜĺ",
        "Ü¦Üª"
      ],
      [
        "ĠÜĺ",
        "Ü©ÜªÜĴ"
      ],
      [
        "Üļ",
        "Ü£"
      ],
      [
        "Üļ",
        "Ü¬ÜĹ"
      ],
      [
        "ĠÜĴ",
        "ÜĽ"
      ],
      [
        "ĠÜĴ",
        "Üĵ"
      ],
      [
        "ĠÜĴ",
        "Ü«Ü¡ÜĹ"
      ],
      [
        "ÏĦ",
        "Î®"
      ],
      [
        "ÏĦ",
        "á½¸Î½"
      ],
      [
        "á½",
        "¼"
      ],
      [
        "ÜĽ",
        "Üĺ"
      ],
      [
        "ÜĽ",
        "ÜĹÜĿ"
      ],
      [
        "Üĵ",
        "ÜĹ"
      ],
      [
        "Üĵ",
        "ÜĻ"
      ],
      [
        "ĠÜłÜĹ",
        "Üĺ"
      ],
      [
        "á¼",
        "ģ"
      ],
      [
        "Ïĥ",
        "ÏĢ"
      ],
      [
        "ĠÜĺÜĲ",
        "Ü£"
      ],
      [
        "ĠÜĺÜĲ",
        "Ü¬Ü¬"
      ],
      [
        "ĠÜĿ",
        "Ü¡ÜĲ"
      ],
      [
        "ĠÜĿ",
        "ÜĹÜĴ"
      ],
      [
        "ĠÜŁ",
        "ÜĺÜª"
      ],
      [
        "ĠÜ¢",
        "ÜĽ"
      ],
      [
        "Î¹",
        "Î¼"
      ],
      [
        "ĠÜķÜĲ",
        "ÜĻ"
      ],
      [
        "ĠÜķÜĲ",
        "ÜªÜ¥ÜĲ"
      ],
      [
        "ĠÜķÜĲ",
        "Ü¢Ü«"
      ],
      [
        "ÏĢ",
        "ÎŃ"
      ],
      [
        "ĠÜ«",
        "Ü¥Ü¬ÜĹ"
      ],
      [
        "ĠÜ¬",
        "ÜªÜ¥ÜĲ"
      ],
      [
        "ÜĿÜª",
        "ÜĿÜ¢"
      ],
      [
        "ÜĺÜ¬",
        "ÜŁ"
      ],
      [
        "ÜłÜĿ",
        "ÜĺÜĹÜĿ"
      ],
      [
        "ÜłÜĿ",
        "ÜļÜĲ"
      ],
      [
        "ÜĺÜĲ",
        "Ü¡Üª"
      ],
      [
        "ÜĴÜª",
        "Ü¬ÜĲ"
      ],
      [
        "ĠÜķÜ¡",
        "ÜĿÜĲ"
      ],
      [
        "Î¯",
        "Î±"
      ],
      [
        "Ïī",
        "ÏĥÎ¿Î½"
      ],
      [
        "ĠÜ¦",
        "ÜĽÜªÜĺÜ£"
      ],
      [
        "ĠÏĥ",
        "Î¿á¿¦"
      ],
      [
        "ĠÜłÜ¡",
        "Ü¨"
      ],
      [
        "Îº",
        "ÎŃ"
      ],
      [
        "Î¸",
        "ÎŃÎ½"
      ],
      [
        "ÜĺÜł",
        "Ü¨"
      ],
      [
        "ĠÜĻ",
        "ÜķÜĿ"
      ],
      [
        "ĠÜĻ",
        "ÜªÜ¥ÜĲ"
      ],
      [
        "ĠÜķÜĿ",
        "ÜłÜĹÜĺÜ¢"
      ],
      [
        "ÜŁÜł",
        "Üĺ"
      ],
      [
        "ĠÜĲÜ¦",
        "Ü¢"
      ],
      [
        "ĠÜ¥Ü¡",
        "ÜŁ"
      ],
      [
        "ĠÜķÜļ",
        "ÜķÜĴ"
      ],
      [
        "Ü¦Üª",
        "Ü¢ÜļÜĺÜ¡"
      ],
      [
        "ĠÜļÜķ",
        "ÜĺÜ¬ÜĲ"
      ],
      [
        "Õ¡ÖĢÕ",
        "¯"
      ],
      [
        "ÜłÜ¦",
        "Ü¢ÜĲ"
      ],
      [
        "ĠÕ«",
        "Õ´"
      ],
      [
        "Ü¥ÜĴÜķ",
        "Üĺ"
      ],
      [
        "ÜĹÜĿÜ¡Ü¢",
        "Üĺ"
      ],
      [
        "ĠÎ¼",
        "á½´"
      ],
      [
        "Õ¡Õµ",
        "Öģ"
      ],
      [
        "ĠÎ¸",
        "Îµ"
      ],
      [
        "ÏĥÎ¹",
        "ÏĤ"
      ],
      [
        "ĠÜĺÜĲÜ¢",
        "Ü¬ÜĺÜ¢"
      ],
      [
        "ÜķÜ©",
        "ÜĺÜķÜ«ÜĲ"
      ],
      [
        "ĠÜķÜĿÜł",
        "ÜŁÜĺÜ¢"
      ],
      [
        "Ü¡Ü¬",
        "ÜĺÜ¡"
      ],
      [
        "Õ¸ÖĢÕ",
        "®"
      ],
      [
        "ĠÎ±á½ĲÏĦ",
        "á½¸Î½"
      ],
      [
        "ĠÜķÜ¨",
        "ÜĺÜ¡ÜĲ"
      ],
      [
        "Õ¡Õ¼",
        "Õ¶"
      ],
      [
        "á½¶",
        "ÏĤ"
      ],
      [
        "Õ¡ÖĢÕ¿",
        "Õ¡ÖĦ"
      ],
      [
        "ÜłÜĴ",
        "ÜĹÜĺÜ¢"
      ],
      [
        "Õ«Õ½",
        "Õ¿"
      ],
      [
        "ĠÜ«ÜªÜĿ",
        "ÜªÜĲÜĿÜ¬"
      ],
      [
        "ĠÜ¡ÜĽ",
        "ÜłÜĹÜ¢ÜĲ"
      ],
      [
        "ĠÏĢÎ¬Î½",
        "ÏĦÏīÎ½"
      ],
      [
        "ĠÜ«ÜłÜĿ",
        "ÜļÜĲ"
      ],
      [
        "ĠÕ¨",
        "Õ¿"
      ],
      [
        "ÜķÜĲÜĿÜ¬",
        "ÜĺÜĹÜĿ"
      ],
      [
        "ĠÜ¦ÜĺÜ©",
        "ÜķÜ¢ÜĲ"
      ],
      [
        "ĠÏĦÎ±",
        "á¿ĸÏĤ"
      ],
      [
        "ÎµÏįÎ¼Î±ÏĦ",
        "Î¿"
      ],
      [
        "á½ĳ",
        "ÏĢá½²Ïģ"
      ],
      [
        "ĠÜ¬Üļ",
        "ÜĿÜ¬"
      ],
      [
        "Î²ÎµÎ¯",
        "Î±Î¹ÏĤ"
      ],
      [
        "1",
        "0"
      ],
      [
        "Õ",
        "ľ"
      ],
      [
        "Õ",
        "ŀ"
      ],
      [
        "ÜĲ",
        "ÜĴÜĿ"
      ],
      [
        "ÜĲ",
        "ÜłÜĿÜ¢"
      ],
      [
        "ÜĲ",
        "ÜļÜĿ"
      ],
      [
        "ÜĿ",
        "Ü«"
      ],
      [
        "ÜĿ",
        "ÜĹÜĺÜķÜĲ"
      ],
      [
        "Üĺ",
        "ÜłÜĿ"
      ],
      [
        "Üĺ",
        "ÜªÜĿÜ«ÜłÜ¡"
      ],
      [
        "Üķ",
        "ÜĹÜĺ"
      ],
      [
        "Üķ",
        "Ü«Ü¡"
      ],
      [
        "Üķ",
        "ÜªÜĺ"
      ],
      [
        "ÜĴ",
        "ÜĹÜĿÜŁÜłÜĲ"
      ],
      [
        "ĠÜķ",
        "ÜłÜ¡"
      ],
      [
        "ĠÜķ",
        "ÜķÜĿ"
      ],
      [
        "ÜŁ",
        "Ü¡ÜĲ"
      ],
      [
        "ÜŁ",
        "ÜĺÜĹÜĿ"
      ],
      [
        "ÜŁ",
        "ÜĺÜ¬"
      ],
      [
        "Ü¥",
        "ÜªÜĲ"
      ],
      [
        "ĠÜĺ",
        "Üĵ"
      ],
      [
        "ĠÜĺ",
        "Ü«Ü¡"
      ],
      [
        "ĠÜĺ",
        "ÜĹÜĺÜĲ"
      ],
      [
        "Üļ",
        "ÜĿÜĲ"
      ],
      [
        "ĠÜ¡",
        "Ü¬ÜĴ"
      ],
      [
        "ĠÜĹ",
        "Ü¦"
      ],
      [
        "Ü¦",
        "ÜĿÜªÜĲ"
      ],
      [
        "Ü©",
        "Ü¬ÜĲ"
      ],
      [
        "ĠÜĴ",
        "Ü«Üĺ"
      ],
      [
        "ÜłÜĲ",
        "ÜłÜĹÜĲ"
      ],
      [
        "Î±",
        "Î³Î¯"
      ],
      [
        "ÏĦ",
        "á¿ĨÏĤ"
      ],
      [
        "ĠÕ",
        "§"
      ],
      [
        "ÜĽ",
        "Ü¢"
      ],
      [
        "ĠÜłÜĹ",
        "ÜĿÜ¢"
      ],
      [
        "Îµ",
        "Ïħ"
      ],
      [
        "ÜĻ",
        "Üķ"
      ],
      [
        "ĠÜĿ",
        "Üł"
      ],
      [
        "ĠÜĿ",
        "Ü¥Ü©ÜĺÜĴ"
      ],
      [
        "Ġá¼",
        "ĳ"
      ],
      [
        "ÜŁÜĺÜ¢",
        "ÜĲ"
      ],
      [
        "ĠÜ«",
        "Ü¬ÜĲ"
      ],
      [
        "ĠÜ¬",
        "Üĺ"
      ],
      [
        "ĠÜ¬",
        "ÜªÜ¬"
      ],
      [
        "ĠÜ¬",
        "ÜªÜ¥"
      ],
      [
        "ĠÏĦ",
        "Î¿Ïį"
      ],
      [
        "ÜĴÜĲ",
        "ÜªÜ¥ÜĲ"
      ],
      [
        "Ü¨",
        "ÜĺÜ¦"
      ],
      [
        "ĠÜ©",
        "ÜĿÜ¡ÜĿÜ¢"
      ],
      [
        "ÜªÜĿ",
        "ÜĴ"
      ],
      [
        "ÜłÜĿ",
        "Ü¡ÜĲ"
      ],
      [
        "ĠÜª",
        "ÜĿÜ«ÜĲ"
      ],
      [
        "ÜĺÜª",
        "Ü¬ÜĲ"
      ],
      [
        "ÜķÜ¥",
        "Üł"
      ],
      [
        "Ïī",
        "ÏĦ"
      ],
      [
        "Ü«Ü¡",
        "Ü«Ü¬ÜĲ"
      ],
      [
        "ÜĴÜĿ",
        "ÜĴÜĲ"
      ],
      [
        "ĠÜłÜ¡",
        "ÜªÜĿÜĲ"
      ],
      [
        "Õ§",
        "ÖĢ"
      ],
      [
        "ĠÏĢ",
        "Îµ"
      ],
      [
        "ÜłÜŁ",
        "ÜĿÜ¢"
      ],
      [
        "ÜłÜŁ",
        "Ü¢ÜĲ"
      ],
      [
        "Ü¢ÜĿ",
        "ÜĹÜĺÜ¢"
      ],
      [
        "ĠÜŁÜķ",
        "Üĺ"
      ],
      [
        "Î¸",
        "ÎµÎ½"
      ],
      [
        "á¿¶",
        "ÏĥÎ¿Î½"
      ],
      [
        "ĠÕ¡Õ",
        "º"
      ],
      [
        "ĠÜķÜļ",
        "ÜĿ"
      ],
      [
        "ĠÜķÜļ",
        "Üª"
      ],
      [
        "ÜķÜª",
        "Ü¥"
      ],
      [
        "Ü¦Üª",
        "Ü«"
      ],
      [
        "ÜļÜķ",
        "ÜĹ"
      ],
      [
        "ÜłÜł",
        "Ü¬"
      ],
      [
        "ĠÜķÜ©",
        "ÜĿÜ¡ÜĿÜ¢"
      ],
      [
        "ÜķÜĴ",
        "Ü¬Üª"
      ],
      [
        "Ġ.",
        "ÜĢ"
      ],
      [
        "ĠÜķÜ¥",
        "Ü¬ÜĿÜķ"
      ],
      [
        "Õ¡Õµ",
        "Õ¬"
      ],
      [
        "Õ¦",
        "Õ«"
      ],
      [
        "ĠÜĺÜ«",
        "Ü©"
      ],
      [
        "á¿ĸ",
        "Î½"
      ],
      [
        "ÜĺÜ«",
        "ÜĿÜĲ"
      ],
      [
        "ÜķÜĹ",
        "ÜªÜĺ"
      ],
      [
        "ĠÜłÜ¡ÜĲ",
        "Ü¡Üª"
      ],
      [
        "ĠÜ¥ÜłÜĿ",
        "ÜĹ"
      ],
      [
        "ĠÜ¡ÜĲ",
        "ÜŁÜĺÜłÜ¬ÜĲ"
      ],
      [
        "ÜĿÜ£",
        "ÜļÜ©"
      ],
      [
        "ĠÜĴÜ«",
        "ÜłÜ¡ÜĲ"
      ],
      [
        "ĠÜĹÜĿÜ¡Ü¢",
        "ÜĺÜ¬ÜĲ"
      ],
      [
        "ĠÜ«ÜªÜĿ",
        "ÜªÜĲ"
      ],
      [
        "Î¸Ïģ",
        "ÏİÏĢ"
      ],
      [
        "ĠÜ¡Üł",
        "Ü¬ÜĹ"
      ],
      [
        "ĠÜĿÜĺÜ¡",
        "Ü¢ÜĲ"
      ],
      [
        "ĠÏĢÎ±Ïģ",
        "Î±"
      ],
      [
        "ÏīÎ¸",
        "ÎµÎ½"
      ],
      [
        "Ü«ÜłÜĿ",
        "ÜĽ"
      ],
      [
        "ĠÜ¦Ü¬",
        "ÜĵÜ¡ÜĲ"
      ],
      [
        "Î·Î¸",
        "á¿¶Î¼ÎµÎ½"
      ],
      [
        "Õ¸Õ¼",
        "Õ¨Õ¶Õ¯"
      ],
      [
        "Ü¢ÜĺÜĹ",
        "ÜªÜĲ"
      ],
      [
        "ĠÜ£ÜŁ",
        "ÜªÜĿÜĺÜĽÜĲ"
      ],
      [
        "ĠÎ²Î±",
        "ÏĥÎ¹"
      ],
      [
        "Ġá½¡",
        "ÏĤ"
      ],
      [
        "ÜĿ",
        "ÜĺÜļÜ¢Ü¢"
      ],
      [
        "Üĺ",
        "ÜĿÜĲ"
      ],
      [
        "Ü¡",
        "Ü¡ÜĲ"
      ],
      [
        "Ü¡",
        "ÜªÜĿÜ¡"
      ],
      [
        "Üķ",
        "ÜĴÜĲ"
      ],
      [
        "Üķ",
        "Ü¬Üª"
      ],
      [
        "Üķ",
        "ÜļÜĻ"
      ],
      [
        "ÜĴ",
        "ÜŁÜĺÜ¢"
      ],
      [
        "ÜĴ",
        "Ü¨"
      ],
      [
        "ÜĴ",
        "ÜĹÜĺÜ¢"
      ],
      [
        "ĠÜķ",
        "ÜĵÜłÜĿÜłÜĲ"
      ],
      [
        "ĠÜķ",
        "ÜªÜĿÜ«"
      ],
      [
        "ĠÜĲ",
        "Ü¨"
      ],
      [
        "ĠÜĲ",
        "Ü©ÜĿÜ¡"
      ],
      [
        "ĠÜł",
        "Ü¡Ü¢"
      ],
      [
        "ĠÜł",
        "ÜĴÜĲ"
      ],
      [
        "ĠÜł",
        "Ü¥Ü¡"
      ],
      [
        "ÜĺÜ¢",
        "Ü¦"
      ],
      [
        "ĠÜĺ",
        "Ü«ÜĲÜł"
      ],
      [
        "Üļ",
        "ÜŁ"
      ],
      [
        "Ìĩ",
        "Üĩ"
      ],
      [
        "ĠÜ¡",
        "Ü¬ÜĲ"
      ],
      [
        "ĠÜĹ",
        "ÜĿÜŁÜłÜĲ"
      ],
      [
        "Ü©",
        "Ü¡"
      ],
      [
        "Ü£",
        "Ü¬ÜĲ"
      ],
      [
        "Ü£",
        "ÜŁÜ¢ÜĲ"
      ],
      [
        "ÜĽ",
        "ÜĹÜĲ"
      ],
      [
        "ĠÎ",
        "£"
      ],
      [
        "ĠÜ¥",
        "Ü¬ÜĿ"
      ],
      [
        "Ïĥ",
        "Ïī"
      ],
      [
        "Ïĥ",
        "Ïĩ"
      ],
      [
        "ÜĻ",
        "Ü¢ÜĲ"
      ],
      [
        "ÜķÜĲ",
        "Ü¢ÜĲ"
      ],
      [
        "ĠÜĿ",
        "ÜĹÜĺ"
      ],
      [
        "ĠÜŁ",
        "ÜŁÜª"
      ],
      [
        "ĠÜ¢",
        "ÜĲÜ¡Üª"
      ],
      [
        "Õ¸",
        "Õ½Õ¿"
      ],
      [
        "ĠÜķÜĲ",
        "Ü¡Üª"
      ],
      [
        "Ġá¼",
        "ħ"
      ],
      [
        "Õ¥",
        "Õ¡Õ¶"
      ],
      [
        "ÜķÜ¡",
        "ÜĹ"
      ],
      [
        "ÜłÜ¡",
        "Ü¢ÜĲ"
      ],
      [
        "ĠÜ©",
        "ÜªÜĲ"
      ],
      [
        "ĠÜĲÜ¢Ü¬",
        "Ü¬ÜĹ"
      ],
      [
        "ÜłÜĿ",
        "Üĺ"
      ],
      [
        "ÜĺÜĲ",
        "ÜĻÜł"
      ],
      [
        "ĠÜ£",
        "Üł"
      ],
      [
        "ÜķÜ¥",
        "Ü¡ÜĹ"
      ],
      [
        "Ü«Ü¡",
        "ÜĿÜ¬ÜĲ"
      ],
      [
        "ĠÜķÜ¢",
        "ÜļÜĲ"
      ],
      [
        "ĠÜķÜ¢",
        "ÜĴÜĿÜĲ"
      ],
      [
        "ĠÜłÜ¡",
        "Ü¡Ü¬"
      ],
      [
        "ĠÜłÜ¡",
        "ÜłÜŁÜĺÜ¬ÜĲ"
      ],
      [
        "ĠÏĢ",
        "Î¬Ïĥ"
      ],
      [
        "Î¬",
        "ÏĦÏīÎ½"
      ],
      [
        "ÜłÜŁ",
        "ÜĿ"
      ],
      [
        "Ü¬ÜĿ",
        "ÜĹ"
      ],
      [
        "ĠÜĺÜ¡",
        "Ü¬"
      ],
      [
        "Î¿Î½",
        "ÏĦÎ±ÏĤ"
      ],
      [
        "Î¸",
        "Î·"
      ],
      [
        "Î¸",
        "Î±Î¹"
      ],
      [
        "ĠÜĲÜ¬",
        "ÜļÜĻÜĿ"
      ],
      [
        "ÜªÜĺ",
        "ÜĻ"
      ],
      [
        "ĠÜĻ",
        "ÜĴÜķÜĿ"
      ],
      [
        "ÏĮ",
        "ÏĤ"
      ],
      [
        "ĠÎ´",
        "á½²"
      ],
      [
        "ĠÎ´",
        "ÎµÏĥ"
      ],
      [
        "ĠÎ´",
        "ÎŃÏĥÏĢÎ¿ÏĦÎ±"
      ],
      [
        "Õ¯",
        "Õ¡Öģ"
      ],
      [
        "ĠÖĩ",
        "Õ«"
      ],
      [
        "Ïĩ",
        "Ïģ"
      ],
      [
        "ÜķÜ¢",
        "ÜļÜĲ"
      ],
      [
        "ĠÜĺÜ¢",
        "Ü¦Ü©"
      ],
      [
        "ÏĨ",
        "ÏģÎ±"
      ],
      [
        "Î±Î¹",
        "Î¿Î½"
      ],
      [
        "ĠÜķÜ©",
        "ÜķÜ¡"
      ],
      [
        "ĠÕ´",
        "Õ¥ÖĢ"
      ],
      [
        "ĠÕ´",
        "Õ¡Õ¿"
      ],
      [
        "ĠÎ¼",
        "Î¿Ïħ"
      ],
      [
        "ÜĲÜĿÜ¬",
        "ÜĿ"
      ],
      [
        "ĠÕ¯",
        "Õ«Õ¶"
      ],
      [
        "ĠÕ¯",
        "Õ¡Öģ"
      ],
      [
        "ÜĴÜĹ",
        "Ü¬"
      ],
      [
        "ĠÜķÜĹ",
        "Ü¢ÜĺÜ¢"
      ],
      [
        "ÜĺÜĹ",
        "ÜĲ"
      ],
      [
        "ÜķÜļ",
        "ÜłÜ¬ÜĲ"
      ],
      [
        "Õ²",
        "Õ®"
      ],
      [
        "ĠÜ¡ÜłÜŁ",
        "ÜĺÜ¬ÜĹ"
      ],
      [
        "Î¼ÎµÎ½",
        "Î¿ÏĤ"
      ],
      [
        "ĠÎ±á½ĲÏĦ",
        "á¿·"
      ],
      [
        "ĠÕµ",
        "Õ¥Õ¯"
      ],
      [
        "ÜĲÜ¦",
        "ÜłÜĲ"
      ],
      [
        "ĠÜ¢Ü£",
        "ÜĴ"
      ],
      [
        "ĠÎµá¼°",
        "ÏģÎ®"
      ],
      [
        "ĠÎ½",
        "Î±"
      ],
      [
        "Ü©ÜĿ",
        "Ü¦"
      ],
      [
        "Ü¡ÜłÜĲ",
        "ÜŁÜĲ"
      ],
      [
        "Ü¬ÜĿÜĴ",
        "ÜĺÜ¬ÜĲ"
      ],
      [
        "ĠÜķÜ¢ÜĲ",
        "Ü¬ÜĲ"
      ],
      [
        "ĠÎµá½Ĳ",
        "Î»Î¿Î³"
      ],
      [
        "ÜĵÜķ",
        "Ü¦"
      ],
      [
        "Ġá½ĳÏĢ",
        "á½²Ïģ"
      ],
      [
        "Ü«ÜĴÜĺ",
        "Ü©"
      ],
      [
        "ĠÏĢÎ¬Î½",
        "ÏĦÎ±"
      ],
      [
        "ĠÎ¼Îµ",
        "ÏĦÎ±"
      ],
      [
        "ĠÎ´Îµ",
        "ÏĮÎ¼Îµ"
      ],
      [
        "Õ¸ÖĤÕ´",
        "Õ¶"
      ],
      [
        "ÜŁÜłÜĹ",
        "ÜĿÜ¢"
      ],
      [
        "Ü©ÜĴ",
        "ÜłÜĿÜ¢"
      ],
      [
        "Ġá¼ĲÏĢÎ¹",
        "ÏĨ"
      ],
      [
        "ĠÜ«Üĺ",
        "Ü¥ÜĲ"
      ],
      [
        "ĠÎ´ÏĮÎ¾",
        "Î±Î½"
      ],
      [
        "ĠÜķÜĺ",
        "ÜĿÜķ"
      ],
      [
        "Ġá¼ģÎ³Î¹",
        "Î±"
      ],
      [
        "ĠÏĨÎ¹Î»",
        "Î¬Î½"
      ],
      [
        "Õ¡Õ²Õ¸ÖĢÕ¤",
        "Õ¥Õ½ÖģÕ«"
      ],
      [
        "ĠÜ¬ÜªÜ¢",
        "ÜĵÜłÜĲ"
      ],
      [
        "1",
        "1"
      ],
      [
        "1",
        "2"
      ],
      [
        "Î",
        "ļ"
      ],
      [
        "Õ",
        "·ÕŃ"
      ],
      [
        "Ġ",
        "Õ¡"
      ],
      [
        "ÜĲ",
        "ÜĴ"
      ],
      [
        "ÜĲ",
        "Ü«"
      ],
      [
        "ÜĲ",
        "ÜłÜĺ"
      ],
      [
        "Ü¢",
        "Ü¬ÜĲ"
      ],
      [
        "Ü¢",
        "ÜĽÜĿ"
      ],
      [
        "Ü¢",
        "ÜĽÜª"
      ],
      [
        "Üĺ",
        "ÜĻ"
      ],
      [
        "Üł",
        "Ü¬ÜĹ"
      ],
      [
        "Üł",
        "Ü¥ÜłÜ¡"
      ],
      [
        "Ü¡",
        "Üļ"
      ],
      [
        "Ü¡",
        "Ü«ÜŁ"
      ],
      [
        "Ü¬",
        "ÜĴÜĿÜ¢"
      ],
      [
        "Üķ",
        "ÜŁÜł"
      ],
      [
        "Üķ",
        "Ü¬Ü¬"
      ],
      [
        "Üķ",
        "Ü«Ü¡ÜĿÜĲ"
      ],
      [
        "Üķ",
        "ÜķÜĺÜĿÜķ"
      ],
      [
        "ĠÜķ",
        "ÜłÜĹ"
      ],
      [
        "ĠÜķ",
        "Ü«Üĺ"
      ],
      [
        "ĠÜķ",
        "ÜłÜłÜĿÜĲ"
      ],
      [
        "ĠÜĲ",
        "ÜĴÜĺÜĹÜĿ"
      ],
      [
        "ÜŁ",
        "Ü¢Ü«ÜĲ"
      ],
      [
        "ĠÜł",
        "ÜĴÜĺ"
      ],
      [
        "Ü¥",
        "Üķ"
      ],
      [
        "ÜĺÜ¢",
        "Ü¢"
      ],
      [
        "ÜĺÜ¢",
        "ÜĿ"
      ],
      [
        "ĠÜĺ",
        "ÜĿÜ¬"
      ],
      [
        "ĠÜĺ",
        "ÜķÜ¡"
      ],
      [
        "ĠÜĺ",
        "ÜķÜĿ"
      ],
      [
        "ĠÜĺ",
        "ÜļÜķ"
      ],
      [
        "ĠÜĺ",
        "Ü©ÜªÜĴÜĺ"
      ],
      [
        "Ìĩ",
        ":"
      ],
      [
        "ĠÜ¡",
        "Ü¦"
      ],
      [
        "ĠÜ¡",
        "ÜķÜĿÜ¢"
      ],
      [
        "ĠÜĹ",
        "ÜªÜĺÜķÜ£"
      ],
      [
        "Ü¦",
        "ÜĿÜĲ"
      ],
      [
        "Ü¦",
        "Ü«ÜĿ"
      ],
      [
        "ĠÜĴ",
        "Ü¥Üł"
      ],
      [
        "ĠÜĴ",
        "ÜłÜłÜĿÜĲ"
      ],
      [
        "ĠÜĴ",
        "ÜĹÜĿÜ¡Ü¢ÜĺÜ¬ÜĲ"
      ],
      [
        "ĠÜĴ",
        "Ü¢ÜĺÜªÜĲ"
      ],
      [
        "ĠÜĴ",
        "ÜłÜĴÜĹÜĺÜ¢"
      ],
      [
        "Ü£",
        "Ü¢"
      ],
      [
        "Ü£",
        "Ü¡ÜĲ"
      ],
      [
        "ĠÕ",
        "±"
      ],
      [
        "ÜĽ",
        "ÜĹ"
      ],
      [
        "ĠÜ¥",
        "ÜĺÜłÜĲ"
      ],
      [
        "á¼",
        "¡"
      ],
      [
        "Ïĥ",
        "Î¿Ïħ"
      ],
      [
        "Õ¡Õ",
        "©"
      ],
      [
        "Õ¡Õ",
        "Ń"
      ],
      [
        "Õ¡Õ",
        "ºÕ¡Õ·ÕŃÕ¡ÖĢ"
      ],
      [
        "ĠÜĺÜĲ",
        "ÜĿÜŁ"
      ],
      [
        "ĠÜĺÜĲ",
        "ÜļÜªÜ¢ÜĲ"
      ],
      [
        "ĠÜŁ",
        "Ü£"
      ],
      [
        "ĠÜ¢",
        "Ü«ÜŁÜļ"
      ],
      [
        "ĠÜķÜĲ",
        "ÜĿ"
      ],
      [
        "ĠÜķÜĲ",
        "ÜĿÜŁ"
      ],
      [
        "ĠÜłÜĲ",
        "ÜªÜ¥ÜĲ"
      ],
      [
        "ĠÜłÜĲ",
        "ÜĿÜŁÜĲ"
      ],
      [
        "Õ¥",
        "Õ¡"
      ],
      [
        "Õ¥",
        "ÖĦ"
      ],
      [
        "ÏĢ",
        "Î¿Î½"
      ],
      [
        "ĠÜ«",
        "Ü¢ÜĿ"
      ],
      [
        "ĠÜ¬",
        "ÜĹÜĺÜĺÜ¢"
      ],
      [
        "ÜķÜ¡",
        "Ü«ÜĿÜļÜĲ"
      ],
      [
        "Î¼",
        "ÏīÎ½"
      ],
      [
        "Î¼",
        "Î²"
      ],
      [
        "ÜĢ",
        "Üı"
      ],
      [
        "ĠÜ©",
        "ÜĴ"
      ],
      [
        "ĠÜ©",
        "ÜłÜĹ"
      ],
      [
        "ÜªÜĿ",
        "ÜĹÜĺÜ¢"
      ],
      [
        "ÜłÜĿ",
        "ÜĺÜ¡"
      ],
      [
        "ÜĺÜĲ",
        "Ü¬ÜĲ"
      ],
      [
        "ĠÎº",
        "ÎµÏĨ"
      ],
      [
        "ĠÜª",
        "Üļ"
      ],
      [
        "ÜĺÜª",
        "ÜĴ"
      ],
      [
        "ĠÜķÜ¡",
        "ÜĺÜ¬ÜĲ"
      ],
      [
        "ĠÜķÜ¡",
        "Ü«ÜłÜ¡"
      ],
      [
        "ĠÜĺÜĲÜ¡",
        "ÜĿÜ¢"
      ],
      [
        "Î¯",
        "Î±Î½"
      ],
      [
        "Ïī",
        "ÏĦÎ·"
      ],
      [
        "ĠÜķÜ¢",
        "Ü«Ü¬"
      ],
      [
        "ĠÜķÜ¢",
        "ÜĹÜĺÜĺÜ¢"
      ],
      [
        "ĠÜķÜ¢",
        "ÜļÜĻÜĲ"
      ],
      [
        "ÜĴÜķ",
        "ÜĺÜĹÜĿ"
      ],
      [
        "ĠÏĥ",
        "Ïİ"
      ],
      [
        "ĠÏĥ",
        "ÏħÎ³"
      ],
      [
        "ÜĺÜ¡",
        "ÜªÜĲ"
      ],
      [
        "ĠÜłÜ¡",
        "Ü¥ÜĴÜķ"
      ],
      [
        "Îº",
        "Î¿Î½"
      ],
      [
        "Îº",
        "Î»Î·"
      ],
      [
        "Î¿Ïħ",
        "ÏĥÎ¹Î½"
      ],
      [
        "ĠÜ¥Üł",
        "ÜĿÜŁ"
      ],
      [
        "ÜĺÜĴ",
        "ÜĹ"
      ],
      [
        "ÜĺÜł",
        "Ü¦Ü¢ÜĲ"
      ],
      [
        "Î¿á¿¦",
        "Î»"
      ],
      [
        "ĠÜķÜĿ",
        "Ü¡ÜĲ"
      ],
      [
        "Õ¯",
        "ÖĢÕ¿"
      ],
      [
        "ĠÕ¡Õ",
        "½"
      ],
      [
        "ĠÖĩ",
        "Õ´"
      ],
      [
        "ĠÖĩ",
        "Õ°"
      ],
      [
        "ÜĿÜ¡",
        "Ü¡ÜĲ"
      ],
      [
        "ÜłÜĺ",
        "Üļ"
      ],
      [
        "ĠÜĽ",
        "ÜĺÜĴÜĿÜĹÜĺÜ¢"
      ],
      [
        "Ü«Ü¬",
        "ÜĹÜĺÜ¢"
      ],
      [
        "Ïĩ",
        "Î¿ÏĤ"
      ],
      [
        "Ġá¼Ģ",
        "Ïģ"
      ],
      [
        "Ġá¼Ģ",
        "Î³Î±Î¸"
      ],
      [
        "Ü¥Ü¡",
        "ÜŁÜĺÜ¢"
      ],
      [
        "Î´",
        "Î¯"
      ],
      [
        "Î´",
        "Î¬Î½"
      ],
      [
        "ĠÜ¡ÜĽÜł",
        "Ü¬ÜĿ"
      ],
      [
        "ĠÜĺÜ¢",
        "Üļ"
      ],
      [
        "ĠÜĺÜ¢",
        "ÜĹÜĺÜĲ"
      ],
      [
        "ÜķÜª",
        "ÜĹ"
      ],
      [
        "ĠÜĴÜĿ",
        "Ü«"
      ],
      [
        "ĠÜĴÜĹ",
        "Ü¢ÜĲ"
      ],
      [
        "ĠÜĴÜĹ",
        "ÜķÜĲ"
      ],
      [
        "Ü«ÜłÜ¡",
        "ÜĺÜ¢"
      ],
      [
        "Õ¡ÖĢÕ",
        "§"
      ],
      [
        "ÜļÜķ",
        "ÜĺÜ¢"
      ],
      [
        "Õ¤",
        "ÖĢ"
      ],
      [
        "ĠÕ«",
        "Õ¢"
      ],
      [
        "Î¼Îµ",
        "Î¹"
      ],
      [
        "ÜĽÜĿ",
        "ÜªÜĲ"
      ],
      [
        "ÜĽÜĿ",
        "ÜĴÜĲ"
      ],
      [
        "ÜłÜļ",
        "Ü¡"
      ],
      [
        "ÜĺÜĲÜ¡",
        "ÜªÜĿÜ¢"
      ],
      [
        "ĠÕ´",
        "Õ¥Õ²"
      ],
      [
        "ĠÕ´",
        "Õ¡Õ°"
      ],
      [
        "ĠÎ¼",
        "ÎŃ"
      ],
      [
        "ĠÜ©ÜķÜ¡",
        "ÜĿÜ¬ÜĲ"
      ],
      [
        "ĠÕ¸",
        "ÖĦ"
      ],
      [
        "ÜĻÜł",
        "ÜĺÜ¢"
      ],
      [
        "Ü£ÜĿ",
        "ÜĺÜ¢ÜĲ"
      ],
      [
        "ÜķÜĺ",
        "ÜŁÜª"
      ],
      [
        "ĠÜĺÜĲÜ¬",
        "Üĺ"
      ],
      [
        "ĠÜ¡Ü¬",
        "Üļ"
      ],
      [
        "Öħ",
        "ÖĢÕ§"
      ],
      [
        "ĠÜķÜĿÜł",
        "Ü¢"
      ],
      [
        "ĠÜĺÜ¬",
        "Ü¡"
      ],
      [
        "ĠÕ°",
        "Õ¡ÖĤ"
      ],
      [
        "ĠÜ¬ÜłÜ¡",
        "ÜĿÜķÜĲ"
      ],
      [
        "ĠÜĲÜļÜª",
        "Ü¬ÜĲ"
      ],
      [
        "ĠÎ±á½ĲÏĦ",
        "á¿¶Î½"
      ],
      [
        "ĠÎ±á½ĲÏĦ",
        "á½¸ÏĤ"
      ],
      [
        "Ġá¼ĲÏĢ",
        "Î¯"
      ],
      [
        "ĠÜ¥ÜĴÜķ",
        "Üĺ"
      ],
      [
        "ĠÜ¥ÜĴÜķ",
        "Ü¬"
      ],
      [
        "ĠÜ¢Ü¬",
        "Ü©ÜªÜĲ"
      ],
      [
        "ĠÜłÜ¡ÜĲ",
        "ÜŁÜł"
      ],
      [
        "Ü¡ÜłÜł",
        "ÜĺÜ¢"
      ],
      [
        "Õ¡Õ¼",
        "Õ¡Õ»"
      ],
      [
        "ÜłÜĺÜ¬",
        "ÜŁÜĺÜ¢"
      ],
      [
        "Õ¸Õ²",
        "Õ¸Õ¾"
      ],
      [
        "ÎµÏĥ",
        "Î¸Î±Î¹"
      ],
      [
        "ÜķÜ«",
        "ÜķÜªÜ¢ÜĿ"
      ],
      [
        "Õ¸ÖĤÕ¶",
        "Õ½"
      ],
      [
        "ĠÜĴÜ£",
        "Ü¦ÜĿÜ¢Ü¬ÜĲ"
      ],
      [
        "Ġá¼ĢÏĢ",
        "Î¿"
      ],
      [
        "ĠÜķÜ«Ü¡",
        "ÜĹ"
      ],
      [
        "Õ¡Õ°",
        "Õ¡Õ¶"
      ],
      [
        "ĠÜĴÜłÜļ",
        "ÜĺÜķÜĿ"
      ],
      [
        "Õ«Öģ",
        "Õ«Õ¶"
      ],
      [
        "Î¼Î±ÏĦ",
        "Î¿ÏĤ"
      ],
      [
        "ĠÜ¨ÜĴÜĿÜ¢",
        "ÜĲ"
      ],
      [
        "ĠÏĩ",
        "Î¬ÏģÎ¹"
      ],
      [
        "Õİ",
        "Õ¡Õ½Õ¶"
      ],
      [
        "ÜĿÜķÜ¥",
        "ÜĿÜ¢"
      ],
      [
        "Õ¸Öģ",
        "Õ¶"
      ],
      [
        "ĠÕ¨",
        "Õ¤"
      ],
      [
        "ÏįÏģÎ¹",
        "Î¿"
      ],
      [
        "ĠÜĴÜłÜļÜĺÜķ",
        "ÜĺÜĹÜĿ"
      ],
      [
        "Õ¥ÖĢÕ",
        "±"
      ],
      [
        "ÎºÎ±",
        "ÏĦÎ±"
      ],
      [
        "ĠÜ¢Ü«Ü¬",
        "ÜĴÜ©"
      ],
      [
        "Õ¥Õ¼",
        "Õ¶"
      ],
      [
        "ĠÕ¡ÕºÕ¡Õ·ÕŃÕ¡ÖĢ",
        "Õ¥Õ½ÖģÕ§"
      ],
      [
        "ĠÜķÜĴÜĿ",
        "Ü«"
      ],
      [
        "ÕĪ",
        "ÖĢ"
      ],
      [
        "Ü¦ÜĺÜ©",
        "ÜķÜ¢ÜĲ"
      ],
      [
        "ĠÜĽÜĿ",
        "ÜĴÜĺÜ¬ÜĲ"
      ],
      [
        "Ġá¼ĦÎ½",
        "ÏīÎ¸ÎµÎ½"
      ],
      [
        "ĠÕ¡Õ²",
        "ÖħÕ©"
      ],
      [
        "ÜĺÜłÜ¨",
        "Ü¢ÜĲ"
      ],
      [
        "ĠÜķÜļÜķÜĴ",
        "Ü«ÜĴÜĲ"
      ],
      [
        "Õ¡ÖĢÕ¿Õ¡ÖĦ",
        "Õ¸Õµ"
      ],
      [
        ")",
        "Â·"
      ],
      [
        "Î",
        "ķ"
      ],
      [
        "Ï",
        "Ĭ"
      ],
      [
        "Õ",
        "ºÕ¡Õ¿"
      ],
      [
        "Ġ",
        "Î±á½Ĳ"
      ],
      [
        "Ü¢",
        "Ü¢ÜĲ"
      ],
      [
        "Ü¢",
        "Ü©"
      ],
      [
        "Ü¢",
        "Ü¦ÜĲ"
      ],
      [
        "Ü¢",
        "Ü«Ü¬"
      ],
      [
        "Ü¢",
        "ÜĹÜĺÜĺÜ¢"
      ],
      [
        "ÜĿ",
        "ÜķÜĿ"
      ],
      [
        "Üł",
        "Üª"
      ],
      [
        "Üł",
        "ÜĽ"
      ],
      [
        "Üł",
        "ÜļÜķ"
      ],
      [
        "Üł",
        "ÜĴÜªÜĹ"
      ],
      [
        "Ü¡",
        "ÜĿÜ¬"
      ],
      [
        "Ü¡",
        "Ü¡ÜłÜł"
      ],
      [
        "Üª",
        "ÜļÜ¡"
      ],
      [
        "ÜĹ",
        "Üª"
      ],
      [
        "ÜĹ",
        "Ü¬ÜĲ"
      ],
      [
        "ĠÜķ",
        "ÜłÜĺ"
      ],
      [
        "ĠÜĲ",
        "Üķ"
      ],
      [
        "ĠÜĲ",
        "ÜļÜĲ"
      ],
      [
        "ÜŁ",
        "ÜŁ"
      ],
      [
        "ÜŁ",
        "ÜłÜĿÜ¢"
      ],
      [
        "ÜŁ",
        "Ü¢Ü«"
      ],
      [
        "ÜŁ",
        "Ü«Üł"
      ],
      [
        "Ü«",
        "Üķ"
      ],
      [
        "ĠÜł",
        "Ü«Üĺ"
      ],
      [
        "ĠÜł",
        "Ü¦Üª"
      ],
      [
        "ĠÜł",
        "ÜŁÜĲÜ¦ÜĲ"
      ],
      [
        "Ü¥",
        "ÜłÜĲ"
      ],
      [
        "ĠÜĺ",
        "ÜĻ"
      ],
      [
        "ĠÜĺ",
        "ÜķÜ¢"
      ],
      [
        "Üļ",
        "Ü¨"
      ],
      [
        "ĠÜ¡",
        "Ü¬Üª"
      ],
      [
        "ĠÜ¡",
        "Ü¥Ü¡"
      ],
      [
        "ĠÜ¡",
        "Ü¡Ü¬ÜĺÜ¡"
      ],
      [
        "ĠÜĴ",
        "ÜĴÜĿÜ¬"
      ],
      [
        "Ü£",
        "Ü¡"
      ],
      [
        "ÏĦ",
        "á¿·"
      ],
      [
        "ĠÕ",
        "¨Õ¶Õ¯"
      ],
      [
        "ÜĽ",
        "ÜĴÜĲ"
      ],
      [
        "ÜĽ",
        "ÜªÜĿÜ¢"
      ],
      [
        "ĠÜ¥",
        "ÜłÜ¡"
      ],
      [
        "ĠÜ¥",
        "ÜĲÜķÜĲ"
      ],
      [
        "ÜłÜĹ",
        "ÜĿÜ¢"
      ],
      [
        "á¼",
        "µ"
      ],
      [
        "Îµ",
        "á¼°"
      ]
    ]
  }
}